{
  "version": "1.0",
  "truncation": null,
  "padding": null,
  "added_tokens": [
    {
      "id": 0,
      "content": "[PAD]",
      "single_word": false,
      "lstrip": false,
      "rstrip": false,
      "normalized": false,
      "special": true
    },
    {
      "id": 1,
      "content": "[UNK]",
      "single_word": false,
      "lstrip": false,
      "rstrip": false,
      "normalized": false,
      "special": true
    },
    {
      "id": 2,
      "content": "[BOS]",
      "single_word": false,
      "lstrip": false,
      "rstrip": false,
      "normalized": false,
      "special": true
    },
    {
      "id": 3,
      "content": "[EOS]",
      "single_word": false,
      "lstrip": false,
      "rstrip": false,
      "normalized": false,
      "special": true
    }
  ],
  "normalizer": null,
  "pre_tokenizer": {
    "type": "ByteLevel",
    "add_prefix_space": false,
    "trim_offsets": true,
    "use_regex": true
  },
  "post_processor": null,
  "decoder": {
    "type": "ByteLevel",
    "add_prefix_space": true,
    "trim_offsets": true,
    "use_regex": true
  },
  "model": {
    "type": "BPE",
    "dropout": null,
    "unk_token": "[UNK]",
    "continuing_subword_prefix": null,
    "end_of_word_suffix": null,
    "fuse_unk": false,
    "byte_fallback": false,
    "ignore_merges": false,
    "vocab": {
      "[PAD]": 0,
      "[UNK]": 1,
      "[BOS]": 2,
      "[EOS]": 3,
      "!": 4,
      "\"": 5,
      "#": 6,
      "$": 7,
      "%": 8,
      "&": 9,
      "'": 10,
      "(": 11,
      ")": 12,
      "*": 13,
      "+": 14,
      ",": 15,
      "-": 16,
      ".": 17,
      "/": 18,
      "0": 19,
      "1": 20,
      "2": 21,
      "3": 22,
      "4": 23,
      "5": 24,
      "6": 25,
      "7": 26,
      "8": 27,
      "9": 28,
      ":": 29,
      ";": 30,
      "<": 31,
      "=": 32,
      ">": 33,
      "?": 34,
      "@": 35,
      "A": 36,
      "B": 37,
      "C": 38,
      "D": 39,
      "E": 40,
      "F": 41,
      "G": 42,
      "H": 43,
      "I": 44,
      "J": 45,
      "K": 46,
      "L": 47,
      "M": 48,
      "N": 49,
      "O": 50,
      "P": 51,
      "Q": 52,
      "R": 53,
      "S": 54,
      "T": 55,
      "U": 56,
      "V": 57,
      "W": 58,
      "X": 59,
      "Y": 60,
      "Z": 61,
      "[": 62,
      "\\": 63,
      "]": 64,
      "^": 65,
      "_": 66,
      "`": 67,
      "a": 68,
      "b": 69,
      "c": 70,
      "d": 71,
      "e": 72,
      "f": 73,
      "g": 74,
      "h": 75,
      "i": 76,
      "j": 77,
      "k": 78,
      "l": 79,
      "m": 80,
      "n": 81,
      "o": 82,
      "p": 83,
      "q": 84,
      "r": 85,
      "s": 86,
      "t": 87,
      "u": 88,
      "v": 89,
      "w": 90,
      "x": 91,
      "y": 92,
      "z": 93,
      "{": 94,
      "|": 95,
      "}": 96,
      "~": 97,
      "¡": 98,
      "¢": 99,
      "£": 100,
      "¤": 101,
      "¥": 102,
      "¦": 103,
      "§": 104,
      "¨": 105,
      "©": 106,
      "ª": 107,
      "«": 108,
      "¬": 109,
      "®": 110,
      "¯": 111,
      "°": 112,
      "±": 113,
      "²": 114,
      "³": 115,
      "´": 116,
      "µ": 117,
      "¶": 118,
      "·": 119,
      "¸": 120,
      "¹": 121,
      "º": 122,
      "»": 123,
      "¼": 124,
      "½": 125,
      "¾": 126,
      "¿": 127,
      "À": 128,
      "Á": 129,
      "Â": 130,
      "Ã": 131,
      "Ä": 132,
      "Å": 133,
      "Æ": 134,
      "Ç": 135,
      "È": 136,
      "É": 137,
      "Ê": 138,
      "Ë": 139,
      "Ì": 140,
      "Í": 141,
      "Î": 142,
      "Ï": 143,
      "Ð": 144,
      "Ñ": 145,
      "Ò": 146,
      "Ó": 147,
      "Ô": 148,
      "Õ": 149,
      "Ö": 150,
      "×": 151,
      "Ø": 152,
      "Ù": 153,
      "Ú": 154,
      "Û": 155,
      "Ü": 156,
      "Ý": 157,
      "Þ": 158,
      "ß": 159,
      "à": 160,
      "á": 161,
      "â": 162,
      "ã": 163,
      "ä": 164,
      "å": 165,
      "æ": 166,
      "ç": 167,
      "è": 168,
      "é": 169,
      "ê": 170,
      "ë": 171,
      "ì": 172,
      "í": 173,
      "î": 174,
      "ï": 175,
      "ð": 176,
      "ñ": 177,
      "ò": 178,
      "ó": 179,
      "ô": 180,
      "õ": 181,
      "ö": 182,
      "÷": 183,
      "ø": 184,
      "ù": 185,
      "ú": 186,
      "û": 187,
      "ü": 188,
      "ý": 189,
      "þ": 190,
      "ÿ": 191,
      "Ā": 192,
      "ā": 193,
      "Ă": 194,
      "ă": 195,
      "Ą": 196,
      "ą": 197,
      "Ć": 198,
      "ć": 199,
      "Ĉ": 200,
      "ĉ": 201,
      "Ċ": 202,
      "ċ": 203,
      "Č": 204,
      "č": 205,
      "Ď": 206,
      "ď": 207,
      "Đ": 208,
      "đ": 209,
      "Ē": 210,
      "ē": 211,
      "Ĕ": 212,
      "ĕ": 213,
      "Ė": 214,
      "ė": 215,
      "Ę": 216,
      "ę": 217,
      "Ě": 218,
      "ě": 219,
      "Ĝ": 220,
      "ĝ": 221,
      "Ğ": 222,
      "ğ": 223,
      "Ġ": 224,
      "ġ": 225,
      "Ģ": 226,
      "ģ": 227,
      "Ĥ": 228,
      "ĥ": 229,
      "Ħ": 230,
      "ħ": 231,
      "Ĩ": 232,
      "ĩ": 233,
      "Ī": 234,
      "ī": 235,
      "Ĭ": 236,
      "ĭ": 237,
      "Į": 238,
      "į": 239,
      "İ": 240,
      "ı": 241,
      "Ĳ": 242,
      "ĳ": 243,
      "Ĵ": 244,
      "ĵ": 245,
      "Ķ": 246,
      "ķ": 247,
      "ĸ": 248,
      "Ĺ": 249,
      "ĺ": 250,
      "Ļ": 251,
      "ļ": 252,
      "Ľ": 253,
      "ľ": 254,
      "Ŀ": 255,
      "ŀ": 256,
      "Ł": 257,
      "ł": 258,
      "Ń": 259,
      "ĠØ": 260,
      "Ø§": 261,
      "ÛĮ": 262,
      "ÙĪ": 263,
      "Ø¯": 264,
      "ÙĨ": 265,
      "Ø±": 266,
      "Ùħ": 267,
      "Ùĩ": 268,
      "ĠØ¨": 269,
      "Ú©": 270,
      "Øª": 271,
      "Ø³": 272,
      "ĠØ§": 273,
      "Ø´": 274,
      "ĠÙħ": 275,
      "ĠÚ©": 276,
      "ĠØ¯": 277,
      "ÙĦ": 278,
      "ÙĨØ¯": 279,
      "Ø²": 280,
      "Ú¯": 281,
      "ĠØ±": 282,
      "âĢ": 283,
      "Ø¨": 284,
      "âĢĮ": 285,
      "ĠÙĪ": 286,
      "Ø±Ø¯": 287,
      "ĠÙ": 288,
      "ĠØª": 289,
      "ĠØ¨Ø§": 290,
      "Ø§ÙĨ": 291,
      "Ø³Øª": 292,
      "ĠÙħÛĮ": 293,
      "ĠØ®": 294,
      "ĠØ¢": 295,
      "ÛĮØ¯": 296,
      "Ùģ": 297,
      "ØĮ": 298,
      "ĠØ¨Ùĩ": 299,
      "ĠÙ¾": 300,
      "ÙĩØ§": 301,
      "ĠØ±Ø§": 302,
      "ÙĪØ¯": 303,
      "ĠÙĨ": 304,
      "Ø®": 305,
      "ĠÚ¯": 306,
      "ÙĦÛĮ": 307,
      "ÛĮÚ©": 308,
      "ĠØ§ÙĪ": 309,
      "ĠØ³": 310,
      "ĠØ´": 311,
      "ĠØ¢ÙĨ": 312,
      "ĠÚ©Ø±Ø¯": 313,
      "Ø§Ø±": 314,
      "ÚĨ": 315,
      "ÙģØª": 316,
      "ĠØ±ÙĪ": 317,
      "ĠÙĩ": 318,
      "Ø§Ùħ": 319,
      "Ø§Ø¯": 320,
      "ĠØ¨ÙĪØ¯": 321,
      "Ø§Ø´": 322,
      "ĠØ¯Ø±": 323,
      "ĠÛĮÚ©": 324,
      "ÛĮÙħ": 325,
      "ĠØ¯ÙĪ": 326,
      "Ø²ÛĮ": 327,
      "ÛĮÙĨ": 328,
      "ÙĤ": 329,
      "ĠØ®ÙĪ": 330,
      "Ø§ÛĮ": 331,
      "Ø¹": 332,
      "ØŃ": 333,
      "ĠØ²": 334,
      "ĠÚ©Ùĩ": 335,
      "ĠÙĩÙħ": 336,
      "Ø±Ú¯": 337,
      "Ø§Ø´Øª": 338,
      "ĠØ¯ÙĪØ³Øª": 339,
      "ĠØ¨Ø§Ø²ÛĮ": 340,
      "ĠØ§Ø²": 341,
      "Ø¬": 342,
      "Ø§ÙĦ": 343,
      "ĠØ´Ø¯": 344,
      "ĠØ¬": 345,
      "ĠØ±ÙĪØ²": 346,
      "Ġ\"": 347,
      "ÙĪØ§": 348,
      "ĠÚ©ÙĨ": 349,
      "ĠØ¢ÙĨÙĩØ§": 350,
      "ĠÚĨ": 351,
      "ĠÚ¯ÙģØª": 352,
      "ĠØ¨Ø±": 353,
      "Ø§Ø¨": 354,
      "ĠØ¯Ø§Ø´Øª": 355,
      "ĠÙ¾Ø±": 356,
      "ĠØªÛĮÙħ": 357,
      "ĠØ®ÙĪØ´": 358,
      "Ù¾": 359,
      "Ø®Øª": 360,
      "ĠØ®ÛĮ": 361,
      "ĠØ¨Ø²": 362,
      "ÛĮØ±": 363,
      "ĠØªÙĪ": 364,
      "ĠØ®ÛĮÙĦÛĮ": 365,
      "ÙĩØ§ÛĮ": 366,
      "Ø§Ùĩ": 367,
      "ÙĪÙĨ": 368,
      "ĠØ¨Ø²Ø±Ú¯": 369,
      "ÙħÛĮ": 370,
      "ĠØŃ": 371,
      "ĠÚ©ÙĨØ¯": 372,
      "ĠÚ¯Ø±": 373,
      "ĠÙĦ": 374,
      "ÙħØ§": 375,
      "ĠÙģ": 376,
      "ĠÙĤ": 377,
      "ÙĨÚ¯": 378,
      "ĠØ§Ø³Øª": 379,
      "ĠÙĦÛĮ": 380,
      "ĠØ§Ø³": 381,
      "ĠØ¯ÛĮØ¯": 382,
      "Ú©Ø±Ø¯": 383,
      "ĠÚ©ÙĪ": 384,
      "ĠØ®ÙĪØ´ØŃ": 385,
      "Ø°": 386,
      "Ø®ÙĪØ§": 387,
      "ĠØ§ÛĮÙĨ": 388,
      "ĠÚ©Ø±Ø¯ÙĨØ¯": 389,
      "ĠÚ©ÙĪÚĨ": 390,
      "ĠØ§ÙħØ§": 391,
      "ÙĪØ±": 392,
      "Ø·": 393,
      "ĠØ®ÙĪØ´ØŃØ§ÙĦ": 394,
      "ØªØ±": 395,
      "ĠÛĮ": 396,
      "ĠÙĦÛĮÙĦÛĮ": 397,
      "ÙĨØ¯Ùĩ": 398,
      "Ø±Ø´": 399,
      "Ø³ÛĮ": 400,
      "Ø±ÙĪ": 401,
      "ÙĪØ§ÙĨ": 402,
      "Ø¨Ùĩ": 403,
      "ĠØ¨Ø±Ø§ÛĮ": 404,
      "ĠØªØ§Ùħ": 405,
      "ĠØªØ§": 406,
      "Ø¨Ø§": 407,
      "ĠÙħØ§Ø¯": 408,
      "ØªÛĮ": 409,
      "ĠØ¹": 410,
      "ĠØº": 411,
      "Ø§ÙĨÙĩ": 412,
      "Ø§ÙĤ": 413,
      "Øº": 414,
      "ĠÙħÙĨ": 415,
      ".\"": 416,
      "Ø±ÛĮ": 417,
      "ÙĪØ´": 418,
      "ĠØµ": 419,
      "Ø¨ÛĮ": 420,
      "ĠØ±ÙģØª": 421,
      "ÙĪÛĮ": 422,
      "ĠÙ¾Ø³": 423,
      "ĠÙ¾ÛĮØ¯": 424,
      "ĠØ²Ø¯": 425,
      "Øµ": 426,
      "ĠÙ¾ÛĮØ¯Ø§": 427,
      "ĠÚ©Ùħ": 428,
      "Ø´Ø§ÙĨ": 429,
      "Ø³ÛĮØ¯": 430,
      "ĠÙ¾Ø±ÙĨØ¯Ùĩ": 431,
      "ĠØ¯Ø§Ø¯": 432,
      "ĠÙĨØ§Ùħ": 433,
      "Ø®ÙĪØ§Ø³Øª": 434,
      "Ú¯Ø±": 435,
      "ĠÙĨÙħÛĮ": 436,
      "ĠÚ©ÙĪÚĨÚ©": 437,
      "Ø±Ø§": 438,
      "ĠØ±ÙĪÛĮ": 439,
      "ØªÙĪØ§ÙĨ": 440,
      "ÙĪÙĦ": 441,
      "ĠÚ©ÙħÚ©": 442,
      "Ú¯ÛĮ": 443,
      "ĠÚĨÛĮ": 444,
      "!\"": 445,
      "Ø¨Ø§Ø¨": 446,
      "ÛĮØ§": 447,
      "ĠØ³ÙĪ": 448,
      "ĠØ¯ÛĮ": 449,
      "Ø§Øª": 450,
      "Ø§Ø³": 451,
      "ĠØ§Ø³Ø¨Ø§Ø¨": 452,
      "ÚĨÙĩ": 453,
      "ĠÚ¯Ø±ÙģØª": 454,
      "Ú©Ø³": 455,
      "ĠØ¯Ø§": 456,
      "ĠØ¨ÙĪØ¯ÙĨØ¯": 457,
      "Ø±Ùħ": 458,
      "ØŁ": 459,
      "ĠÙħØ§Ø¯Ø±Ø´": 460,
      "Ú©ÙĨ": 461,
      "Ø¹Ø¯": 462,
      "ĠØ³Ú¯": 463,
      "Ø±Ùĩ": 464,
      "ĠÚ©ÙĨÙĨØ¯": 465,
      "ĠØ²ÛĮ": 466,
      "Ø´Øª": 467,
      "ĠØªÙĪÙ¾": 468,
      "Ø²Ø¯": 469,
      "ĠÙĨÚ¯": 470,
      "ĠØ¨ÙĨ": 471,
      "ĠÙĩÙħÙĩ": 472,
      "ĠØ®Ø§ÙĨÙĩ": 473,
      "Ú©Ø±": 474,
      "Ø¨Ø§Ø±": 475,
      "ĠØ¨Ø¹Ø¯": 476,
      "ĠÚ¯Ø±Ø¨Ùĩ": 477,
      "ĠØ¯ÙĪØ³ØªØ§ÙĨ": 478,
      "Ø±Ø¨": 479,
      "ĠÙĪÙĤ": 480,
      "ĠØ¨Ø§Ø´": 481,
      "ĠØ¯Ø±Ø®Øª": 482,
      "ĠÙħØ§": 483,
      "Ø¸": 484,
      "ĠØ¯Ø®Øª": 485,
      "Ø®ÙĨØ¯": 486,
      "ÙĦØ§": 487,
      "ĠÙ¾Ø§Ø±": 488,
      "ĠØ¯Ø§Ø±": 489,
      "ĠØ¨Ø¯": 490,
      "ÛĮØ´": 491,
      "ĠØ§ØŃ": 492,
      "ĠÛĮÙĩ": 493,
      "ĠÚ©Ø±Ø¯ÙĨ": 494,
      "ĠÙĩØ±": 495,
      "ÙħØ¯": 496,
      "ÙħØª": 497,
      "ĠÙĪÙĤØªÛĮ": 498,
      "ĠØ¨Ø±Ø¯": 499,
      "Ø§ÙħØ§ÙĨ": 500,
      "Ø±ÙĪØ¹": 501,
      "ĠÙĨÚ¯Ø§Ùĩ": 502,
      "ĠØ´Ø±ÙĪØ¹": 503,
      "ØŁ\"": 504,
      "ĠÙĦØ¨": 505,
      "ÙħÙĨ": 506,
      "Ø³ØªÙĨØ¯": 507,
      "ĠØ§ÙĪÙĨ": 508,
      "ĠØ´Ø¯ÙĨØ¯": 509,
      "ÙĪØ±Ø¯": 510,
      "ĠØ§Øª": 511,
      "ĠÙĦØ¨Ø®ÙĨØ¯": 512,
      "Ø§Ø±Ø§": 513,
      "ĠØ±ÙĪØ²ÛĮ": 514,
      "Ø²Ùĩ": 515,
      "ĠØªØ±": 516,
      "ĠÚ¯Ø°": 517,
      "ĠØ¯ÛĮÚ¯Ø±": 518,
      "ĠÚ©Ø§Ø±": 519,
      "ĠØªÙħ": 520,
      "ÛĮØ¯ÙĨØ¯": 521,
      "ĠÙ¾Ø§Ø±Ú©": 522,
      "ĠØ§ØŃØ³": 523,
      "ĠØ§ØŃØ³Ø§Ø³": 524,
      "ĠØ³Ø±": 525,
      "Ø§ÙĨÛĮ": 526,
      "ĠØ²ÙĨØ¯": 527,
      "ĠØ¨ÙĦ": 528,
      "ĠÙħØ±Ø¯": 529,
      "ÙĨØ¬": 530,
      "Ø§Ø¯Ùĩ": 531,
      "ĠØ®ÙĪØ¯": 532,
      "ĠÙħÙĩ": 533,
      "Ø¬Ø§": 534,
      "ĠØ¨Ø±Ú¯": 535,
      "Ø§ÙĦÛĮ": 536,
      "ĠÙħØ§ÙħØ§ÙĨ": 537,
      "ĠØ´Ø¯Ùĩ": 538,
      "ĠÚĨÛĮØ²": 539,
      "ĠØ²ÙĨØ¯Ú¯ÛĮ": 540,
      "Ø§Ø´ÛĮÙĨ": 541,
      "ĠØ¯Ø³Øª": 542,
      "ĠÙħØ§Ø´ÛĮÙĨ": 543,
      "ĠØµØ¯": 544,
      "ĠÚ©ÙĪÚĨÙĪÙĦ": 545,
      "ĠØ¯Ø®ØªØ±": 546,
      "Ø¢": 547,
      "ĠÙģÚ©Ø±": 548,
      "Ú©Ùĩ": 549,
      "ÙĪÛĮØ¯": 550,
      "ĠÙħØª": 551,
      "Ø§Ø¯ÛĮ": 552,
      "Ø¨Ø§Ø±Ùĩ": 553,
      "Ø¯Ø±": 554,
      "ĠØ®ÙĪØ§": 555,
      "Ø¯ÛĮØ¯": 556,
      "ÛĮØ±ÙĪÙĨ": 557,
      "ĠØ¨ÛĮØ±ÙĪÙĨ": 558,
      "Ú¯Ùĩ": 559,
      "ĠØ¨Ø§ÛĮØ¯": 560,
      "Ø¨Ø§Ø²ÛĮ": 561,
      "Ø§Ú©": 562,
      "ÙĩØ¯": 563,
      "ĠÛĮØ§Ø¯": 564,
      "ĠØ¢ÙħØ¯": 565,
      "ĠØ¨Ø³ÛĮ": 566,
      "ĠØ¨ÙĩØªØ±": 567,
      "ĠØŃØ§ÙĦ": 568,
      "ĠÙħÙĪ": 569,
      "ÛĮÙĩ": 570,
      "ÙĨÙĩ": 571,
      "ĠÙħÚ©Ø³": 572,
      "ĠØ¨Ø³ÛĮØ§Ø±": 573,
      "Ø¯Ø§ÙĨ": 574,
      "ĠØªØµ": 575,
      "Ø¹ÛĮ": 576,
      "Ú©Ø±Ø¯ÙĨØ¯": 577,
      "ĠØ¨Ø²Ø±Ú¯ÛĮ": 578,
      "ĠÙħØ§Ø¯Ø±": 579,
      "Ø«": 580,
      "ĠØ¬Ø¹": 581,
      "ĠØºÙħ": 582,
      "ĠØ·": 583,
      "ĠÙĨØ¨": 584,
      "ÙħØ§ÙĨ": 585,
      "ĠØ§Ø´": 586,
      "ĠØ¯Ø§Ø´ØªÙĨØ¯": 587,
      "ĠØªÙħØ§Ùħ": 588,
      "ĠÙĨØ§": 589,
      "Ø§ÙĩÛĮ": 590,
      "ĠØ¬Ø¹Ø¨Ùĩ": 591,
      "ØŃØª": 592,
      "ĠØ¨Ø§Ø²": 593,
      "ĠØ¢Ø¨": 594,
      "ĠÙħØ±": 595,
      "Ø®ÙĦ": 596,
      "ĠØ¬Ø¯ÛĮØ¯": 597,
      "ĠÙĦÙĪ": 598,
      "Ú¯ÛĮÙĨ": 599,
      "ĠÚ©ÙĨÛĮÙħ": 600,
      "ÙĪØ§Ø²": 601,
      "ĠØºÙħÚ¯ÛĮÙĨ": 602,
      "ĠØ¨Ú¯": 603,
      "ĠØ±ÙĨÚ¯": 604,
      "ĠÙ¾Ø³Ø±": 605,
      "ĠØ¨Ø®": 606,
      "ĠØ§ÙģØª": 607,
      "Ø¶": 608,
      "ĠØ¨ÙĦÙĨØ¯": 609,
      "ÙĦÙĩ": 610,
      "ĠÙ¾Ø§ÛĮ": 611,
      "ÙĪÛĮÛĮ": 612,
      "Ú©ÙĨØ¯": 613,
      "ĠÙĨØ²Ø¯": 614,
      "ĠØ¯ÙĪØ³ØªØ§ÙĨØ´": 615,
      "ĠØ³Ø§Ùħ": 616,
      "ĠÙħÛĮØ§": 617,
      "ĠÙĩÛĮ": 618,
      "ĠØ¨Ø§ÙĦØ§": 619,
      "ĠÙ¾Ø±Ø³ÛĮØ¯": 620,
      "ĠÙĦÙĪØ³ÛĮ": 621,
      "ĠØ¯ÙĪØ¨Ø§Ø±Ùĩ": 622,
      "Ø±Ùģ": 623,
      "ĠÚ©Ø±Ø¯Ùĩ": 624,
      "Ø§Ø±ÛĮ": 625,
      "ĠØ®ÙĪØ¨ÛĮ": 626,
      "Â»": 627,
      "ĠØ¨ÛĮ": 628,
      "ĠØ§Ø³Ù¾": 629,
      "ĠØ§Ø³Ùħ": 630,
      "Ø§ÛĮÛĮ": 631,
      "ÛĮØ´Ùĩ": 632,
      "ĠÚ©ÙĪÚĨÙĪÙĦÙĪ": 633,
      "Â«": 634,
      "ÙħÛĮÙħ": 635,
      "Ú©Ø§ÙĨ": 636,
      "ÙĪØ¨": 637,
      "Ø¯ÛĮ": 638,
      "ĠØ®Ø±": 639,
      "ĠØ®ÙĪØ§Ø³Øª": 640,
      "ĠØ§ÛĮ": 641,
      "Ø´Ø¯": 642,
      "ĠØ§Ø³Ù¾Ø§Øª": 643,
      "ĠØ³ÙĨÚ¯": 644,
      "ĠÙħÙĩØ±Ø¨": 645,
      "ĠÚĨÙĩ": 646,
      "ĠØ´ÙĨ": 647,
      "ÙĩØ§ÛĮØ´": 648,
      "ĠÚ©ÙĦ": 649,
      "ĠÙĨØ§Ø±Ø§": 650,
      "ĠØ³Ø¹ÛĮ": 651,
      "ĠÚ©ÙĨÙħ": 652,
      "ĠØ¨Ø¨": 653,
      "Ø§Ùģ": 654,
      "ĠÚ©Ø´": 655,
      "ĠÂ«": 656,
      "ĠÚ¯Ø°Ø§Ø´Øª": 657,
      "Ø®ÙĪØ§Ùĩ": 658,
      "ĠØ²ÛĮØ§Ø¯ÛĮ": 659,
      "Ø³ØªÙĩ": 660,
      "ĠØªØµÙħÛĮÙħ": 661,
      "ĠØ²Ùħ": 662,
      "ĠØ³ÙħØª": 663,
      "ÛĮØ¯ÙĨ": 664,
      "ĠÙĨÛĮ": 665,
      "ĠÙĨØ¨ÙĪØ¯": 666,
      "ĠÙĨØ¯": 667,
      "ĠØ¯Ø§Ø±Ø¯": 668,
      "ĠÙĩØ³Øª": 669,
      "ÛĮØ¯Ùĩ": 670,
      "ĠÚ¯ÙĦ": 671,
      "ĠÙĤØ±Ùħ": 672,
      "ĠÙĨØ§Ø±Ø§ØŃØª": 673,
      "ĠØ¯ÙĪØ±": 674,
      "ĠÙĨØ²Ø¯ÛĮÚ©": 675,
      "ĠÙ¾Ø±ÙĪØ§Ø²": 676,
      "ØªÙĪØ§ÙĨØ³Øª": 677,
      "ÙĨØ¨": 678,
      "ĠØ±ÙģØªÙĨØ¯": 679,
      "ĠØ¨Ø§Ø¨": 680,
      "ĠØªÚ©Ø§ÙĨ": 681,
      "ĠÙĨØ§Ú¯Ùĩ": 682,
      "ĠØ¯Ø§Ø®ÙĦ": 683,
      "Ø§ÙĪ": 684,
      "ĠÙĨØ§Ú¯ÙĩØ§ÙĨ": 685,
      "ĠÙĩÙħÛĮØ´Ùĩ": 686,
      "ÙħÙĩ": 687,
      "ØªÙĪÙĨ": 688,
      "Ø§ÙĨØ¯": 689,
      "ĠØ§ÙģØªØ§Ø¯": 690,
      "ĠØ§ØªØ§ÙĤ": 691,
      "ĠÙĤØ±ÙħØ²": 692,
      "ĠØ²ÛĮØ¨Ø§": 693,
      "Ø´ÙĨ": 694,
      "Ú¯ÙĪÛĮØ¯": 695,
      "ĠØ¨Ø±Ú¯Ø´Øª": 696,
      "ĠØ®ÙĪØ±Ø¯": 697,
      "ĠÚ©ÙĨÙĩ": 698,
      "ÙĪÙĤ": 699,
      "Ø¯Ø§ÙĨØ³Øª": 700,
      "ØªØ§Ø¨": 701,
      "ĠØ¨ÚĨÙĩ": 702,
      "Ø§Ø²": 703,
      "ĠÙĩØ³ØªÙĨØ¯": 704,
      "ĠØªØ¹": 705,
      "ĠØ¯ÙĪØ³ØªØ´": 706,
      "ĠØ¨Ø§Ø±": 707,
      "ĠÚ©ÙĨÛĮ": 708,
      "ĠØ¨Ø§ÙĦ": 709,
      "ĠØ¯Ø±Ø³Øª": 710,
      "Ø¸Ø±": 711,
      "ĠØ²ÙħÛĮÙĨ": 712,
      "ÙĪÙĨØ¯": 713,
      "ĠØ¨Ø±Ø¯Ø§Ø´Øª": 714,
      "ĠØ¢Ø±": 715,
      "ĠØ®ÙĨØ¯": 716,
      "ĠÙħØ§Ú©Ø³": 717,
      "ĠÙĩØ§": 718,
      "ĠØ®ÙĪØ§Ùĩ": 719,
      "ĠØ¨Ø§Ø´Ø¯": 720,
      "Ú©ÙĨÙĨØ¯": 721,
      "ĠØ±Ø³ÛĮØ¯": 722,
      "ĠÚ©ÛĮ": 723,
      "ĠØ®ÙĪØ¨": 724,
      "ÙģØªØ§Ø¨": 725,
      "ĠØ¨ÛĮØ§": 726,
      "ÙģØ§ÙĤ": 727,
      "ĠØ§ØªÙģØ§ÙĤ": 728,
      "ĠÚ¯ÙĪØ´": 729,
      "ĠØ¢ÙģØªØ§Ø¨": 730,
      "ĠÚĨÙĪÙĨ": 731,
      "ĠØ´ÛĮØ±": 732,
      "ĠØ²ÛĮØ±": 733,
      "ĠØ´ÙĪØ¯": 734,
      "ÙĪØ§ÙĨØ¯": 735,
      "ĠØºØ°": 736,
      "ĠØªØ±Ø³ÛĮØ¯": 737,
      "ĠØ§ÙĨØ¬": 738,
      "ĠØ§ÙĨØ¬Ø§Ùħ": 739,
      "ĠÙħØ§ÙĩÛĮ": 740,
      "ÙĨØ¯ÙĨØ¯": 741,
      "ĠÙħÙĩØ±Ø¨Ø§ÙĨ": 742,
      "Ø´Ú©": 743,
      "ĠÙĤØ¯": 744,
      "ĠØ¨ÙĩØªØ±ÛĮÙĨ": 745,
      "Úĺ": 746,
      "ĠØ¯ÛĮØ¯ÙĨØ¯": 747,
      "Ø·ÙĪØ±": 748,
      "Ø§Ø±Ø¯": 749,
      "ĠØµØ¯Ø§ÛĮ": 750,
      "ĠÙĨØ´Ø§ÙĨ": 751,
      "Ø¬ÙĪØ¯": 752,
      "ÙĤØ¯Ø±": 753,
      "ĠØ±Ø§Ùĩ": 754,
      "ĠØ³Ø±ÛĮ": 755,
      "ĠÙĪÙĦÛĮ": 756,
      "ĠÙĨÛĮØ³Øª": 757,
      "ĠÙĩØ§ÛĮ": 758,
      "ĠØ¢Ø³": 759,
      "ĠØŃÛĮ": 760,
      "ĠÙģØ±": 761,
      "ÙĦØ§Ùħ": 762,
      "Ø§Ø®Øª": 763,
      "ØºÙĦ": 764,
      "ĠØ³Ø±ÛĮØ¹": 765,
      "Ú©ÛĮ": 766,
      "ÙĨØ¨Ø§ÙĦ": 767,
      "Ø´Ùħ": 768,
      "ĠØ¯ÙĨØ¨Ø§ÙĦ": 769,
      "ÙĨÛĮ": 770,
      "ĠØ¯ÙĪÛĮØ¯": 771,
      "ĠØŃÛĮÙĪØ§ÙĨ": 772,
      "ÙħØ²Ùĩ": 773,
      "ĠÙ¾Ø§ÛĮÛĮÙĨ": 774,
      "ØªÙĪØ§ÙĨØ¯": 775,
      "ĠÙħØ«": 776,
      "ĠÙ¾Ø¯": 777,
      "ÙĪÙĩ": 778,
      "Ø±Ú¯ÙĪØ´": 779,
      "ĠØªØ´": 780,
      "ĠØ®Ø±Ú¯ÙĪØ´": 781,
      "ĠÚĨÛĮØ²ÛĮ": 782,
      "ĠÙħØ«ÙĦ": 783,
      "ĠÙĨØ´": 784,
      "ĠØ¬ÙĨÚ¯": 785,
      "ĠÚ¯Ø±ÙģØªÙĨØ¯": 786,
      "ĠØªÙĪÛĮ": 787,
      "ĠÚĨÛĮØ²ÙĩØ§ÛĮ": 788,
      "ÙĲ": 789,
      "ĠØ³Ø±Ú¯": 790,
      "ÙĤÙĩ": 791,
      "ĠÙĪØ¬ÙĪØ¯": 792,
      "ĠØ§ÛĮÙĨÚ©Ùĩ": 793,
      "ÙĦÙĪ": 794,
      "ĠÚ©ÙĪÚĨÚ©ÛĮ": 795,
      "ĠÙħØ¯": 796,
      "ĠØ¯Ùĩ": 797,
      "Ùĭ": 798,
      "ĠØ³Ø§Ø±Ø§": 799,
      "Ø±Ø®": 800,
      "Ùİ": 801,
      "ĠØ¨ÛĮØ´": 802,
      "Ø¬Ø§ÙĨ": 803,
      "Ø±ÙĪØ³": 804,
      "ĠØ®Ø§ÙĨ": 805,
      "ĠØ®ÙĪØ¯Ø´": 806,
      "ĠØ¯ÙĩØ¯": 807,
      "ĠÙ¾ÛĮ": 808,
      "ĠØ¨ØºÙĦ": 809,
      "ĠØªÙĨ": 810,
      "ĠØ´Ú©": 811,
      "ĠÚ©ÛĮÚ©": 812,
      "Ø¨Ø±": 813,
      "Ø§ÙħÛĮ": 814,
      "Ø¨ÙĦÙĩ": 815,
      "ĠÙĨÙĤ": 816,
      "ĠØªÙĦ": 817,
      "ĠØ¯Ø§Ø±Ùħ": 818,
      "ĠÙĦØ°": 819,
      "ĠÙħØ³": 820,
      "ĠÙģÙĤ": 821,
      "ĠØ¨ÛĮØ´ØªØ±": 822,
      "ÙĪØ²": 823,
      "ĠØ¹Ø±ÙĪØ³": 824,
      "ĠÙĩÛĮØ¬Ø§ÙĨ": 825,
      "ĠÙħØŃ": 826,
      "Ø§ÙĤØ¨": 827,
      "Ø±Ø¨ÚĨÙĩ": 828,
      "ĠÙĦØ°Øª": 829,
      "ĠØ¬ÙĨÚ¯ÙĦ": 830,
      "ĠØ¹Øµ": 831,
      "ĠØ¯Ø§Ø±ÙĨØ¯": 832,
      "ĠÙħØ±Ø§ÙĤØ¨": 833,
      "Ø§ØŃ": 834,
      "ÛĮØ¨": 835,
      "ĠØ´Ø§Ø¯": 836,
      "ĠØ®ÙĪØ´ÙħØ²Ùĩ": 837,
      "ĠØŃØ±Ùģ": 838,
      "ĠÙ¾Ø¯Ø±Ø´": 839,
      "Ú©Øª": 840,
      "ĠØ®Ø±Ø³": 841,
      "Ø³Ùĩ": 842,
      "ĠØªØ´Ú©Ø±": 843,
      "ÙĩØ±": 844,
      "ĠØ¢ÙĨØ§": 845,
      "ĠØ¢Ø³ÙħØ§ÙĨ": 846,
      "ĠØ³Ø±Ú¯Ø±Ùħ": 847,
      "ĠÙģÙĤØ·": 848,
      "ĠÚ©ÙĨØ§Ø±": 849,
      "ĠØ³Ùħ": 850,
      "ĠØŃØ´": 851,
      "ĠØŃÛĮÙĪØ§ÙĨØ§Øª": 852,
      "ØªØ´": 853,
      "ĠØ¯Ø§Ø´ØªÙĩ": 854,
      "ÙħÙĪ": 855,
      "Ú¯ÛĮØ±": 856,
      "ĠØ²Ø¯Ùĩ": 857,
      "ĠØªÙĪØ§ÙĨ": 858,
      "ØªÙĪØ§ÙĨÙħ": 859,
      "ĠØ´ÙħØ§": 860,
      "Ø´Ùĩ": 861,
      "ĠØ¨Ø¨ÛĮÙĨ": 862,
      "ĠØ³Ø¨": 863,
      "Ø¨ÛĮÙĨØ¯": 864,
      "Ø¹Ùĩ": 865,
      "ĠØ¬Ø§Ø¯": 866,
      "ÛĮÙĦ": 867,
      "ĠØ¨Ù¾": 868,
      "Ú¯ÛĮØ±Ø¯": 869,
      "Ú©ÙĨÙħ": 870,
      "Ø§Ø±Ùĩ": 871,
      "Ø¬Ø¨": 872,
      "ĠØ¢Ø¨ÛĮ": 873,
      "ØºÙĩ": 874,
      "Ø³ØªØ§ÙĨ": 875,
      "ĠÚ¯Ø±ÛĮÙĩ": 876,
      "ĠÚ©ØªØ§Ø¨": 877,
      "ĠØ¨Ú¯ÛĮØ±": 878,
      "Ø¨Ø§Ø±ÛĮ": 879,
      "ĠÙĨØ¸Ø±": 880,
      "ĠØ¬Ø§ÙĦ": 881,
      "ĠÙĤØ¯Ùħ": 882,
      "Ø¦": 883,
      "ÙĦØ§ÙĤ": 884,
      "Ø¹Øª": 885,
      "ĠÙĤÙĪØ±": 886,
      "Ø±Ø§ÙĨØ¯ÙĨØ¯": 887,
      "ĠØªØ±Ø³ÛĮØ¯Ùĩ": 888,
      "ĠÙĤÙĪØ±Ø¨Ø§": 889,
      "ĠØ¯Ø±Ø®": 890,
      "ĠÙĤÙĪØ±Ø¨Ø§ØºÙĩ": 891,
      "Ø¨Ø§ÙĨÛĮ": 892,
      "ĠÙĪÛĮ": 893,
      "ÙģØ§": 894,
      "ĠØµØ¯Ø§": 895,
      "ĠØ§ÛĮØ¯Ùĩ": 896,
      "ĠØŃØ´Ø±Ùĩ": 897,
      "ĠØ¨Ø§Ø¯": 898,
      "ĠÙ¾ÛĮØ±": 899,
      "ĠØ´Ø§": 900,
      "ĠØªØ§Ø¨": 901,
      "ÛĮÙħÛĮ": 902,
      "ĠØ¹Ø±ÙĪØ³Ú©": 903,
      "ĠØ¹ØµØ¨Ø§ÙĨÛĮ": 904,
      "Ú¯Ø§Ùĩ": 905,
      "ÙĪØ¯ÛĮ": 906,
      "ĠØºØ°Ø§": 907,
      "ĠÚ©ÙħÛĮ": 908,
      "Ø¬Ùĩ": 909,
      "ĠØ²Ø¯ÙĨØ¯": 910,
      "ÙħÛĮØ¯": 911,
      "Ø²Ø¯Ùĩ": 912,
      "Ø§ÛĮÙĨ": 913,
      "ĠØ¨Ø§Øº": 914,
      "ÙĤÛĮ": 915,
      "Ø¸Ø±Ùĩ": 916,
      "Ø³ÙĦØ§Ùħ": 917,
      "ĠÙħØ±Ø¯Ùħ": 918,
      "ĠØ´ÙĩØ±": 919,
      "Ú¯Ø§Ø±ÛĮ": 920,
      "Ø¯ÛĮÚ¯Ø±": 921,
      "ĠØºÛĮØ±": 922,
      "ÙĨØ´": 923,
      "Ú¯ÙģØª": 924,
      "ĠØŃØ§ÙĦØ§": 925,
      "ĠØ¨Ø±ÙĪØ¯": 926,
      "ØªÙĪØ§ÙĨÛĮ": 927,
      "ĠØ¯Ø§Ø³ØªØ§ÙĨ": 928,
      "Ø·Ø±": 929,
      "ÙĶ": 930,
      "ĠØ²Ø¯ÙĨ": 931,
      "ĠØ¨Ú¯Ø°": 932,
      "ĠÚ¯ÙģØªÙĨØ¯": 933,
      "ÙĤØµ": 934,
      "ĠØ³Ù¾": 935,
      "ĠÚĨÙĪØ¨": 936,
      "ĠØ¯Ø±Ø®Ø´Ø§ÙĨ": 937,
      "Ø§ÛĮØ´": 938,
      "ĠÙ¾Ø±ÛĮØ¯": 939,
      "ØªØ±Ø§Ú©": 940,
      "ĠØ§Ø´ØªØ±Ø§Ú©": 941,
      "ÙĦÙģ": 942,
      "ĠØ¢ÛĮØ§": 943,
      "ĠØ±ÙĪØ²Ú¯Ø§Ø±ÛĮ": 944,
      "ĠØ¨Ø§ÙĦØ§ÛĮ": 945,
      "ĠØ¨Ú¯ÛĮØ±Ø¯": 946,
      "ĠØ¯Ø§Ø¯ÙĨØ¯": 947,
      "ĠØ¯Ø®ØªØ±ÛĮ": 948,
      "ØªØ¸Ø±Ùĩ": 949,
      "Ø§Ø±Ø³ÛĮ": 950,
      "ĠÙģØ§Ø±Ø³ÛĮ": 951,
      "ÚĺÙĩ": 952,
      "Ø³Ø¯": 953,
      "ĠÚĨØ·ÙĪØ±": 954,
      "ÙģÙĤ": 955,
      "ĠÙĨÚ¯Ùĩ": 956,
      "Ø¯Ø§Ùħ": 957,
      "ĠØ§ÙĨØ¯": 958,
      "ÙĪØ§Ø±": 959,
      "ÙĩØ§ÛĮÛĮ": 960,
      "Ø·ÙģØ§": 961,
      "Ú¯Ø°": 962,
      "ĠÙĨÙĩ": 963,
      "ĠØ³Ø±Ø³": 964,
      "ÙĪÙħ": 965,
      ".Â»": 966,
      "ĠÙħÙĪØ´": 967,
      "ĠØŃØ§ÙĦÛĮ": 968,
      "ÙģØ§Ø¯Ùĩ": 969,
      "ĠÛĮØ§": 970,
      "ÙħÙĪÙĨ": 971,
      "ĠØŃØ±": 972,
      "ĠØ§Ø³ØªÙģØ§Ø¯Ùĩ": 973,
      "ĠØ¬Ø§Ø¯ÙĪÛĮÛĮ": 974,
      "Ø¨Øª": 975,
      "Ø®Ø§ÙĨÙĩ": 976,
      "ĠÙ¾Ø³Ø±Ø¨ÚĨÙĩ": 977,
      "ĠØ§ÙĨ": 978,
      "ĠØ³Ø§ÙĦÛĮ": 979,
      "ĠÚ©ÙĪÚĨÙĪÙĦÙĪÛĮÛĮ": 980,
      "ĠÚ©Ø´ÛĮØ¯": 981,
      "ÙħØ´": 982,
      "ĠØ®ÙĪØ§Ø¨": 983,
      "ĠÚ¯Ø°Ø±Ø§ÙĨØ¯ÙĨØ¯": 984,
      "ĠØ´Ø¯ÙĨ": 985,
      "ĠØ®ÙĪØ±Ø´": 986,
      "ĠØ®ÙĪØ±Ø´ÛĮØ¯": 987,
      "ĠÙ¾Ø³Ø±ÛĮ": 988,
      "ÛĮØ§Ø²": 989,
      "ĠØ®ÙĨØ¯ÛĮØ¯ÙĨØ¯": 990,
      "ÙĪØ§Ø¯Ùĩ": 991,
      "ÙħÛĮØ²": 992,
      "Ø¨ÛĮØ§": 993,
      "!Â»": 994,
      "ĠØ³Ø§Ø®Øª": 995,
      "ĠØ¢ÙĨØ¬Ø§": 996,
      "ØªÙĪØ§ÙĨÛĮÙħ": 997,
      "Ø®ÙĪØ§ÙĩÛĮ": 998,
      "ĠØ®Ø§ÙĨÙĪØ§Ø¯Ùĩ": 999,
      "ÛĮÙĨÛĮ": 1000,
      "ĠÚ©ÙĦØ§Ùĩ": 1001,
      "Ø¯Ø§Ø¯": 1002,
      "ĠØŃÛĮØ§": 1003,
      "ĠØ®ÙĪØ´ØŃØ§ÙĦÛĮ": 1004,
      "ĠØªØ¹Ø¬Ø¨": 1005,
      "ĠØŃÛĮØ§Ø·": 1006,
      "Ø¬ÙħÙĩ": 1007,
      "Ø®ÙĪØ§Ø³ØªÙĨØ¯": 1008,
      "ĠØ³Ø®Øª": 1009,
      "ĠÚ©ÙĨÛĮØ¯": 1010,
      "ĠØ³Ø±Ø³Ø±Ùĩ": 1011,
      "ĠÙģØ±ÙĪ": 1012,
      "ĠØµÙĪØ±": 1013,
      "ĠØ³Ø±Ø´": 1014,
      "ĠÙħØ§ÙħØ§ÙĨØ´": 1015,
      "ĠÙĩÛĮÚĨ": 1016,
      "Ú©Ø´": 1017,
      "ĠØ¢ÙĪØ±Ø¯": 1018,
      "ĠÙħÙĩÙħ": 1019,
      "ĠØŃØ±Ú©Øª": 1020,
      "ÙĪØ¬Ùĩ": 1021,
      "ĠØ´ÙĨÛĮØ¯": 1022,
      "ĠØªÙĦØ§Ø´": 1023,
      "ĠØ¨Ø¯Ùĩ": 1024,
      "ĠÙħØ¹": 1025,
      "ÙħÙĨØªØ¸Ø±Ùĩ": 1026,
      "ĠØºÛĮØ±ÙħÙĨØªØ¸Ø±Ùĩ": 1027,
      "Ø±ÙģØª": 1028,
      "ĠØ¬Ø§ÛĮ": 1029,
      "ĠØµÙĨØ¯": 1030,
      "ĠØ¨Ø±Ú¯Ø±Ø¯": 1031,
      "ĠØ¨Ø®ÙĪØ±": 1032,
      "ĠØŃØªÛĮ": 1033,
      "ĠÙĪÛĮÚĺÙĩ": 1034,
      "ĠØ¨Ø¨ÛĮÙĨØ¯": 1035,
      "ĠÚ©Ø³ÛĮ": 1036,
      "ĠÙĩØ±Ú¯": 1037,
      "ĠØ²ÙĪØ¯ÛĮ": 1038,
      "ÙħÙĨÙĪÙĨ": 1039,
      "ĠØ´ÙĨØ§": 1040,
      "ĠÙĩØ±Ú¯Ø²": 1041,
      "Ø¨Ø¯": 1042,
      "ĠØªÙħÛĮØ²": 1043,
      "ĠØ´Ú¯ÙģØª": 1044,
      "Ø§Ø¨ÙĤÙĩ": 1045,
      "ĠØ¢Ø´": 1046,
      "ÚĨØ±Ø®": 1047,
      "ĠÙĩØ³ØªÛĮ": 1048,
      "ĠÙħØ³Ø§Ø¨ÙĤÙĩ": 1049,
      "ÚĨÙĨ": 1050,
      "ĠÙĨØ¯Ø§Ø´Øª": 1051,
      "ĠÙħÙĪØ±Ø¯": 1052,
      "ĠÚ©Ø§": 1053,
      "ÙģØ´": 1054,
      "ĠÛĮÚ©Ø¯ÛĮÚ¯Ø±": 1055,
      "ĠÚĨØ±Ø§": 1056,
      "ĠØ¢Ø±Ø§Ùħ": 1057,
      "ĠÚ©ÛĮØªÛĮ": 1058,
      "ĠÛĮÚ©ÛĮ": 1059,
      "ĠØ¬ÙĪØ§": 1060,
      "Ù¾Ø±": 1061,
      "ĠÙĤÙĪÛĮ": 1062,
      "ĠØ°": 1063,
      "Ø§Ø´ÛĮ": 1064,
      "ĠÙĩÙħÚĨÙĨ": 1065,
      "ĠÙĤÙĦ": 1066,
      "Ú©Ùħ": 1067,
      "ĠØ¯Ø±Ø¨Ø§Ø±Ùĩ": 1068,
      "ÙħÙĨØ¯": 1069,
      "ĠÙħÙĪØ§": 1070,
      "ĠÙĨØ±Ùħ": 1071,
      "ÙĩØ§ÛĮØ´Ø§ÙĨ": 1072,
      "ĠÚ©Ø§ÙħÛĮ": 1073,
      "Ø®ÙĪ": 1074,
      "ĠØ¬Ø§ÙĦØ¨": 1075,
      "ĠÚ©Ø§ÙħÛĮÙĪÙĨ": 1076,
      "ĠØ§ÙĨÚ¯": 1077,
      "ĠÙĦØ¨Ø§": 1078,
      "ĠÙĤØ·": 1079,
      "ĠØ³Ù¾Ø³": 1080,
      "ĠØ®Ø§": 1081,
      "ĠÙ¾Ø´Øª": 1082,
      "ĠÙĨÛĮØ§Ø²": 1083,
      "ĠØ³Ø§ÙĦ": 1084,
      "ĠØ¬Ø§ÙĨ": 1085,
      "ĠØ®Ø³ØªÙĩ": 1086,
      "ĠØ³ÛĮØ¨": 1087,
      "ĠÚ¯ÙĪÛĮØ¯": 1088,
      "ĠØ´Ø§Ø¯ÛĮ": 1089,
      "ĠØ¬Ø¯ÛĮØ¯ÛĮ": 1090,
      "Ø§ÙģØ¸": 1091,
      "ĠÙĪØ§ÙĤ": 1092,
      "Ø®ÙĪØ±Ø¯": 1093,
      "ĠØ³ÙĨØ¬": 1094,
      "ĠÙĦÚ©Ùĩ": 1095,
      "ĠØ¨Ø¯ÛĮ": 1096,
      "ĠØ§Ú¯Ø±": 1097,
      "ĠÙģØ±ÙĪØ´": 1098,
      "ĠØ§Ø±Ø¯": 1099,
      "ĠÙĩÙĪØ§": 1100,
      "ĠØ¯ÛĮÚ¯": 1101,
      "ĠÙĦØ¨Ø§Ø³": 1102,
      "ĠØ²ÛĮØ¨": 1103,
      "ĠØªÙĨÙĩØ§": 1104,
      "ĠØ³Ø¨Ø²": 1105,
      "ĠØ¢Ùĩ": 1106,
      "ĠÚ¯Ùħ": 1107,
      "Ø§Ø¨Ø±Ø§": 1108,
      "ĠÙħÙĨØª": 1109,
      "ĠØ¨ÙĨØ§Ø¨Ø±Ø§": 1110,
      "ĠÙĩØ³ØªÙħ": 1111,
      "ĠØ¨ÙĨØ§Ø¨Ø±Ø§ÛĮÙĨ": 1112,
      "ĠØ¢ØªØ´": 1113,
      "ĠØªØ±Ø¬ÙħÙĩ": 1114,
      "ÙĪÚ©": 1115,
      "ĠØ§ÙĦ": 1116,
      "ĠØ§ÙħØª": 1117,
      "ĠØ³Ùģ": 1118,
      "ĠØ§ÙħÛĮ": 1119,
      "ĠÙĨÙĤØ§Ø´ÛĮ": 1120,
      "ĠÙ¾Ø´Ùħ": 1121,
      "ÙĪØ¨ÙĪ": 1122,
      "ĠØ®ÙĪØ§ÙĩØ¯": 1123,
      "ĠØ§Ø·": 1124,
      "ĠÚĨÛĮØ³Øª": 1125,
      "ĠÙħØªÙĨ": 1126,
      "ÙĪÙĤÙģ": 1127,
      ":\"": 1128,
      "ĠØ¢Ø³ÛĮ": 1129,
      "ĠÙĦØ·ÙģØ§": 1130,
      "ĠØ¢ÙģØªØ§Ø¨ÛĮ": 1131,
      "ÙĪØª": 1132,
      "ĠØ¢Ùħ": 1133,
      "ĠÚ¯Ø±Ùħ": 1134,
      "ĠÙģØ±ÛĮ": 1135,
      "Ø±Ø§ÙĨ": 1136,
      "ĠÙĨÚ©Ø±Ø¯": 1137,
      "Ø®Ø±": 1138,
      "ØŃØ§ÙĨ": 1139,
      "ĠÙĤØ§ÛĮ": 1140,
      "ĠÙ¾Ø§ÛĮØ§ÙĨ": 1141,
      "ĠØ§ÙħØªØŃØ§ÙĨ": 1142,
      "Ø®Ø´": 1143,
      "Ø¬Ú©": 1144,
      "ĠØ¨Ø³": 1145,
      "Ø¨Ø§ÙĨ": 1146,
      "ĠØªÙ¾": 1147,
      "ĠØªÙĤ": 1148,
      "ÙĩØ§ÛĮØª": 1149,
      "ĠØ¨Ø®ÙĪØ±Ø¯": 1150,
      "ĠÚ©ÙĨØ¬Ú©": 1151,
      "ĠØ±ÙģØªÙĨ": 1152,
      "ĠÙħÙĨØªØ¸Ø±": 1153,
      "ĠÙħØªÙĪÙĤÙģ": 1154,
      "ĠÙĤØ§ÛĮÙĤ": 1155,
      "ĠÚ¯Ø´Øª": 1156,
      "Ù¾Ø²": 1157,
      "ĠÙĪÙĤØª": 1158,
      "ÙĨØ§Ú©": 1159,
      "ĠØªØ®Øª": 1160,
      "ĠØ´Ø¬Ø§": 1161,
      "ĠØ¨Ø§Ø´ÙĨØ¯": 1162,
      "ĠÙħØªÙĪØ¬Ùĩ": 1163,
      "ĠØ³ÙĨØ¬Ø§Ø¨": 1164,
      "Ø§Ø²Ùĩ": 1165,
      "ĠØªÙĨØ¯": 1166,
      "ĠÚ©Ø±Ø¯Ùħ": 1167,
      "ĠØ¢Ø±Ø²": 1168,
      "ĠØ§Ø¯Ø§Ùħ": 1169,
      "Ø´ÙĪØ¯": 1170,
      "ĠØªØ±Ø³": 1171,
      "ĠØ·Ø±Ùģ": 1172,
      "Ùı": 1173,
      "ĠÙģØ±ÛĮØ§Ø¯": 1174,
      "ĠØ§Ø¯Ø§ÙħÙĩ": 1175,
      "Ø²Ø±": 1176,
      "ĠØ¯Ø¹": 1177,
      "ĠÙĨØ¨Ø§Ø´": 1178,
      "ĠÙħÙĪØ§ÙģÙĤ": 1179,
      "ĠØ¨ÙĪØ¯ÙĨ": 1180,
      "Ø±Ø§Ùģ": 1181,
      "Ø¯ÙĩØ¯": 1182,
      "ĠÙ¾Ø¯Ø±": 1183,
      "ĠØ¢ÙĨÙĤØ¯Ø±": 1184,
      "ĠØ¯Ø±ÛĮØ§": 1185,
      "ĠÙĤØ¨": 1186,
      "Ø¯Ùĩ": 1187,
      "ĠØ¯ÛĮÚ¯Ø±Ø§ÙĨ": 1188,
      "ĠØ§Ø±Ø¯Ú©": 1189,
      "ĠÙ¾ÙĪØ´": 1190,
      "ĠÚĨÙĨØ¯": 1191,
      "ĠØ¯Ø®ØªØ±Ú©": 1192,
      "ĠØ¨ÛĮØ´ØªØ±ÛĮ": 1193,
      "ĠÙħØŃÚ©Ùħ": 1194,
      "ÙĪÛĮÙħ": 1195,
      "ĠÚ¯Ø±Ø¯": 1196,
      "ĠÚ¯ÛĮØ±": 1197,
      "Ø±Ø§Ø±": 1198,
      "ĠØ±ÛĮ": 1199,
      "Ø¨Ø§Ø´": 1200,
      "ÛĮÙĨÙĨØ¯": 1201,
      "ĠØ´Ø§ÛĮØ¯": 1202,
      "ĠØªÙ¾Ùĩ": 1203,
      "Ø±Ø²": 1204,
      "ĠØ¯Ø§ÙĨ": 1205,
      "ĠÙĩÙĨÚ¯": 1206,
      "ØªÙĪØ§ÙĨÙĨØ¯": 1207,
      "ĠÚ©ÙĨØ¬Ú©Ø§ÙĪ": 1208,
      "ÙħØ¹": 1209,
      "ĠØ¯ÛĮÚ¯Ø±ÛĮ": 1210,
      "ĠÙħØ§Ø±": 1211,
      "ĠØªÙħØ§Ø´": 1212,
      "ĠØ®ÙĨØ¯ÛĮØ¯": 1213,
      "ĠØ¨Ø³Øª": 1214,
      "Ú¯Ø±Ø¯": 1215,
      "Ø®ÛĮ": 1216,
      "ĠØ¨ÙĦÙĨØ¯ÛĮ": 1217,
      "ĠØ®ÙĪØ±Ø¯ÙĨ": 1218,
      "ĠÙħÛĮÙĪÙĩ": 1219,
      "ĠØ¬ÙĪØ§Ø¨": 1220,
      "ĠÙħÛĮØ²": 1221,
      "ĠØ¨Ø²ÙĨØ¯": 1222,
      "ĠØ¯ÙĪÛĮØ¯ÙĨØ¯": 1223,
      "ĠØ¬ÙĪ": 1224,
      "Ø²Ø±Ú¯": 1225,
      "ĠÙģÙĩ": 1226,
      "ĠØºØ±": 1227,
      "ĠØ¯ÛĮÚ¯Ùĩ": 1228,
      "ÙĪØ¶": 1229,
      "ÙģÛĮ": 1230,
      "ĠÚ¯Ø§ÙĩÛĮ": 1231,
      "ÙĪØ±Ø§": 1232,
      "ĠÙĨØªÙĪØ§ÙĨØ³Øª": 1233,
      "ĠØ§ÛĮÙĨØ¬Ø§": 1234,
      "Ø±Ø¨Ø²Ø±Ú¯": 1235,
      "ĠØ¨Ø§Ø±Ø§ÙĨ": 1236,
      "ĠØ¢Ø´Ù¾Ø²": 1237,
      "Ø¢ÙĪØ±Ø¯": 1238,
      "ĠØ¢ÙħØ§Ø¯Ùĩ": 1239,
      "ĠØ¸": 1240,
      "Ø¨Ø®Øª": 1241,
      "ĠÙĤÙģ": 1242,
      "ĠØ¹Ø¬": 1243,
      "ĠØ¨Ø±Ø¯ÙĨØ¯": 1244,
      "ĠØ§ØªØ§ÙĤØ´": 1245,
      "ĠØ´Ø¨": 1246,
      "ĠØ¨Ø®ÙĪØ§": 1247,
      "ØªÙĪ": 1248,
      "Ø´ÛĮ": 1249,
      "ĠØ´ÙĪÙĨØ¯": 1250,
      "ĠØ¬Ø§": 1251,
      "ĠØ¨Ø±ÙħÛĮ": 1252,
      "ĠÙħÙĪØ§ÙģÙĤØª": 1253,
      "Ø§ÙħÙĪØ´": 1254,
      "ĠÙ¾ÙĨØ¬": 1255,
      "ĠØ§ÙĪÙĨØ§": 1256,
      "ĠØ¨Ø±Ú¯Ø´ØªÙĨØ¯": 1257,
      "ÙĪØ·": 1258,
      "ĠØ´Ø±": 1259,
      "ĠØ¯Ø§Ø±ÛĮ": 1260,
      "ÙħØ§ÙħØ§ÙĨ": 1261,
      "ĠØ§ÙħÙĨ": 1262,
      "ĠÙĩÙĨ": 1263,
      "ĠÙħØ±Øª": 1264,
      "ĠØ´Ø¬Ø§Ø¹": 1265,
      "ĠÙħØ²Ø±": 1266,
      "ĠÙĨÙħ": 1267,
      "ĠØ³Ùĩ": 1268,
      "Ø§Ø¯Ø±": 1269,
      "ĠØ²Ø±Ø¯": 1270,
      "ĠÚĨØ±Ø®": 1271,
      "ĠÙħØ²Ø±Ø¹Ùĩ": 1272,
      "ĠØ±ÙĤØµ": 1273,
      "Ø¢ÙħØ¯": 1274,
      "ÚĨÛĮ": 1275,
      "ĠÙģØ±ÙĪØ´Ú¯Ø§Ùĩ": 1276,
      "ĠØ¢Ø³ÛĮØ¨": 1277,
      "ĠÙħØ§ÙĦ": 1278,
      "ĠÙ¾ÙĨÙĩ": 1279,
      "ĠØ¯Ø±Ø³": 1280,
      "ÙħØ³": 1281,
      "ĠØ¨Ø§Ø¯ÛĮ": 1282,
      "ĠÚ©Ø§Ø±ÛĮ": 1283,
      "ĠØ¢Ø´Ù¾Ø²Ø®Ø§ÙĨÙĩ": 1284,
      "Ø´ÙĨÚ¯": 1285,
      "ĠÙĨØ´Ø¯": 1286,
      "ĠÙģØ±Ø§Ø±": 1287,
      "Ø³ÛĮÙħ": 1288,
      "ĠØ®ÙĪÙĨÙĩ": 1289,
      "ĠÙĩÙħØ§ÙĨ": 1290,
      "ĠÙĤØ´ÙĨÚ¯": 1291,
      "ĠØ¯ÛĮØ¯ÙĨ": 1292,
      "Ø°Ø±": 1293,
      "Ú©ÙĨÛĮ": 1294,
      "Ø¯Ø§ÙĨØ³ØªÙĨØ¯": 1295,
      "ĠÚ¯Ø°Ø§Ø´ØªÙĨØ¯": 1296,
      "ÙĦØª": 1297,
      "ĠØ¬Ø³Øª": 1298,
      "Ø®ÙĪØ§ÙĩÙħ": 1299,
      "ĠÙħØº": 1300,
      "ĠØ¨Ø±Ø¬": 1301,
      "ĠØªÛĮÙħÛĮ": 1302,
      "ĠØ§ØªÙģØ§ÙĤÛĮ": 1303,
      "ĠØ¨Ø§Ø¨Ø§": 1304,
      "ĠØ³Ø±Ø¯": 1305,
      "Ú¯ÛĮØ±ÛĮ": 1306,
      "ĠÙħØ±ØªØ¨": 1307,
      "Ø¯Ø§Ø±": 1308,
      "ĠÙħØ´": 1309,
      "Ø¬Ø±Ø§": 1310,
      "ĠØ®ÙĪØ´Ø´": 1311,
      "ĠØªÙħØ§Ø´Ø§": 1312,
      "ĠØ¢ÙĤ": 1313,
      "ĠØ³Øª": 1314,
      "ÙĪØ§ÙĨÙĩ": 1315,
      "ĠØµØŃ": 1316,
      "ØªÙĪØ§ÙĨØ³ØªÙĨØ¯": 1317,
      "ĠÙĪØŃ": 1318,
      "ĠÙĨÚ¯Ø±": 1319,
      "ĠÙĩÙħÛĮÙĨ": 1320,
      "ĠØ¬Ú©": 1321,
      "ØºØ°": 1322,
      "Ø¶ÛĮ": 1323,
      "ĠØ²ÛĮØ¨Ø§ÛĮÛĮ": 1324,
      "ĠØ¨Ø´": 1325,
      "Ø¨Ø§Ùĩ": 1326,
      "ĠÙ¾ÙĨÙĩØ§ÙĨ": 1327,
      "ĠÙĩØ¯": 1328,
      "Ø®ÙĪØ§ÙĩØ¯": 1329,
      "ĠØ³ÙĪØ§Ø±": 1330,
      "Ø§ÙģÙĦ": 1331,
      "Ø¯Ø§ØŃ": 1332,
      "Ø´ÙĪÙĨ": 1333,
      "ĠÙĨÙĩØ§ÛĮØª": 1334,
      "ĠØ¯Ú©": 1335,
      "ĠØ¨Ø§Ø¹": 1336,
      "ĠÙ¾ÛĮØ´": 1337,
      "ĠØ±ÙĪØ´ÙĨ": 1338,
      "ĠÙĦÙħØ³": 1339,
      "ĠØ±ÙĨÚ¯ÛĮ": 1340,
      "ĠÙĩÙĨÙĪØ²": 1341,
      "Ø¯Ø§ØŃØ§ÙģØ¸": 1342,
      "ĠØ¨Ø§Ø¹Ø«": 1343,
      "ĠØ¨ÙĪØ¨ÙĪ": 1344,
      "Ø²ÙĨ": 1345,
      "ĠÙ¾Ø§": 1346,
      "ĠØŃÙĦ": 1347,
      "Ø±ÙĪØ²": 1348,
      "ĠØµÙĨØ¯ÙĦÛĮ": 1349,
      "ĠØ®Ø§Ø·Ø±": 1350,
      "ĠØ§Ø¨Ø¯": 1351,
      "ØªØ±ÛĮÙĨ": 1352,
      "Ú©ÙĨÙĨØ¯Ùĩ": 1353,
      "ĠÚ©Ø§ØºØ°": 1354,
      "ĠØ°Ùĩ": 1355,
      "ĠØ§Ø·Ø±Ø§Ùģ": 1356,
      "ĠØ¢Øº": 1357,
      "ĠØ®ÙĪØ´Ø¨Ø®Øª": 1358,
      "ĠÙħØ§Ø¯Ø±Ø´Ø§ÙĨ": 1359,
      "ÚĨØ±Ø®Ùĩ": 1360,
      "ĠØ¢Ø±Ø²ÙĪ": 1361,
      "ÙħÛĮØ±": 1362,
      "ĠÙĪØ§Ø±Ø¯": 1363,
      "ØªÙĪÙĨÙħ": 1364,
      "ĠØ³ØªØ§Ø±Ùĩ": 1365,
      "Ú¯Ø§ÙĨ": 1366,
      "ĠØ³ÙĪØ±Ø§": 1367,
      "ĠØ¹Ø§ÙĦÛĮ": 1368,
      "Ø¬Ø§Ø²Ùĩ": 1369,
      "ĠÚĨÛĮØ²ÙĩØ§": 1370,
      "ĠØ®ÙĪØ±Ø¯ÙĨØ¯": 1371,
      "ĠÙĤØ·Ø§Ø±": 1372,
      "ĠÙħØ·": 1373,
      "ÙĨØ¯ÙĨ": 1374,
      "Ø²ÙĨØ¯": 1375,
      "Ø¨Ø±Ø¯": 1376,
      "ĠØ¯Ø±ÙĪÙĨ": 1377,
      "ĠØ§ÙħÛĮØ¯": 1378,
      "ĠØ§Ø¬Ø§Ø²Ùĩ": 1379,
      "ĠØ§ÙĪÙħØ¯": 1380,
      "ĠÙģØ±Ø¯": 1381,
      "ØªØ±Ø³ÛĮØ¯": 1382,
      "ĠØ¯Ø§Ø¯ÙĨ": 1383,
      "Ø¬Ø§Ø¯": 1384,
      "Ø§ÙĦÙĪ": 1385,
      "ĠÚĨÙĤØ¯Ø±": 1386,
      "ĠÛĮØ®": 1387,
      "ĠÚ©Ø¬Ø§": 1388,
      "ĠØ¨Ø§Ùĩ": 1389,
      "Ø¬Ø§Ùħ": 1390,
      "Ø¢ÛĮØ§": 1391,
      "ĠØ§ÛĮØ¬Ø§Ø¯": 1392,
      "Ø²Ùħ": 1393,
      "ÙĨÚ¯Ø§Ùĩ": 1394,
      "ÙħÙħÙĨÙĪÙĨ": 1395,
      "ĠØ¯ÙĪÚĨØ±Ø®Ùĩ": 1396,
      "ĠØ¨Ø¨ÛĮÙĨÙĨØ¯": 1397,
      "ĠÚ¯ÛĮ": 1398,
      "Ø§ÛĮÛĮØ¯": 1399,
      "ĠØ¨Ø§Ø´ÛĮ": 1400,
      "ĠØ§ÙģØªØ§Ø¯Ùĩ": 1401,
      "ĠÚ©ÛĮØ³Ùĩ": 1402,
      "ÙĦØ§ÙĤÙĩ": 1403,
      "ĠÚĨØ´Ùħ": 1404,
      "ĠØ¬ÛĮÙĨ": 1405,
      "ĠØ¬Ø§ÛĮÛĮ": 1406,
      "ĠØ¬ÙħØ¹": 1407,
      "ĠØµØ¨": 1408,
      "ØŁÂ»": 1409,
      "Ø®ÙĦØ§ÙĤ": 1410,
      "ĠØ¢ØºÙĪØ´": 1411,
      "ĠÙħØ´Ú©": 1412,
      "ÚĨØ±Ø§": 1413,
      "ĠØ¯ÙĩÙĨØ¯": 1414,
      "ĠØªÙĤØ³ÛĮÙħ": 1415,
      "ĠÚ©Ø±Ø¯ÛĮ": 1416,
      "ÙĪÛĮÙĨØ¯": 1417,
      "ĠÙħØ¯ØªÛĮ": 1418,
      "Ø¨Ø§Ø´Ùĩ": 1419,
      "ĠØ¬Ø³ØªØ¬": 1420,
      "ĠØ¨Ø§ÙĩÙĪØ´": 1421,
      "ĠÙħÙĪØ±": 1422,
      "Ø§ÙĨØ¬Ø§Ùħ": 1423,
      "ĠØ¯Ø§Ø¯Ùĩ": 1424,
      "Ø¸Ùĩ": 1425,
      "ÙĦØ§ÙĤØ§Øª": 1426,
      "ĠØ®ÙĨØ¯Ùĩ": 1427,
      "ÙĪÙĨÙĩ": 1428,
      "ĠØŃÙĪØ¶": 1429,
      "ĠÙĤØ±Ø§Ø±": 1430,
      "ĠØ¯Ø§Ø±ÛĮÙħ": 1431,
      "ĠÙĩÙħÚĨÙĨØ§ÙĨ": 1432,
      "ĠÙģÙĩÙħÛĮØ¯": 1433,
      "ĠØ°ÙĩÙĨØ´": 1434,
      "ÛĮÙģ": 1435,
      "ĠØ§Ùħ": 1436,
      "ĠÙħØ¬": 1437,
      "ĠÙħÙĦØ§ÙĤØ§Øª": 1438,
      "ĠØ¯ÙĪØ³ØªØ§Ø´": 1439,
      "ĠÙħØ§Ø¯Ø±Ø¨Ø²Ø±Ú¯": 1440,
      "ĠØ´Ø§Ø®": 1441,
      "ĠÙ¾Ø´ÙħØ§ÙĦÙĪ": 1442,
      "ĠÙ¾ÙĪ": 1443,
      "ĠÙĦØ§ÙĨÙĩ": 1444,
      "ĠÙħØ±Øº": 1445,
      "ĠØµØŃØ¨Øª": 1446,
      "ĠØªØ§Ø±": 1447,
      "ĠÙĨÙĪØ´": 1448,
      "ĠÙĩÙĦ": 1449,
      "Ø§ÛĮÙĩ": 1450,
      "ĠØ¨Ø±ÛĮÙħ": 1451,
      "Ø±ÛĮÙģ": 1452,
      "ĠÙģØ±Ø§ÙħÙĪØ´": 1453,
      "ĠÙħÙĪØ±ÚĨÙĩ": 1454,
      "Ø¯ÙĪ": 1455,
      "ĠÚ©Ø«": 1456,
      "ĠØªØ¨": 1457,
      "ĠØºØ°Ø§ÛĮ": 1458,
      "Ø´Ú©Ø±Ùħ": 1459,
      "ĠÙĨÙĤØ´Ùĩ": 1460,
      "ĠÙĪØ§ÙĤØ¹": 1461,
      "ĠØ¶": 1462,
      "ØªØ§ÙĨ": 1463,
      "ÙĦÛĮÙĦÛĮ": 1464,
      "ĠÚ¯Ø±Ø³": 1465,
      "ĠØ¹Ú©Ø³": 1466,
      "Ø§Ø³Ùģ": 1467,
      "Ø§Ø²Ø¯": 1468,
      "Ø±Ø³ÛĮØ¯": 1469,
      "ĠØ®Ø¯Ø§ØŃØ§ÙģØ¸": 1470,
      "ĠØ¢ÙĪØ§Ø²": 1471,
      "ÙĩØ§Ø´": 1472,
      "Ø§Ø±ÙĨØ¯": 1473,
      "ĠÙĩÙħØ±": 1474,
      "ÙĪØ±ÛĮ": 1475,
      "ĠÚ¯Ø±ÙģØªÙĩ": 1476,
      "ĠØºÙħÚ¯ÛĮÙĨÛĮ": 1477,
      "ĠØ³ÙĦØ§Ùħ": 1478,
      "ĠÙ¾Ø±Øª": 1479,
      "ĠÙ¾Ø±ØªØ§Ø¨": 1480,
      "ÙħØ§ÙĨØ¯": 1481,
      "ĠØªØ§Ø²Ùĩ": 1482,
      "Ø¨Ø§ÛĮØ¯": 1483,
      "ĠØ³Ø±Ø§ÙĨØ¬Ø§Ùħ": 1484,
      "ĠØ´ÛĮØ±ÛĮÙĨ": 1485,
      "ĠÚĨÛĮØ²ÙĩØ§ÛĮÛĮ": 1486,
      "ĠØ±ÛĮØ®Øª": 1487,
      "ĠØ³ÙĪØ±Ø§Ø®": 1488,
      "ĠØ®Ø¯Ø§ØŃØ§ÙģØ¸ÛĮ": 1489,
      "ĠØ´Ø¯ÛĮØ¯": 1490,
      "ĠÙĦÛĮÙĦØ§": 1491,
      "ĠØ¹ÙĦØ§ÙĤÙĩ": 1492,
      "Ú©ÙĨÙĩ": 1493,
      "ĠØ¨Ø§Ø´Ùĩ": 1494,
      "ĠØ¨Ø§Ø´ÛĮÙħ": 1495,
      "ĠØ¨Ø¯ÙĩØ¯": 1496,
      "ĠØ±Ø³ÛĮØ¯ÙĨØ¯": 1497,
      "ĠØ§ÙħÛĮØ¯ÙĪØ§Ø±": 1498,
      "ĠØ§Ø¨Ø±": 1499,
      "ÙģØ±": 1500,
      "Ù¾ÛĮ": 1501,
      "ĠÙģÛĮÙĦ": 1502,
      "ĠÙħØ§ÙĨØ¯": 1503,
      "ØªÙĪÙĨÛĮ": 1504,
      "Ø¯Ø§": 1505,
      "ÙĨØ¯Ú¯Ø§ÙĨ": 1506,
      "ĠØ¹Ø°Ø±": 1507,
      "ĠØªÙĪÙ¾Ø´": 1508,
      "ĠÙħØ§Ø¬Ø±Ø§": 1509,
      "ĠØ¯Ø§Ø±Ùĩ": 1510,
      "ĠØ¬Ø¯ÛĮØ¯Ø´": 1511,
      "ĠÙĨØ´Ø³Øª": 1512,
      "ĠÙĤÙĦØ¹Ùĩ": 1513,
      "ÙĪØ³": 1514,
      "ĠÙħØ®": 1515,
      "ĠÚ©Ø§Ùħ": 1516,
      "ĠÙ¾Ø±ÙĪØ§ÙĨÙĩ": 1517,
      "ĠÙĤÙĪÙĦ": 1518,
      "ĠØµØ¯Ø§ÛĮÛĮ": 1519,
      "ĠØºØ±ÙĪØ±": 1520,
      "ĠØ¢ÙĤØ§ÛĮ": 1521,
      "ĠØ¹Ø°Ø±Ø®ÙĪØ§ÙĩÛĮ": 1522,
      "Ø±Ø³ÛĮ": 1523,
      "ĠØ¯ÙĪÛĮØ¯ÙĨ": 1524,
      "Ø³ÛĮÙĤÛĮ": 1525,
      "ØºÙĪÙĦ": 1526,
      "ĠØ¨Ø¹Ø¯Ø§": 1527,
      "ĠØ¨ÙĦÙĪÚ©": 1528,
      "ĠÙħÙĪØ³ÛĮÙĤÛĮ": 1529,
      "ĠÙĨÚ¯Ø±Ø§ÙĨ": 1530,
      "ĠØ¨ÙĤ": 1531,
      "âĢĿ": 1532,
      "Ø§Ø±ÙĨÚ¯": 1533,
      "ĠØºØ§ÙģÙĦ": 1534,
      "ÙĪÛĮØ´": 1535,
      "Ø±Ø§ØŃØª": 1536,
      "ĠØ±ÙĨÚ¯Ø§Ø±ÙĨÚ¯": 1537,
      "ĠØ§ÛĮØ³Øª": 1538,
      "ĠØ´Ú©Ø³ØªÙĩ": 1539,
      "ĠÙħØ´ØºÙĪÙĦ": 1540,
      "ĠØ¨ÙĤÛĮÙĩ": 1541,
      "ĠØ¯ÙĦ": 1542,
      "Ø®Ø±Ùĩ": 1543,
      "Ø§Ø´ÙĤ": 1544,
      "ĠØ¯ÙĪØ³ØªÛĮ": 1545,
      "ĠØ§Ø³ØªØ±Ø§ØŃØª": 1546,
      "Ø¯ÛĮÙĦ": 1547,
      "ĠØ®Ø§ÙĨÙħ": 1548,
      "ĠØ§ÙĨØª": 1549,
      "ĠØ´Ø§Ø®Ùĩ": 1550,
      "ĠØªØ¨Ø¯ÛĮÙĦ": 1551,
      "ĠÚ¯Ø±Ø³ÙĨÙĩ": 1552,
      "ĠØ¯Ø±Ø¯": 1553,
      "Ø§ÙĨØ´": 1554,
      "ĠØ¢ÙħÙĪ": 1555,
      "ĠÙ¾Ø´": 1556,
      "ĠØ¨Ø±Ø§ÙĤ": 1557,
      "ĠØ¨Ø±ÙĪÙĨØ¯": 1558,
      "ĠØ¯ÛĮØ¯Ùĩ": 1559,
      "ĠØ¯ÛĮÙĪØ§Ø±": 1560,
      "ĠØ·ÙĪÙĦ": 1561,
      "ĠØ¨Ù¾Ø±Ø¯": 1562,
      "Ø¦ÙĨ": 1563,
      "ĠØµÙĪØ±Øª": 1564,
      "ĠØ¢ÙħÙĪØ®Øª": 1565,
      "Ú©Ø§Ø±": 1566,
      "Ø¨ÛĮÙĨÙĨØ¯": 1567,
      "ĠØ¨ÙĩÙħ": 1568,
      "ĠÙ¾Ø±ÙĨØ¯Ú¯Ø§ÙĨ": 1569,
      "ĠØ¯Ø³ØªØ´": 1570,
      "Ø®ÙĪØ§Ùħ": 1571,
      "ĠÙĩØ§ÛĮØ´": 1572,
      "Ø¯Ø§Ø´Øª": 1573,
      "ĠØ¢Ø²": 1574,
      "ĠØ´Ø§ÙĨ": 1575,
      "ĠØŃÙħ": 1576,
      "ĠØªÙĪØ§ÙĨØ³Øª": 1577,
      "ĠÙĩØ¯ÛĮÙĩ": 1578,
      "ĠÙĩÙħØ±Ø§Ùĩ": 1579,
      "Ø£": 1580,
      "ØªØ§Ùħ": 1581,
      "ĠØ§ÛĮÙħÛĮ": 1582,
      "ĠØ®ÛĮØ³": 1583,
      "Ø±ÙĪØ¨": 1584,
      "ĠØ³Ø±Ø¹Øª": 1585,
      "ĠØ®Ø±Ø§Ø¨": 1586,
      "ÙħØ±Ø¯": 1587,
      "Ø¬Ø§Øª": 1588,
      "ĠÙħÙĩØ±Ø¨Ø§ÙĨÛĮ": 1589,
      "ĠØ§ÙĨØ¯Ø§Ø®Øª": 1590,
      "ĠÙĤØ¨ÙĦ": 1591,
      "ĠØ¯ÙĪØ³ØªØ§ÙĨÙĩ": 1592,
      "ĠØ¨ÙĩØªØ±ÛĮ": 1593,
      "ĠâĢĮ": 1594,
      "Ø¯ÙĪÙĨ": 1595,
      "ÙģÙĩ": 1596,
      "ĠØ¨Ø¯ÙĪÙĨ": 1597,
      "ÙħÙĤ": 1598,
      "ĠØ§Ø¶": 1599,
      "ĠÙħÙħÙĨÙĪÙĨ": 1600,
      "ĠÙ¾ÙĨ": 1601,
      "ĠØ¯Ø±Ø§Ø²": 1602,
      "ĠÙĤÙĩ": 1603,
      "Ø±ÙĪØ²ÛĮ": 1604,
      "ĠØºØ±ÙĪØ¨": 1605,
      "ĠØ²ÛĮØ§Ø¯": 1606,
      "Ø®ÙĨØ¯ÛĮØ¯ÙĨØ¯": 1607,
      "ÙħØªØ´Ú©Ø±Ùħ": 1608,
      "ĠÙĪØ§ÙĤØ¹Ø§": 1609,
      "ĠØ®Ø´Ú©": 1610,
      "ĠÚ¯Ø§ÙĪ": 1611,
      "ĠØ§ÙĪÙĦ": 1612,
      "ĠØ¨Ø±ÙĨØ¯Ùĩ": 1613,
      "Ù¾ÛĮÙħ": 1614,
      "ĠÙĦØŃ": 1615,
      "ĠÙ¾Ø§Ø±ÚĨÙĩ": 1616,
      "ÙĨÚ¯Ø±Ø§ÙĨ": 1617,
      "ĠØ³ÙĨÚ¯ÛĮÙĨ": 1618,
      "ĠÙĩÙħÚĨÙĨÛĮÙĨ": 1619,
      "ĠØ³ÙģÛĮØ¯": 1620,
      "ÙĨØ§": 1621,
      "ĠÙħØ±Ø§": 1622,
      "ĠØ¯ÙħØ´": 1623,
      "ĠØ®Ø§Ú©": 1624,
      "ĠØªØ±Ø³ÙĨØ§Ú©": 1625,
      "ĠØ¯Ø¹ÙĪØ§": 1626,
      "ĠØ¨ÙĪ": 1627,
      "Ø³Ø±": 1628,
      "Ø²Ø§": 1629,
      "ĠØ´Ø§Ùħ": 1630,
      "ĠÚ©ÙĨÙĨ": 1631,
      "ĠÙĩÙĨÚ¯Ø§ÙħÛĮ": 1632,
      "ĠØ¬Ø³ØªØ¬ÙĪ": 1633,
      "ĠØªØ§Ø±ÛĮÚ©": 1634,
      "ĠØĮ": 1635,
      "ØªÙĩ": 1636,
      "Ø³ÙĦ": 1637,
      "Ø²Ø§Ø±": 1638,
      "Ø°ÛĮØ±": 1639,
      "ĠØ¨Ú¯Ø°Ø§Ø±Ø¯": 1640,
      "ĠâĢ": 1641,
      "ĠÚ¯Ø§Ø²": 1642,
      "ĠØ¯Ø®ØªØ±Ø¨ÚĨÙĩ": 1643,
      "ĠØ®ÙĪØ§Ø³ØªÙĨØ¯": 1644,
      "ĠÚ©Ø«ÛĮÙģ": 1645,
      "Ø§Ø¹Øª": 1646,
      "ÙħØ¦ÙĨ": 1647,
      "ØªÙħÙĨØ¯": 1648,
      "ĠÙĪØ³": 1649,
      "ĠÙ¾Ø§Ú©": 1650,
      "ÙĤØ§Øª": 1651,
      "ØŃØ§ÙĦ": 1652,
      "ĠØ¯Ø§Ø´ØªÙĨ": 1653,
      "ĠØ¨Ø²ÙĨ": 1654,
      "ĠÙģØ´": 1655,
      "ĠØ¹ÙĦÙģ": 1656,
      "ĠÙħÙĪÙħÙĪ": 1657,
      "ĠØµÙĨØ¯ÙĪÙĤ": 1658,
      "Ø®Ø´ÛĮØ¯": 1659,
      "\".": 1660,
      "Ø³Ø¨": 1661,
      "Ø§Ø³Ùĩ": 1662,
      "ĠØ§ØŃÙħÙĤ": 1663,
      "ĠØªØ¹ÙħÛĮØ±": 1664,
      "ĠÙħÙĩÙħØ§ÙĨÛĮ": 1665,
      "Ø®ÙĦØ§ÙĤÛĮ": 1666,
      "Ú©Ø´Ø¯": 1667,
      "ĠØ§ÙĪÙĤØ§Øª": 1668,
      "ĠÙ¾Ø±ÛĮ": 1669,
      "ĠÙħØªØ¹": 1670,
      "ĠÙħØ§Ø¬Ø±Ø§Ø¬": 1671,
      "Ø±ÙħÛĮ": 1672,
      "Ø¨ÙĪ": 1673,
      "Ø§ÙĨÚ¯ÛĮ": 1674,
      "ĠØ´ÛĮØ´Ùĩ": 1675,
      "ØªÙĪÙĨØ³Øª": 1676,
      "ĠØ¹Ø¬ÛĮ": 1677,
      "ĠÙħØ·ÙħØ¦ÙĨ": 1678,
      "ĠÙħÙĤ": 1679,
      "ĠÙħØ®Øª": 1680,
      "ĠØ±ÙĩØ§": 1681,
      "ĠØ¨ÙĩØ´": 1682,
      "ĠØ´Ø§Ùĩ": 1683,
      "ĠØ¯Ø±ÛĮ": 1684,
      "ĠØ²ÙĨØ¨": 1685,
      "ĠØ¯Ø®ØªØ±Ú©ÛĮ": 1686,
      "Ø¢ÛĮØ¯": 1687,
      "ĠÚ©ÙĦÛĮØ¯": 1688,
      "ĠÙ¾ÛĮØ§Ø¯Ùĩ": 1689,
      "ĠÙĩÙĪØ§Ù¾ÛĮÙħ": 1690,
      "ĠÙĦØŃØ¸Ùĩ": 1691,
      "ÙĪØ§ÛĮ": 1692,
      "ĠØ§Øµ": 1693,
      "ĠØ§Ø´Øª": 1694,
      "Ú¯Ø´Øª": 1695,
      "Ø§ÙĨÙĨØ¯": 1696,
      "ÛĮØ¯Ø§Ø±": 1697,
      "ĠÚ¯ÙĨØ¬": 1698,
      "ĠØ¬ÛĮ": 1699,
      "ĠÚ©Ø´ÛĮØ¯ÙĨØ¯": 1700,
      "ĠØ´Ø±ÛĮÚ©": 1701,
      "ĠÙħØ®ØªÙĦÙģ": 1702,
      "ĠØ¨ÛĮØ¯Ø§Ø±": 1703,
      "ÙĨØ¯ÛĮ": 1704,
      "ĠÙĨÙĪØ¨": 1705,
      "ØŃÛĮ": 1706,
      "ÙĨÚ¯ÛĮ": 1707,
      "ĠØ´Ú©Ø³Øª": 1708,
      "ĠØ§ÙĨØ¯Ø§Ø²Ùĩ": 1709,
      "ĠØ¨ØªÙĪØ§ÙĨØ¯": 1710,
      "ĠØ¯ÙĨØ¯": 1711,
      "ÛĮÙĨÙĩ": 1712,
      "ĠØ¯ÛĮØ²ÛĮ": 1713,
      "Ø´ÙĨØ§": 1714,
      "ĠØªØ¹Ø±ÛĮÙģ": 1715,
      "ĠÙĤØ¯ÛĮÙħÛĮ": 1716,
      "ĠÙ¾ÙĨØ¬Ø±Ùĩ": 1717,
      "ĠØ§Ø¶Ø§Ùģ": 1718,
      "ĠØ¹Ø¬ÛĮØ¨ÛĮ": 1719,
      "ĠØ²ÙĨØ¨ÙĪØ±": 1720,
      "ÙĨÚ©": 1721,
      "Ø±ÙĨØ¯": 1722,
      "Ø²ÛĮØ¯": 1723,
      "ÙĩØ§Ø±": 1724,
      "ĠÙĤØ¯Ø±": 1725,
      "ĠØ®ÙĪØ§ÙĩÙħ": 1726,
      "ĠÙĪØ§ÙĤØ¹ÛĮ": 1727,
      "ÙĪÛĮØ±": 1728,
      "ĠÙħÛĮÙħÙĪÙĨ": 1729,
      "ĠÙĨØ¨Ø§ÛĮØ¯": 1730,
      "Ø¬Ø±": 1731,
      "ĠÚ¯Ø±ÙģØªÙĨ": 1732,
      "ĠØªØµÙĪÛĮØ±": 1733,
      "ĠØ§Ø®ÙĦØ§ÙĤÛĮ": 1734,
      "ĠÙħÙħ": 1735,
      "ĠÚ©ÙģØ´": 1736,
      "ĠØ®Ø§Ø±": 1737,
      "Ø®Ùħ": 1738,
      "Ø¬ÙĨ": 1739,
      "Ø¨Ø§Øª": 1740,
      "ÙĪÙĦÙĩ": 1741,
      "ĠØ¨Ø¯ÙĪØ¯": 1742,
      "ĠØ´Ú©ÙĦ": 1743,
      "ĠØµÙĪØ±ØªÛĮ": 1744,
      "ĠØ·ÙĪÙĦØ§ÙĨÛĮ": 1745,
      "ĠØ³Ú¯ÛĮ": 1746,
      "ĠØ´ÙĪ": 1747,
      "ĠØ¨Ø±Ø§Ø¯Ø±": 1748,
      "ĠØ¹Ùħ": 1749,
      "Ú©ÙĨÛĮÙħ": 1750,
      "ÛĮØª": 1751,
      "ÙĨØ§Ø¨": 1752,
      "ĠØªÛĮ": 1753,
      "ĠØªÚ©Ùĩ": 1754,
      "ÙģØ§ÙĪ": 1755,
      "ĠÚĨØ´": 1756,
      "ĠÙģÛĮÙĨ": 1757,
      "ĠØ¨Ø§Ø´ÛĮØ¯": 1758,
      "ĠØ¨ÛĮÙĦÛĮ": 1759,
      "ĠÙĩØ§ÛĮØ´Ø§ÙĨ": 1760,
      "ĠÙĨØ´Ø³ØªÙĨØ¯": 1761,
      "ĠØ¨Ø³ØªÙĨÛĮ": 1762,
      "ÙĨØ§Ùħ": 1763,
      "ĠØ±ÙĪØ¯": 1764,
      "ÙģÙĨ": 1765,
      "ĠØ³Ú©Ùĩ": 1766,
      "ÙĤØª": 1767,
      "ĠØ²ÙĨÚ¯": 1768,
      "ÙĪØ§ÙĪ": 1769,
      "ĠÚ©ÙħÚ©Ø´": 1770,
      "ĠØ¨Ø³Ø§Ø²": 1771,
      "ĠÙħØ§Ø¬Ø±Ø§Ø¬ÙĪÛĮÛĮ": 1772,
      "Ø§ÛĮØ¯": 1773,
      "Ø³ÙħØª": 1774,
      "ĠØ§Úĺ": 1775,
      "Ú¯ÙĪÛĮÙĨØ¯": 1776,
      "ĠØ±Ø¯": 1777,
      "ĠØ¢Ø´ÙĨØ§": 1778,
      "ÙĦÛĮØ³": 1779,
      "ĠØ¬Ø´ÙĨ": 1780,
      "ĠØ±ÙģØªÙĩ": 1781,
      "ĠØ¨ÙĦÙĩ": 1782,
      "ĠØ¢ÙħØ¯ÙĨØ¯": 1783,
      "ĠÙħØ¯Ø§Ø¯": 1784,
      "ĠØ¨Ø±Ú¯Ø±Ø¯Ø§ÙĨØ¯": 1785,
      "ĠØ§ÚĺØ¯": 1786,
      "ĠÙħÙĦØ§": 1787,
      "ĠÙħØ¯Ø±": 1788,
      "ĠÙ¾Ø³Øª": 1789,
      "ĠØ³Ø§Ø¹Øª": 1790,
      "ĠØ²ÙħØ§ÙĨ": 1791,
      "ĠØŃÙģ": 1792,
      "Ø±ÙĪÙħ": 1793,
      "ĠØ±ÙģØªØ§Ø±": 1794,
      "ĠØ¨Ø§ÙĦØ§ØªØ±": 1795,
      "ĠÙħØ±Ø§ÙĤØ¨Øª": 1796,
      "Ø¦ÙĪ": 1797,
      "ĠØ¯Ø§ÙĨØ³Øª": 1798,
      "ĠØŃÙĪØ¶ÚĨÙĩ": 1799,
      "ÙĨÙħÛĮ": 1800,
      "ĠÙ¾ÙĪÙĦ": 1801,
      "Ø§ÛĮÙĦ": 1802,
      "ØŃØªÛĮ": 1803,
      "ĠÙĤØ³ÙħØª": 1804,
      "ĠØ·ÙĨØ§Ø¨": 1805,
      "ĠØ¯Ú©ÙħÙĩ": 1806,
      "ĠØºØ§ÙģÙĦÚ¯ÛĮØ±ÛĮ": 1807,
      "ĠØ§ÛĮÙħ": 1808,
      "Ø¨Ø¨": 1809,
      "ĠØ³ÛĮ": 1810,
      "Ø§Ø±Ùħ": 1811,
      "ÙĦÙĪØª": 1812,
      "ĠØµØ¨ØŃ": 1813,
      "ĠØ§Ø¶Ø§ÙģÙĩ": 1814,
      "ĠØ¨Ø´Ùĩ": 1815,
      "ĠÙħÚ©Ø§ÙĨ": 1816,
      "ĠÚ©Ø±Ùħ": 1817,
      "ĠØ¯ÙģØª": 1818,
      "ĠÙħÛĮØ§ÙĨ": 1819,
      "ĠØ®Ø±Ø¯": 1820,
      "ĠØ²Ø¨Ø§ÙĨ": 1821,
      "Ù¾Ø´Øª": 1822,
      "ĠØºÙĪÙĦ": 1823,
      "ĠÚ©ÙħÚ©Øª": 1824,
      "ĠØ¯Ø±Ø®ØªÛĮ": 1825,
      "ĠØ´ÛĮØ±ÛĮÙĨÛĮ": 1826,
      "Ø§ÙģØª": 1827,
      "ĠØ¨ÙĪÛĮ": 1828,
      "ĠØ¨Ø³ØªÙĩ": 1829,
      "ĠØ§Ø¹Øª": 1830,
      "ĠØ¯ÙĨ": 1831,
      "ĠØ³Ø§ÛĮÙĩ": 1832,
      "Ú©Ø±Ø¯ÙĨ": 1833,
      "ĠÙħØ±Ø¯ÛĮ": 1834,
      "ĠØ¬Ø§ÙĦØ¨ÛĮ": 1835,
      "ĠÙ¾Ø´ÛĮÙħ": 1836,
      "Ø³Ùģ": 1837,
      "Ø´Ø§ÛĮØ¯": 1838,
      "ĠÙħØ®ÙĦ": 1839,
      "ĠÚ©Ùģ": 1840,
      "ĠØ¬Øº": 1841,
      "ĠÚ©ÙĨÙĨØ¯Ùĩ": 1842,
      "ĠØ¨Ø±ÙĪÛĮÙħ": 1843,
      "Ø±ÙĪÙĨØ¯": 1844,
      "ĠØ¨Ø±Ø§ÛĮØ´": 1845,
      "ĠØªØ§ÙħÛĮ": 1846,
      "ĠØ¨Ø¯Ø¬ÙĨ": 1847,
      "ĠÙĨØ¯Ø§Ø¯": 1848,
      "ĠØ¨Ø±Ú¯Ø´ØªÙĨ": 1849,
      "ĠØªÙĨÙĩØ§ÛĮÛĮ": 1850,
      "ĠØ¬ÛĮØº": 1851,
      "ĠÙħØ®ÙĦÙĪØ·": 1852,
      "Ø¯Ø§Ø±ÛĮ": 1853,
      "Ø±Ø¶": 1854,
      "Ø³Ùħ": 1855,
      "ÙĦØŃ": 1856,
      "Ø®Ø§Ø¨": 1857,
      "ĠØ³Ø§ØŃ": 1858,
      "Ø¬Ø§ÙĦ": 1859,
      "ĠÚĨÙħÙĨ": 1860,
      "Ø¢Ø±Ùĩ": 1861,
      "ĠØ¨ÛĮÙĨØ¯": 1862,
      "ĠØ¨ÛĮØ§ÛĮØ¯": 1863,
      "ĠÙĨØ´Ø³ØªÙĩ": 1864,
      "ĠØ¨Ø³Ø§Ø²Ø¯": 1865,
      "ĠÙĩÙĨÚ¯Ø§Ùħ": 1866,
      "ĠÙħØ´Ú©ÙĦ": 1867,
      "ĠØ§ÙĨØªØ®Ø§Ø¨": 1868,
      "ĠØ¯ÙĨØ¯Ø§ÙĨ": 1869,
      "ĠØ³Ø§ØŃÙĦ": 1870,
      "Ø§ÙĪØ±": 1871,
      "ĠØ¨ÙħØ§ÙĨØ¯": 1872,
      "ÙĦÙĤ": 1873,
      "ÙĦÙĪÛĮ": 1874,
      "ĠÙĨØ§ÙĨ": 1875,
      "ĠÙĨØ¬Ø§Øª": 1876,
      "ĠØ´ÛĮ": 1877,
      "Ø§ÙĩØ±": 1878,
      "ĠØ¹Ø²ÛĮ": 1879,
      "ØªÙĪÙĨÛĮÙħ": 1880,
      "ĠÙħØ¯Øª": 1881,
      "ĠÙ¾ÛĮÚĨ": 1882,
      "ĠØ¬ØºØ¯": 1883,
      "Ø±Øª": 1884,
      "ÙħØ§Ø¯": 1885,
      "ĠØ±ÙĪØ¨Ø§Ùĩ": 1886,
      "ĠÙĩÙĪÛĮ": 1887,
      "ĠØ¯ÙĪÙĤ": 1888,
      "ĠÙĤØ§": 1889,
      "ĠÚ©ÙħØ§ÙĨ": 1890,
      "ĠÙĩÛĮÙĪÙĦ": 1891,
      "ĠØ²ÙħØ§ÙĨÛĮ": 1892,
      "ĠØ®ÙĪØ§ÙĩÙĨØ¯": 1893,
      "ĠØ¨Ø®ÙĪØ±ÙĨØ¯": 1894,
      "ĠØŃÙĦÙĤÙĩ": 1895,
      "ĠØ§ÙħØ±ÙĪØ²": 1896,
      "ĠÙĩÙĪÛĮØ¬": 1897,
      "ĠØ¯ÙĪÙĤÙĦÙĪ": 1898,
      "ĠØ¨Ø¹": 1899,
      "ĠØ¨ÙĪØª": 1900,
      "Ø§ÙĨÙħ": 1901,
      "ĠÙ¾Ø§Ø¯": 1902,
      "Ø®ÙĪØ±": 1903,
      "ÙĤÙĦ": 1904,
      "ĠØ¯ÙĪØ³ØªØª": 1905,
      "ÙĪØ§Ø®Øª": 1906,
      "ĠÚ©Ø´Ø§ÙĪØ±": 1907,
      "ĠÙħØ§Ø±Ú©": 1908,
      "ĠÙħØºØ§Ø²Ùĩ": 1909,
      "ĠØ¯ÙģØªØ±": 1910,
      "ĠØ¨ÙĪØªÙĩ": 1911,
      "ĠÚ©Ø´Ø§ÙĪØ±Ø²": 1912,
      "ÙĪÙģ": 1913,
      "ØªÛĮÙħ": 1914,
      "Ø¨Ø§Ø¯": 1915,
      "ĠØªØ³Øª": 1916,
      "ĠØ®Ø¬Ø§ÙĦ": 1917,
      "ĠØ±ÙĪØ³Øª": 1918,
      "ĠØ¨Ø±Ø®ÙĪØ±Ø¯": 1919,
      "ĠØ¹ÙħÛĮ": 1920,
      "ĠØºÙĦØª": 1921,
      "ĠØ¯ÙĪØ³ØªØ§ÙĨØ´Ø§ÙĨ": 1922,
      "ØªÙĪØ±": 1923,
      "ÙĦØ·ÙģØ§": 1924,
      "ĠØ®Ø·Ø±": 1925,
      "ĠØ³Ø·": 1926,
      "ĠØ¹Ø³ÙĦ": 1927,
      "Ø±Ø§ØŃÛĮ": 1928,
      "ĠØ³ÙĪÙ¾": 1929,
      "ĠÙħØªÙģØ§ÙĪ": 1930,
      "ĠØ¨Ø¨Ø±Ø¯": 1931,
      "ĠØ°ÙĪÙĤ": 1932,
      "Ø®ÙĪØ§ÛĮ": 1933,
      "ĠØ¯Ø±ÛĮØ§ÚĨÙĩ": 1934,
      "ĠÙĤÙĩÙĪÙĩ": 1935,
      "ĠÙħÙħÚ©ÙĨ": 1936,
      "ĠØ¨Ø¹Ø¶ÛĮ": 1937,
      "Ø¯ÙĪÛĮØ¯": 1938,
      "ĠØ§Ø±Ø²": 1939,
      "Ø¨ÙĦ": 1940,
      "ĠØ¯Ø±Ø¢ÙĪØ±Ø¯": 1941,
      "Ù¾Ø¯ÛĮØ¯": 1942,
      "ĠØŃØ³": 1943,
      "ĠÙģØ±Ø´": 1944,
      "ĠØ¨Ø±Ø¯Ø§Ø±Ø¯": 1945,
      "ĠÙħÙĪØªÙĪØ±": 1946,
      "ĠÙĩØ³ØªÛĮØ¯": 1947,
      "ĠÚĨØ±Ø§Øº": 1948,
      "ĠÙħØ¯Ø±Ø³Ùĩ": 1949,
      "ĠØ«": 1950,
      "ĠØ¨ÙĦØ§": 1951,
      "Ø´ÙĪÙĨØ¯": 1952,
      "ÙĦÙĪØ¯": 1953,
      "ĠØ¨Ø§ÙĩØ§Ø´": 1954,
      "ĠØ²ÙĪØ¯": 1955,
      "ĠØµØ§ØŃ": 1956,
      "ĠÙĨØ§Ù¾Ø¯ÛĮØ¯": 1957,
      "Ø®ÙĪØ§ÙĩÙĨØ¯": 1958,
      "ĠØ¨Ú¯ÛĮØ±ÙĨØ¯": 1959,
      "Ø¤": 1960,
      "ĠØ¨Ú©Ø´Ø¯": 1961,
      "ĠÚĨÛĮÙĩ": 1962,
      "ÙħØªÙĨ": 1963,
      "ĠØ¢ÙħØ¯Ùĩ": 1964,
      "ĠÙħÙĩØ±Ø¨ÙĪÙĨ": 1965,
      "ĠÙħØŃØ§ÙģØ¸": 1966,
      "ĠØ³Ø¨Ø¯": 1967,
      "Ù¾Ø±ÛĮØ¯": 1968,
      "ĠÙĪØŃØ´Øª": 1969,
      "ĠÙĪØ³Ø§ÛĮÙĦ": 1970,
      "ĠØ§Ø¹ØªÙħØ§Ø¯": 1971,
      "ĠØ¯ÙĤÛĮ": 1972,
      "ĠØ±ÙħÛĮ": 1973,
      "ĠÚ¯ÙģØªÙĩ": 1974,
      "ĠØ¯Ø±Ø®ØªØ§ÙĨ": 1975,
      "ĠÙħØªØ§Ø³Ùģ": 1976,
      "Ø¯Ø§ÙĨÙħ": 1977,
      "ĠÚ¯Ø°Ø§Ø´ØªÙĨ": 1978,
      "ĠÚ©ÛĮÙģ": 1979,
      "ĠØ³ÙģØ±": 1980,
      "ĠØ¨Ø®ÙĪØ§ÙĨØ¯": 1981,
      "ĠØ±ÙĤØµÛĮØ¯ÙĨ": 1982,
      "Ø¯ÙĪÙĨØ³Øª": 1983,
      "ĠØ§ÚĺØ¯ÙĩØ§": 1984,
      "ĠØµØ§ØŃØ¨": 1985,
      "Ø±ÛĮÙħ": 1986,
      "Ø±ÙĤØµ": 1987,
      "Ø±Ø³Ø¯": 1988,
      "ĠÙħÛĮÙħÛĮ": 1989,
      "ĠØ²Ø§ÙĨ": 1990,
      "ĠØ§Ø³Ø¨": 1991,
      "ĠÙ¾Ø§Ø±Ø³": 1992,
      "ĠÙĨØ¯Ø§Ø±Ø¯": 1993,
      "ĠÙ¾ÛĮØ±ÙħØ±Ø¯": 1994,
      "Ø¨ØªÙĩ": 1995,
      "Ø£Ø³Ùģ": 1996,
      "ĠØ§Ø´ØªØ¨Ø§Ùĩ": 1997,
      "Ø¨Ø±ÛĮ": 1998,
      "ĠÙĨÛĮÙħ": 1999,
      "ĠØ³Ø±Ø§": 2000,
      "ĠÙĤØ§Ø´ÙĤ": 2001,
      "Ø·Ø±ÛĮ": 2002,
      "Ø±Ø§ÙĨØ¯": 2003,
      "ĠØ·ÙĪÙģ": 2004,
      "ĠÙĨØ¯ÛĮØ¯Ùĩ": 2005,
      "ĠØ¹Ø±ÙĪØ³Ú©ÛĮ": 2006,
      "ĠØ§ÙĦÛĮ": 2007,
      "ĠØ¯ÙĪØ¯": 2008,
      "ĠÙ¾Ø°ÛĮØ±": 2009,
      "ĠØ²ÙĨ": 2010,
      "ĠÙĩÙħØ¯ÛĮÚ¯Ø±": 2011,
      "Ø§ÙĦØ¯": 2012,
      "ĠØ®ÙĪØ´ÛĮ": 2013,
      "ĠØ§Ø³ØªØ®Ø±": 2014,
      "ØªØ±Ø³": 2015,
      "ĠØµØ¨Ø±": 2016,
      "Ø²Ø¯ÙĨØ¯": 2017,
      "ĠØ®ÙĪØ§ÙĨØ¯ÙĨ": 2018,
      "ĠØ¨Ø³ÛĮØ§Ø±ÛĮ": 2019,
      "ĠØ±ÙĨÚ¯ÛĮÙĨ": 2020,
      "ĠØ¨Ø®Ø´": 2021,
      "ĠÚ©Ø´Ùģ": 2022,
      "ĠØ¯ÙĩØ§ÙĨØ´": 2023,
      "ĠØ³Ø§ÙĦÙĩ": 2024,
      "ĠØŃÙģØ±Ùĩ": 2025,
      "ĠØ³Ø·ÙĦ": 2026,
      "ĠØ¨Ø´ÙĨ": 2027,
      "ĠØ¨Ø·Ø±ÛĮ": 2028,
      "ĠÙħÙģØª": 2029,
      "ÙģØ³": 2030,
      "Ø§ÙĦØ§Ø¨": 2031,
      "ĠÙģÙĦÙĪØª": 2032,
      "Ø±ÙĪÛĮ": 2033,
      "Ø±ÛĮØ®Øª": 2034,
      "ØªÙĪØ§ÙĨÛĮØ¯": 2035,
      "ĠØªØµØ§ÙĪ": 2036,
      "ĠØ®Ø±ÛĮØ¯": 2037,
      "ĠÙħØ³ÛĮØ±": 2038,
      "ĠÙ¾ÛĮØ±Ø§Ùĩ": 2039,
      "Ú¯Ø°Ø±Ø§ÙĨØ¯ÙĨØ¯": 2040,
      "ĠØ§ÙĦØ§ÙĨ": 2041,
      "ĠÙ¾ÙĪØ´ÛĮØ¯": 2042,
      "ĠÙ¾ÙĨÛĮØ±": 2043,
      "ÙĨØ§ÙħÙĩ": 2044,
      "ĠÙħÙĦØ§ÛĮÙħ": 2045,
      "ĠØ®Ø·Ø±ÙĨØ§Ú©": 2046,
      "ĠØªØµØ§ÙĪÛĮØ±": 2047,
      "Ġt": 2048,
      "ÙĪØ¹": 2049,
      "ÙĪØµ": 2050,
      "ĠØªØ§ÙĦØ§Ø¨": 2051,
      "ĠØ¨ÙĪØ¯Ùĩ": 2052,
      "ĠØ®ÙĪÚ©": 2053,
      "Ø§ÙĦÙĩ": 2054,
      "ĠØºØ§Ø±": 2055,
      "ĠØ¯Ø§Øº": 2056,
      "ĠØ¨Ø§Ø´Ùħ": 2057,
      "ĠÙħÙĪÙģÙĤ": 2058,
      "ĠØ§Ø´Ø§Ø±Ùĩ": 2059,
      "ĠÙħØ¹ÙĦ": 2060,
      "ĠØ¸Ø±Ùģ": 2061,
      "ĠÙĨÙħÙĪØ¯": 2062,
      "ĠÙģØ´Ø§Ø±": 2063,
      "ĠÙ¾ÙĦ": 2064,
      "Ø®ÙĪØ§ÙĨ": 2065,
      "Ø§ÙħÛĮØ¯": 2066,
      "ĠØµØ®Ø±Ùĩ": 2067,
      "Ø±Ø§Øª": 2068,
      "Ú©ÙĨÛĮØ¯": 2069,
      "Ø¹Ø¯Ùĩ": 2070,
      "ĠÙħÙĪØ²": 2071,
      "ĠØ¬Ø§Ø¯ÙĪ": 2072,
      "ĠÙĤÙģØ³": 2073,
      "ĠØ¢Ø²Ø§Ø¯": 2074,
      "ĠÙħØªØ¹ÙĦÙĤ": 2075,
      "Ø§ÙĨÚ¯ÛĮØ²": 2076,
      "ĠÚĨØ´ÙħØ§ÙĨ": 2077,
      "ĠØ¯ÙĨÛĮØ§": 2078,
      "ĠÙħÙģØªØ®Ø±": 2079,
      "ĠØ§ÙĦØ§": 2080,
      "ĠØªØ®Ùħ": 2081,
      "ĠÙħÛĮÚ©Ø±Ø¯": 2082,
      "Ø®ÙĪØ§Ø¨": 2083,
      "Ø§ÙĪÙĩ": 2084,
      "Ø±Ø§ÙĨÙĨØ¯": 2085,
      "ÙĪØ§Ø±Ùĩ": 2086,
      "ÙĨÙĪØ§ÙĨ": 2087,
      "ĠØ¨ÛĮÙĨ": 2088,
      "ĠÙħÚ©": 2089,
      "ĠØ¯Ø²Ø¯": 2090,
      "ĠØ±Ø¨Ø§Øª": 2091,
      "ĠØªÚ©": 2092,
      "ĠØªÛĮØ±": 2093,
      "ĠÙ¾Ø§Ø³": 2094,
      "ĠØ¬ÙĨ": 2095,
      "ĠØªÙĪØª": 2096,
      "ĠÙĦÛĮØ²Ø§": 2097,
      "ĠØ§ØªÙĪØ¨ÙĪ": 2098,
      "ĠØ¨ÛĮØ§ÛĮÛĮØ¯": 2099,
      "ÙĪÙĤØª": 2100,
      "ĠØªÙĪØ§ÙĨØ³ØªÙĩ": 2101,
      "ĠØ¨Ø§Ø¯Ø¨Ø§Ø¯": 2102,
      "ĠÚ¯Ø´ØªÙĨØ¯": 2103,
      "ĠØ¯Ú©ØªØ±": 2104,
      "ĠÙ¾ÙĪØ³Øª": 2105,
      "ĠØ§ØªÙĪØ¨ÙĪØ³": 2106,
      "Ø±ÙĪØ¯": 2107,
      "ĠØªÙĪØ§ÙĨØ¯": 2108,
      "ĠØ®Ùħ": 2109,
      "ĠØ¢ÙĪÛĮ": 2110,
      "ĠÙĨÙĪØ±": 2111,
      "ÙģØªÙĩ": 2112,
      "Ø§Ø¨ÛĮ": 2113,
      "ĠØªÙĪÙĨ": 2114,
      "ĠØµÙħÛĮÙħ": 2115,
      "ĠØ·Ø±Ø§ØŃÛĮ": 2116,
      "ĠØ¨Ú¯Ø°Ø§Ø±": 2117,
      "ĠØ³Ø§Ø®ØªÙĨ": 2118,
      "ĠÚ©Ø§ÙĪØ´": 2119,
      "ĠØ¢ÙĩÙĨÚ¯": 2120,
      "ĠØ¨Ø¯Ø¬ÙĨØ³": 2121,
      "ĠÙ¾Ø§Ø¯Ø´": 2122,
      "ĠØµÙħÛĮÙħÛĮ": 2123,
      "Ø§Ø·": 2124,
      "Ø³ÙĨØ¯": 2125,
      "ĠØ±Ø´Ø¯": 2126,
      "Ø¨ÛĮØ§ÛĮÛĮØ¯": 2127,
      "ĠØ®ÙĪØ¯Ø´Ø§ÙĨ": 2128,
      "ĠØµØ¯Ùģ": 2129,
      "ĠØ¨Ú¯ÛĮØ±ÛĮ": 2130,
      "ĠØ®Ø§Øµ": 2131,
      "Ø¯ÙĩÙħ": 2132,
      "ĠÙĤÙģØ³Ùĩ": 2133,
      "ĠÙĨÙħØ§ÛĮØ´": 2134,
      "ĠÙĨÙĪØ´ØªÙĩ": 2135,
      "ĠâĢľ": 2136,
      "ĠØ±ÙĪØ¯Ø®Ø§ÙĨÙĩ": 2137,
      "ĠØ¨Ø§ÙħØ²Ùĩ": 2138,
      "ĠØ´ÙĪÛĮÙħ": 2139,
      "ĠØ¨Ø±Ùģ": 2140,
      "ÙħØ§Ø³": 2141,
      "ĠÙģÙĦÙģ": 2142,
      "ĠØ¹ÙĨÙĪØ§ÙĨ": 2143,
      "ÙĨØ¬ÛĮ": 2144,
      "ĠØ´ÙĨÛĮØ¯ÙĨØ¯": 2145,
      "Ø§ÙģÛĮ": 2146,
      "ĠØ¢Ø±Ø§ÛĮØ´": 2147,
      "ĠÙĨØ´ÙĪÙĨ": 2148,
      "ĠØ¨Ø¨ÛĮÙĨÛĮÙħ": 2149,
      "Ù¾Ø±Ø³Ø¯": 2150,
      "ĠØ³Ø§ÙĦØ§Ø¯": 2151,
      "ĠØŃÙħØ§Ùħ": 2152,
      "ĠÙĨÙĪØ¨ØªÛĮ": 2153,
      "ĠØ¨ÙĪÙĤ": 2154,
      "ĠÙħØ³Øª": 2155,
      "ĠÙĨØ§Ø±": 2156,
      "ĠØ´Ø§ÙĨÙĩ": 2157,
      "ÙĤØ§Ø¨": 2158,
      "ĠÙĦØ§Ú©": 2159,
      "ĠÚ©ÙĪØª": 2160,
      "Ø±ÙĪØªÙħÙĨØ¯": 2161,
      "ĠÚ¯Ø°Ø´Øª": 2162,
      "ĠØ¨ÛĮÙĦ": 2163,
      "Ø²ÙĨÙĨØ¯": 2164,
      "ĠÙħØ®ÙģÛĮ": 2165,
      "ĠØ§ÛĮÙħÙĨ": 2166,
      "ĠØ³ÛĮØ§Ùĩ": 2167,
      "ĠØ®Ø±Ø¯ÙħÙĨØ¯": 2168,
      "ĠØ¯ÙģØªØ±ÚĨÙĩ": 2169,
      "ĠØ«Ø±ÙĪØªÙħÙĨØ¯": 2170,
      "ÙĨÙĩØ§": 2171,
      "ĠÙĪØ§ÙĦØ¯": 2172,
      "ĠØ®ÙĨÚ©": 2173,
      "ĠØ¬Ø±": 2174,
      "ĠÙ¾Ø±ÛĮØ¯ÙĨ": 2175,
      "ĠØ®ÛĮØ§Ø¨": 2176,
      "ĠØŃÙĪÙĦÙĩ": 2177,
      "ĠÙĦØ¦ÙĪ": 2178,
      "ĠÙĦÛĮÙħÙĪ": 2179,
      "Ø¨ÛĮÙĩ": 2180,
      "ĠÚ©ÙħØ±Ø¨": 2181,
      "ĠÙĨØ§ÙħÙĩ": 2182,
      "ĠØ¨ÙĨÙģØ´": 2183,
      "Ú¯ÛĮØ±ÙĨØ¯": 2184,
      "ĠØ¨Ø±Ú¯Ø±Ø¯Ø¯": 2185,
      "ĠØ¹Ø¬ÛĮØ¨": 2186,
      "ĠØ·ÙĪÙģØ§ÙĨ": 2187,
      "ĠÙģÙĦÙģÙĦ": 2188,
      "ĠÙĨØ§Ø±ÙĨØ¬ÛĮ": 2189,
      "ÙĩÙħÛĮ": 2190,
      "ĠÙħØ±Ø¨": 2191,
      "ĠØ®ÙĦØ§ÙĤ": 2192,
      "ĠÙĨÚ©Ø±Ø¯ÙĨØ¯": 2193,
      "Ø±ÛĮØ²Ùĩ": 2194,
      "ÙĭØĮ": 2195,
      "ĠØµØ¯Ø§ÙĩØ§ÛĮ": 2196,
      "ĠØ§ÙĨÚ¯ÙĪØ±": 2197,
      "ĠØ§ØŃÙħÙĤØ§ÙĨÙĩ": 2198,
      "ĠÙ¾Ø§Ø¯Ø´Ø§Ùĩ": 2199,
      "ĠÙĪØ§ÙĦØ¯ÛĮÙĨ": 2200,
      "ĠÙħØ´Øª": 2201,
      "Ø§ÙĨÙĨØ¯Ùĩ": 2202,
      "ĠÚĨØ§ÙĤ": 2203,
      "ĠØ¨Ø±ÙĤ": 2204,
      "ĠÙĦØº": 2205,
      "ĠØ¹ÙĤ": 2206,
      "ĠØ¯Ø§Ø±ÛĮØ¯": 2207,
      "Ø´Ø¯ÙĨØ¯": 2208,
      "Ø®ÙĪØ§ÙĩØ´": 2209,
      "ØªÙĪÙĨÙĩ": 2210,
      "ĠØ¨Ù¾ÙĪØ´": 2211,
      "Ø¬Ø¨ÙĪØ±": 2212,
      "ĠØ¨Ú¯ÛĮØ±ÛĮÙħ": 2213,
      "ĠØ²ÛĮØ¨Ø§ÛĮ": 2214,
      "ĠÙĤØ¨ÙĦØ§": 2215,
      "Ø¨ÙĪØªØ±": 2216,
      "\"ØĮ": 2217,
      "ĠØ§ÙĩÙħÛĮ": 2218,
      "ĠÙħØ¬Ø¨ÙĪØ±": 2219,
      "ĠØ¯ÛĮØ±": 2220,
      "Ø²Ø§ÙĨ": 2221,
      "Ú¯ÙĪ": 2222,
      "ĠØ±Ø§ÙĨÙĨØ¯Ùĩ": 2223,
      "ĠÙ¾ÙĦÙĩ": 2224,
      "ĠÙĨØ±Ø¯": 2225,
      "ĠØ¨Ø±ÙĤØµ": 2226,
      "ĠØ¹Ø±Ø¶": 2227,
      "ØºÛĮ": 2228,
      "!\".": 2229,
      "ĠØªØ±Ú©": 2230,
      "ĠÚ¯Ø°Ø±ÙĪ": 2231,
      "ĠØªÙĦÙģÙĨ": 2232,
      "ĠØ¨Ú¯ÛĮØ±Ùĩ": 2233,
      "Ø¨Ø¨Ø®Ø´ÛĮØ¯": 2234,
      "ĠÚ©ÙħØ±Ø¨ÙĨØ¯": 2235,
      "Ú©ÙĪ": 2236,
      "ĠÚ©Ø¨ÙĪØªØ±": 2237,
      "Ø¨ÙĨØ¯": 2238,
      "ĠÙĪØ²ÛĮØ¯": 2239,
      "ĠÙĨÙģØ³": 2240,
      "ĠØ´Ø¹": 2241,
      "ÛĮÙĨØ§": 2242,
      "ĠØ¬ÛĮØ¨": 2243,
      "ĠÚ©Ø´ÛĮØ¯ÙĨ": 2244,
      "ĠÙĨÛĮØ³ØªÙĨØ¯": 2245,
      "ØªØ§Ø¨ÛĮØ¯": 2246,
      "ĠØ¢Ø³Ø§ÙĨ": 2247,
      "Ø¯ÙĩÙĨØ¯": 2248,
      "ĠÙ¾ÙĨØ¬Ùĩ": 2249,
      "ĠÚ¯ÛĮØ§Ùĩ": 2250,
      "ĠØ®ÛĮØ§Ø¨Ø§ÙĨ": 2251,
      "ĠÙħØ´ØªØ§ÙĤ": 2252,
      "Ùĳ": 2253,
      "Ġ-": 2254,
      "Ø§Ø²ÛĮ": 2255,
      "ĠÙħØ¶": 2256,
      "Ø²Ø§Ø¯Ùĩ": 2257,
      "ĠØ®Ø·": 2258,
      "ĠÙ¾Ø§Ø´": 2259,
      "ÚĨÙĨÚ¯": 2260,
      "Ø§Ø¯ÙĦ": 2261,
      "Ø²ÛĮÙĪÙĨ": 2262,
      "ĠØ®ÙĪØ´Ú¯": 2263,
      "ĠØªÙĪÙĦ": 2264,
      "ĠØ¨Ø²Ø±Ú¯Ø´": 2265,
      "ÙħÛĮÙĪÙĩ": 2266,
      "ĠÙģØ±Ø§": 2267,
      "ĠÙĦÛĮÙĪØ§ÙĨ": 2268,
      "ĠÚ©ÙĪÚĨÚ©Ø´": 2269,
      "Ø±Ø§Ú©ÛĮ": 2270,
      "ÙħØªØ§Ø³Ùģ": 2271,
      "ĠØ§Ø´Ú©": 2272,
      "ĠÙĨØ§Ø§ÙħÛĮØ¯": 2273,
      "ĠØ¢Ø¨ÙħÛĮÙĪÙĩ": 2274,
      "ĠØ®ÙĪØ§ÙĩØ±": 2275,
      "ĠØ¨Ø§ØºÚĨÙĩ": 2276,
      "ĠØ¯Ø¹ÙĪØª": 2277,
      "ĠÙħØªÙģØ§ÙĪØª": 2278,
      "ĠØ¨Ø§Ø¯Ø¨Ø§Ø¯Ú©": 2279,
      "ĠØ¨ÙĨØ¯": 2280,
      "Ø³ÙĪ": 2281,
      "Ø³Ø§ØŃ": 2282,
      "ĠÙħØ§Ø³Ùĩ": 2283,
      "ÙĪØ¯Ùĩ": 2284,
      "ĠÙĨØªÙĪØ§ÙĨØ³ØªÙĨØ¯": 2285,
      "ÙĦÛĮØ³ÛĮ": 2286,
      "Ø§ÛĮØª": 2287,
      "ĠØµØ§Ùģ": 2288,
      "ÙĪÛĮØ²ÛĮÙĪÙĨ": 2289,
      "ĠØªÙħØ³Ø§ØŃ": 2290,
      "ĠØ¨ÙĦÚ©Ùĩ": 2291,
      "ĠÙħØ±Ø¨Ø§": 2292,
      "ĠØ¨Ø§ÙĦÙĪÙĨ": 2293,
      "ĠÚ¯ÙĪØ´Øª": 2294,
      "ĠØ§ÙĨØ¬Ø§ÙħØ´": 2295,
      "ĠØªÙĦÙĪÛĮØ²ÛĮÙĪÙĨ": 2296,
      "ĠØªÙĪØ§ÙĨÙħ": 2297,
      "ĠÙĩÙĪØ§Ù¾ÛĮÙħØ§": 2298,
      "Ø±ÛĮØ®ØªÚ¯ÛĮ": 2299,
      "ĠØ¯Ùħ": 2300,
      "ĠØªØŃ": 2301,
      "ĠÙĨÙĪØ²": 2302,
      "ĠØ´ÙĪÙħ": 2303,
      "ĠØ¬Øª": 2304,
      "ĠÚĨÙĨÚ¯": 2305,
      "ĠØ¨Ø±ÛĮ": 2306,
      "ĠØ¨Ø±ÙĪ": 2307,
      "ĠØ¨Ø±Ø³Ø¯": 2308,
      "ĠØ¨Ø±ÙģÛĮ": 2309,
      "Ø®ÙĪØ§Ø³ØªÙħ": 2310,
      "ĠØŃØ§ÙĦØ´": 2311,
      "ĠÙĨØ¨ÙĪØ¯ÙĨØ¯": 2312,
      "ÙĪØ²Ø´": 2313,
      "ĠØªÙĪØ§ÙĨÛĮÙħ": 2314,
      "ĠØ¨Ø¨ÛĮÙĨÙħ": 2315,
      "Ø±ÙģØªÙĨØ¯": 2316,
      "ĠØ§ÙĨÚ¯Ø´Øª": 2317,
      "Ú¯Ø±Ø¯Ø§ÙĨ": 2318,
      "ĠÙģÛĮÙĦÙħ": 2319,
      "ĠÚ©Ø§ÙħÙĦØ§": 2320,
      "ĠØ´Ø§ÙĩØ²Ø§Ø¯Ùĩ": 2321,
      "ĠØ¹ÙħÛĮÙĤ": 2322,
      "ĠÙĨØ±Ø¯Ø¨Ø§ÙĨ": 2323,
      "Ø¯ÙĪØ¯": 2324,
      "ĠØ¨ÛĮÙĨÛĮ": 2325,
      "ĠÚ©Ø§Ú©": 2326,
      "ĠØ¯ÙĤØª": 2327,
      "Ø³ØªØ§ÙĨÛĮ": 2328,
      "ĠØ¢Ø®Ø±": 2329,
      "ĠØ±ÙĪØŃ": 2330,
      "ĠØ¬ÙĦÙĪÛĮ": 2331,
      "ĠÚĨØ§ÛĮ": 2332,
      "ĠØ¨Ø±ÚĨ": 2333,
      "ĠØ®ÙĪØ´Ø´Ø§ÙĨ": 2334,
      "ØªØ±ÛĮ": 2335,
      "ĠØºØ±ÛĮ": 2336,
      "ĠØ³ÙĪØ§Ø±ÛĮ": 2337,
      "ĠØ®Ø±ÚĨÙĨÚ¯": 2338,
      "ĠÙĨØ§Ø±Ø§ØŃØªÛĮ": 2339,
      "ĠØ®ÙĨØ¯ÛĮØ¯ÙĨ": 2340,
      "ĠØ³Ø±Ú¯Ø±ÙħÛĮ": 2341,
      "ĠÙħØ¯Ø§ÙĦ": 2342,
      "ĠØ¨Ú¯ÛĮØ±Ùħ": 2343,
      "Ø¯Ø§Ø¯ÙĨØ¯": 2344,
      "ĠØ§ÙĨÚ¯ÙĦÛĮØ³ÛĮ": 2345,
      "ĠØ³Ø§ÙĦÙħ": 2346,
      "Ø®ÛĮÙĦÛĮ": 2347,
      "ĠÙģØ±Ø¯Ø§": 2348,
      "ĠØ´Ø¯ÛĮØ¯ÛĮ": 2349,
      "ĠÙĩÛĮÙĪÙĦØ§": 2350,
      "ĠØ®Ø¬Ø§ÙĦØªÛĮ": 2351,
      "ÙħØ±Ø³ÛĮ": 2352,
      "ĠØ¨ÙħØ§ÙĨ": 2353,
      "ĠØ¯ÙĨÛĮ": 2354,
      "ĠØ³Ø§Ú©": 2355,
      "ĠØ±ÙĪØ²ÙĩØ§": 2356,
      "ĠÙ¾ÛĮØ¯Ø§ÛĮØ´": 2357,
      "ĠÙ¾ÛĮØª": 2358,
      "ĠØ³Ù¾Ø§Ø³": 2359,
      "ĠØµÙĪØ±ØªØ´": 2360,
      "ĠÙ¾ÙĪØ´ÛĮØ¯Ùĩ": 2361,
      "ĠÙĪØŃØ´ÛĮ": 2362,
      "ĠÚ©Ø¬Ø§Ø³Øª": 2363,
      "ĠØ´ÙĪØ®ÛĮ": 2364,
      "ĠØ¹ÙħÙĦ": 2365,
      "ĠÙħØŃØ§ÙģØ¸Øª": 2366,
      "ĠÚĨÙĨÚ¯Ø§ÙĦ": 2367,
      "ÙħØ§ÙĨÛĮ": 2368,
      "Ø´ÙħØ§": 2369,
      "ĠØªÙģ": 2370,
      "ĠÚ©Ø±Ø¯ÛĮÙħ": 2371,
      "ÙĤØ¹": 2372,
      "ĠØ®ÙĪØ§ÙĩÛĮ": 2373,
      "Ø§ÙĦØ¨ØªÙĩ": 2374,
      "ĠØ¨Ø±Ø±Ø³ÛĮ": 2375,
      "ĠØªÙĪØ¶ÛĮ": 2376,
      "ĠØ§ÙĪÙĨØ¬Ø§": 2377,
      "ĠÚ©Ø§Ø±ÙĩØ§ÛĮ": 2378,
      "ĠØ®ÙĪØ¯Øª": 2379,
      "ĠØªØµÙĪØ±": 2380,
      "ĠØ¯ÙĩÙħ": 2381,
      "ĠÙĤØ·Ø¹": 2382,
      "ĠØªÙĪØ¶ÛĮØŃ": 2383,
      "ÙĨÛĮÙĨ": 2384,
      "ĠØ¨ÛĮÙħ": 2385,
      "ØªØ§": 2386,
      "Ø¨ÙĨ": 2387,
      "ĠØ®Ø§ÙĦÛĮ": 2388,
      "ĠØ¢ÙĦÙĪ": 2389,
      "ĠÙ¾Ø®Ø´": 2390,
      "ĠÙĨÙĪØ§Ø²": 2391,
      "ĠØ³ÙĤ": 2392,
      "ĠØ¢ÙĨÚĨÙĩ": 2393,
      "Ø§Ø±Ø´": 2394,
      "Ø§Ø¯Ø±Ø´": 2395,
      "ĠØ¯ÙĪÛĮ": 2396,
      "Ø§ÛĮÙĨØ¯": 2397,
      "Ø¹Ùħ": 2398,
      "ĠØ¬Ùħ": 2399,
      "ĠØ¬Ùĩ": 2400,
      "ĠØªÙĪØ±": 2401,
      "ĠØŃÛĮÙĨ": 2402,
      "ĠÛĮÙĪ": 2403,
      "Ø±ÙħØ§ÙĨ": 2404,
      "ĠØ¨ÙĨÙĪÛĮ": 2405,
      "ĠÚ©ÙĪÚĨÙĪÙĦÙĪÛĮ": 2406,
      "Ø¢ÙĦÙĪØ¯": 2407,
      "ĠÙħÙĪÙĩØ§ÛĮ": 2408,
      "ĠÚ©ÙĦÙħÙĩ": 2409,
      "ĠÚ¯Ø°Ø§Ø´ØªÙĩ": 2410,
      "ĠÙĩØ³ØªÛĮÙħ": 2411,
      "ĠÙħØŃØ¨": 2412,
      "ĠØ¯Ø±Ø®Ø´Ø§ÙĨÛĮ": 2413,
      "ĠØ¨Ø®ÙĪØ±ÛĮÙħ": 2414,
      "ĠØªØ®ØªØ´": 2415,
      "ĠØ¯Ø±ÛĮØ§ÛĮÛĮ": 2416,
      "ĠØ´ÛĮØ·": 2417,
      "ĠØ¹Ø²ÛĮØ²Ùħ": 2418,
      "ĠØ³Ø±Ø§Ø³Ø±": 2419,
      "ĠÙ¾ÛĮØ±Ø§ÙĩÙĨ": 2420,
      "ĠÙ¾Ø§Ø³Ø®": 2421,
      "ĠÙĨÙĪØ²Ø§Ø¯": 2422,
      "ĠØ³Ø§Ú©Øª": 2423,
      "Ø§ÙħØ§": 2424,
      "ĠÚ©ÙĪÚĨÛĮÚ©": 2425,
      "Ø¨Ø§Ø²": 2426,
      "ĠØ¹Ø§Ø´ÙĤ": 2427,
      "ĠÙħØ§ÙĨØ¯ÙĨØ¯": 2428,
      "ĠØ§ØŃØªÛĮ": 2429,
      "ĠØ¨Ú¯Ø°Ø§Ø±ÙĨØ¯": 2430,
      "Ø¨Ø§Ø´Ø¯": 2431,
      "ĠÙ¾ÛĮØ´ÙĨÙĩØ§": 2432,
      "ĠÙĨÛĮÙħÚ©Øª": 2433,
      "ĠØªÚ©ÙĪÙĨ": 2434,
      "ĠÙħØŃØ¨ÙĪØ¨": 2435,
      "Ø¯Ø§Ø±Ø¯": 2436,
      "ÙĨØ§Ùĩ": 2437,
      "ĠØ¨Ú©Ø´": 2438,
      "ĠÙħÙĦØŃ": 2439,
      "Ø¨ÙĪØ¯": 2440,
      "ĠÙħÛĮØ§Ø¯": 2441,
      "Ú¯Ø±ÙģØª": 2442,
      "ĠØ³ÙĪØª": 2443,
      "ĠÛĮØ§Ø¯Ø¯Ø§Ø´Øª": 2444,
      "ĠÙħÙĪØ¬ÙĪØ¯": 2445,
      "ĠØ¨Ú¯Ø±Ø¯": 2446,
      "ĠÙ¾Ø§ÛĮØ´": 2447,
      "Ø§Ø²ÙĦ": 2448,
      "ĠØ¨ÛĮØ§ÙĪØ±Ø¯": 2449,
      "ĠØ¢ÙģØªØ§Ø¨Ú¯Ø±Ø¯Ø§ÙĨ": 2450,
      "ĠØ¨Ù¾ÛĮ": 2451,
      "ĠÙĪÛĮØ³": 2452,
      "ĠÛĮØ§ÙģØª": 2453,
      "ĠØ³Ø§Ø®ØªÙĩ": 2454,
      "ĠØ³Ø§Ø®ØªÙĨØ¯": 2455,
      "ĠØ³ÙĩÛĮÙħ": 2456,
      "ĠØ§ÛĮØ³ØªØ§Ø¯": 2457,
      "ĠÙ¾Ø´ÛĮÙħØ§ÙĨ": 2458,
      "ĠÙ¾Ø°ÛĮØ±Ø§ÛĮÛĮ": 2459,
      "ĠÙħØ¹ÙĦÙħ": 2460,
      "ĠÙħÙĦØŃÙĤ": 2461,
      "Ø±Ø¯Ø³Øª": 2462,
      "ĠØªØºÛĮ": 2463,
      "ĠØ¨Ø§ÙĪØ±": 2464,
      "ĠÙ¾Ø§Ø²ÙĦ": 2465,
      "ĠØ±Ø§Ø²": 2466,
      "ÛĮÚ©Ø§Ø±": 2467,
      "ĠØ¯ÙĪØ±Ø¯Ø³Øª": 2468,
      "ĠØ®ÙĪØ±Ø§Ú©ÛĮ": 2469,
      "ĠØ¬ÙĦÙĪ": 2470,
      "ĠØ¬Ø¯Ø§": 2471,
      "ĠÚĨÛĮÚ©Ø§Ø±": 2472,
      "ĠØªÙĪØ§ÙĨÛĮ": 2473,
      "ĠØŃØ¯": 2474,
      "ĠØ¹ÙĪØ¶": 2475,
      "Ú©Ø±Ø²": 2476,
      "ĠØªÙħØ±": 2477,
      "ĠÙĨØ§ÙĩØ§Ø±": 2478,
      "ĠØ¨Ø±Ø¯Ø§Ø´ØªÙĨØ¯": 2479,
      "ĠØ¢Ø±Ø§ÙħÛĮ": 2480,
      "ĠÚ¯ÙĪØ´Ùĩ": 2481,
      "ĠÙģÙĩÙħ": 2482,
      "ĠØ¸Ø§ÙĩØ±": 2483,
      "ĠØµØ¨ÙĪØ±": 2484,
      "ĠÚ©Ø§ÙħÙĦ": 2485,
      "ĠØ®Ø§Ø±Ø¬": 2486,
      "ĠØ±ÙĪØ³ØªØ§": 2487,
      "ĠÙħØ±Ø¨Ø¹": 2488,
      "ĠØ¹ÙĤØ¨": 2489,
      "ĠØ¨Ø±ÚĨØ³Ø¨": 2490,
      "ĠÙĪÛĮØ³Ú©Ø±Ø²": 2491,
      "ĠØªØºÛĮÛĮØ±": 2492,
      "Ø±ÙĪØ±": 2493,
      "ĠØ¨Ú©ÙĨØ¯": 2494,
      "ĠØ¨ÛĮÙĨÙĨØ¯": 2495,
      "Ú©Ø§Ø±ÛĮ": 2496,
      "ĠÚ©Ø³": 2497,
      "ĠÚ©ÛĮÙħ": 2498,
      "ĠÚ©Ø§Ø³Ùĩ": 2499,
      "ĠÚ©Ø§ÙģÛĮ": 2500,
      "ĠØ¯Ø§ÛĮ": 2501,
      "ĠØªÙĪØ¯Ùĩ": 2502,
      "ĠÙ¾ÙĦÛĮØ³": 2503,
      "ĠØ¯ÙĪØ§ÙĨ": 2504,
      "ĠÚĨÙĨÛĮÙĨ": 2505,
      "ĠØ¨Ø±Ø§Ø¯Ø±Ø´": 2506,
      "ĠÙ¾Ø±ÛĮØ¯ÙĨØ¯": 2507,
      "Ø¢ÙĪØ±ÛĮ": 2508,
      "ĠÙ¾ÛĮØ§Ùħ": 2509,
      "ĠØ³Ø§Ø®ØªÙħØ§ÙĨ": 2510,
      "ĠØ§Ø·Ø±Ø§": 2511,
      "ĠØ§ÙħÙĨÛĮØª": 2512,
      "ĠØ¯ÙĤÛĮÙĤ": 2513,
      "ĠØ¬ÙħØ¬ÙħÙĩ": 2514,
      "ĠÙ¾ÛĮØ´ÙĨÙĩØ§Ø¯": 2515,
      "ĠØ¯Ø§ÛĮØ±Ùĩ": 2516,
      "ĠÙħØ§Ùĩ": 2517,
      "Ø¨Ø·": 2518,
      "ĠÙħÛĮØ®": 2519,
      "ĠÙĨÚ©ÙĨ": 2520,
      "ĠÙĨÙĪØ§Ø®Øª": 2521,
      "ĠØ³ÛĮØ±": 2522,
      "ÙĤÛĮØ¨": 2523,
      "ĠØ¬ÙĨÛĮ": 2524,
      "ĠÚĨØªØ±": 2525,
      "ĠØ¨Ø±Ø¢ÙĪØ±Ø¯": 2526,
      "ĠØŃØ¨Ø§Ø¨": 2527,
      "ĠÙĦØ±Ø²": 2528,
      "ĠÙģÙĦ": 2529,
      "ĠØ¹Ø§Ø¯ÛĮ": 2530,
      "ĠÙħÙĨÙĪ": 2531,
      "ĠØ³Ú¯Ø´": 2532,
      "ĠØ¨ÙĨØ´ÛĮ": 2533,
      "ĠØ¨Ø¯Ø§ÙĨØ¯": 2534,
      "ĠØ®ÙĪØ§ÙĨØ¯": 2535,
      "ĠÙĨØ¯Ø§Ø±Ùħ": 2536,
      "ĠØ¨Ø§Ø¨Ø§Ø´": 2537,
      "ĠØªØ¹ÙĤÛĮØ¨": 2538,
      "ĠÙ¾ÛĮØ§ÙĨ": 2539,
      "ĠØºØ°Ø§ÙĩØ§ÛĮ": 2540,
      "Ø¯ÙĪÛĮØ¯ÙĨØ¯": 2541,
      "ĠØ¶Ø¨Ø·": 2542,
      "ĠØªÛĮØ²": 2543,
      "ĠØ§Ø·Ø±Ø§ÙģØ´": 2544,
      "ĠØ¨Ø±Ø¢ÙĪØ±Ø¯Ùĩ": 2545,
      "ĠØ¨ÙĨØ´ÛĮÙĨØ¯": 2546,
      ":Â«": 2547,
      "ÙĪÚĨÙĩ": 2548,
      "Ø¯Ø¨": 2549,
      "ĠÙħÙģ": 2550,
      "ĠÙħÙĪØ¯": 2551,
      "ĠØ¯Ø§ÙĨÙĩ": 2552,
      "ĠØªÙĨÙĩ": 2553,
      "ĠÙħÛĮØ´Ùĩ": 2554,
      "ĠÙĨØ®": 2555,
      "ĠØ³Ø§ÙĨØ¯": 2556,
      "ĠÙĩÙĪØ´": 2557,
      "ĠÙĩÙħØ³": 2558,
      "ĠØ¬Ø§Ø²": 2559,
      "ĠØ¨Ø²Ø±Ú¯ØªØ±": 2560,
      "ĠÚ¯Ø±ÙĪÙĩ": 2561,
      "ĠØ®ÙĪØ´ØŃØ§ÙĦÙħ": 2562,
      "ĠØºØ±Ø´": 2563,
      "ĠÙħÙĨÙĩ": 2564,
      "ØµÙĪØµ": 2565,
      "Ú©ÙĨÙĨ": 2566,
      "ĠÙ¾Ø§Ø±Ùĩ": 2567,
      "ĠØ³Ø±Ø®": 2568,
      "ĠÙħÙĩØ±Ùĩ": 2569,
      "ĠÚ©ÙĦÙĪÚĨÙĩ": 2570,
      "ĠÙĨØ¯ÛĮØ¯": 2571,
      "ĠØ¨Ø§Ø±ÙĩØ§": 2572,
      "ĠØ¢ÙĪØ±Ø¯Ùĩ": 2573,
      "ĠØ¢Ø±Ø§ÙħØ´": 2574,
      "ĠÙ¾Ø´ÙħÚ©": 2575,
      "ĠÙĩÙħØ§ÙĨØ·ÙĪØ±": 2576,
      "ĠØ¨Ø³Ø§Ø²ÙĨØ¯": 2577,
      "ĠÙĤØ§ÛĮÙħ": 2578,
      "ĠØ®ÙĪØ´Ú¯ÙĦ": 2579,
      "ĠØ³Ø§ÙĨØ¯ÙĪÛĮ": 2580,
      "Ø¯Ùħ": 2581,
      "ÙħØ±": 2582,
      "ĠØ¨ÚĨ": 2583,
      "ĠØ®Ø§ÙħÙĪØ´": 2584,
      "ĠØ®ÙħÛĮØ±": 2585,
      "ĠÙ¾ÛĮØ§Ø²": 2586,
      "ĠÚ¯ÙĨØ§Ùĩ": 2587,
      "ĠØ¨ÙĪØ¯Ùħ": 2588,
      "ĠØ¬ÛĮÚ©": 2589,
      "ĠØ¬ÛĮÙħÛĮ": 2590,
      "Ù¾ÙĪØ´": 2591,
      "ĠÙĤØ§Ø¨": 2592,
      "ĠØ§Ø³ØªØ®ÙĪØ§ÙĨ": 2593,
      "ĠÙĦÛĮØ²": 2594,
      "Ø®ÙĪØ§ÙĨØ¯ÙĨØ¯": 2595,
      "ĠØ¨Ø±Ø§ÛĮØª": 2596,
      "ĠØµÙģ": 2597,
      "ØµØ±": 2598,
      "Ø¸Ø¨": 2599,
      "ĠØ®ÙĪØ¯Ø®ÙĪØ§Ùĩ": 2600,
      "ĠØ¨Ø®Ø±Ø¯": 2601,
      "ĠÚĨÙĩØ±Ùĩ": 2602,
      "ĠØºØ°Ø§ÛĮÛĮ": 2603,
      "ÙħÙĪÙĦÛĮ": 2604,
      "ĠØ¹Ø±ÙĪØ³Ú©Ø´": 2605,
      "ĠÙĨÙĩÙĨÚ¯": 2606,
      "ĠÙĨØ¯Ø§Ø´ØªÙĨØ¯": 2607,
      "ĠØ¨Ø®ÙĪØ§Ø¨Ø¯": 2608,
      "ĠÙħØºØ±ÙĪØ±": 2609,
      "ĠØ¨Ø´ÙĤØ§Ø¨": 2610,
      "ĠÙ¾ÙĪÙĦÛĮ": 2611,
      "ĠØ³Ù¾Ø§Ø³Ú¯": 2612,
      "ĠØªÙħØ±ÛĮÙĨ": 2613,
      "Ø¯ÙĪÙĨØ¯": 2614,
      "Ø´ÙĤ": 2615,
      "ÙĦÙħÙĪÙĨ": 2616,
      "âĢİ": 2617,
      "ĠÙĪØ§": 2618,
      "ĠÙ¾Ø±Ø¯": 2619,
      "ÙĪØ¯Ø§ÙĦ": 2620,
      "ĠÙĨØ®ÙĪØ±Ø¯": 2621,
      "Ø®ÙĪØ´": 2622,
      "ĠÚ¯ÛĮÙĦ": 2623,
      "ĠÚ¯ÙĪØ¯Ø§ÙĦ": 2624,
      "ĠØ§Ø²Ø´": 2625,
      "Ù¾Ø§": 2626,
      "ØªØ±Ø§Ùħ": 2627,
      "ĠØ¹Ø´ÙĤ": 2628,
      "Ø®ÙĨØ¯ÛĮØ¯": 2629,
      "ĠØ§ØŃØªØ±Ø§Ùħ": 2630,
      "ÙħØªØ£Ø³Ùģ": 2631,
      "ĠÙħÙĪÙĦÛĮ": 2632,
      "ĠÙħÙĪÙĤØ¹": 2633,
      "ĠÙĤØ±ÙħØ²ÛĮ": 2634,
      "ĠØ§ÙģØªØ§Ø¯ÙĨØ¯": 2635,
      "ĠÙĤØ±ÙħØ²Ø´": 2636,
      "ĠØ²ÛĮØ¨Ø§Ø³Øª": 2637,
      "ĠÙ¾Ø¯Ø±Ø¨Ø²Ø±Ú¯": 2638,
      "ĠØŃØ´Ø±Ø§Øª": 2639,
      "Ø¦Ùĩ": 2640,
      "ĠÙĤÙģÙĦ": 2641,
      "ĠØ¯ÙĦØ´": 2642,
      "ĠÙħÙĤØ¯Ø§Ø±ÛĮ": 2643,
      "ĠÙĩÙĪØ§Ù¾ÛĮÙħØ§ÛĮ": 2644,
      "Ø§ÙģØªØ¯": 2645,
      "ĠØ¨ÙĪÙĤÙĦÙħÙĪÙĨ": 2646,
      "ĠØ¬ÛĮØ¨Ø´": 2647,
      "ÙħØªØ§Ø³ÙģÙħ": 2648,
      "ĠÙĨÙĪØ§Ø²Ø´": 2649,
      "ĠÚ¯ÛĮÙĦØ§Ø³": 2650,
      "ÙħØ§ÙĦ": 2651,
      "ĠØ±Ø§ÙĨÙĨØ¯": 2652,
      "ĠØ¢ÛĮØ¯": 2653,
      "ĠÙ¾ÙĨÛĮ": 2654,
      "ĠÙ¾ÙĪØ²Ø´": 2655,
      "ÙĩØ§ÛĮÙħ": 2656,
      "ĠØ´ÙħØ´": 2657,
      "ĠØ²Ø´Øª": 2658,
      "ÙĪØ§Ø¬": 2659,
      "ĠÚĨØ³Ø¨": 2660,
      "ĠØ¨Ø±Ùĩ": 2661,
      "ĠØªÙĪÙĦÙĩ": 2662,
      "ĠÙģØ¶": 2663,
      "Ø±ÙĪØŃ": 2664,
      "ØªÛĮØ¨": 2665,
      "ĠØªØ±ØªÛĮØ¨": 2666,
      "ĠØ®ÙĪØ¯Ú©Ø§Ø±": 2667,
      "ĠÙħØ§Ø´ÛĮÙĨØ´": 2668,
      "ĠØ§Ø³ÙħØ´": 2669,
      "ĠØ¨Ø¨ÙĨØ¯": 2670,
      "ĠØ±Ø§ÙĩÛĮ": 2671,
      "ĠØ³Ø¨Ø²ÛĮ": 2672,
      "ĠØªØ§Ø¨ÙĦÙĪ": 2673,
      "ĠØ¬Ø§ÛĮØ²Ùĩ": 2674,
      "ĠØ¢ÙĩÙĨ": 2675,
      "Ú¯Ø±Ø¯ÙĨØ¯": 2676,
      "ĠÙ¾Ø§ÙĩØ§ÛĮ": 2677,
      "Ø¯ÙĪØ³Øª": 2678,
      "ĠØ®Ø§Ú©Ø³Øª": 2679,
      "ØŃØ§ÙĦØ§": 2680,
      "ĠØ¬Ø§Ø¯ÙĪÚ¯Ø±": 2681,
      "ĠØ¯ÙĨÛĮØ§ÛĮ": 2682,
      "ĠØ¨ÛĮÙħØ§Ø±": 2683,
      "ĠØ¢ÙĦÙĪÚĨÙĩ": 2684,
      "ĠÙħÙģÛĮØ¯": 2685,
      "ĠØ³Ø§ÙĨØ¯ÙĪÛĮÚĨ": 2686,
      "ĠØ´ÙħØ´ÛĮØ±": 2687,
      ":âĢĿ": 2688,
      "Ġi": 2689,
      "ÙħØ´Ú©": 2690,
      "Ø³ÙħÙĩ": 2691,
      "ĠÙħØ¨ÙĦ": 2692,
      "ĠÙĪØ§ÛĮ": 2693,
      "ĠØ¨Ø§Ø¨ÛĮ": 2694,
      "ĠÙ¾ØªÙĪ": 2695,
      "ĠÚ¯Ø±Ú¯": 2696,
      "ĠØ´Ø¨ÛĮÙĩ": 2697,
      "ĠØ´Ø¯Ùħ": 2698,
      "ĠØ¬ÙĪØ±": 2699,
      "ĠØ¬Ø±ÛĮ": 2700,
      "ĠØ¬ÙĪÛĮ": 2701,
      "ĠØ¬Ø§Ø¯Ùĩ": 2702,
      "ĠØ¨Ø±Ø®ÛĮ": 2703,
      "ĠÙĦØ§": 2704,
      "Ø°Ø§Ø±": 2705,
      "Ø®ÙĪØ§ÙĨØ¯": 2706,
      "ĠÙħÙĨØ§Ø³": 2707,
      "ĠÙħÙĨØªØ¸Ø±Ùĩ": 2708,
      "ÙĪÛĮÙĤ": 2709,
      "Ø¹Ø¯Ø§Ø¯": 2710,
      "ĠØ¨Ø¯Ø§": 2711,
      "ĠØ§ÙĪÙĨÙĪ": 2712,
      "ĠØ¨Ú¯ÙĪÛĮØ¯": 2713,
      "ĠØ¨Ø®ÙĪØ§ÙĨ": 2714,
      "Ø´Ø¯Ùĩ": 2715,
      "ĠÚ©ÙĦÙħØ§": 2716,
      "ĠÚ©ÙĦØ¨Ùĩ": 2717,
      "ĠØ¨Ø¯ÙĩÛĮ": 2718,
      "ĠÙħØ¹ÙħÙĪÙĦÛĮ": 2719,
      "ĠØ¯Ø±ÛĮØ§ÙģØª": 2720,
      "ĠÙĤØ´ÙĨÚ¯ÛĮ": 2721,
      "ĠÙħØ¬Ø³ÙħÙĩ": 2722,
      "ĠÙĨÙĪØ´Øª": 2723,
      "ĠÙĤØ¯Ø±ØªÙħÙĨØ¯": 2724,
      "Ø¨Ø±ÛĮØª": 2725,
      "ĠØ¢Ø±Ø§ÛĮØ´Ú¯Ø±": 2726,
      "ĠÚ©ÙĪØªØ§Ùĩ": 2727,
      "ĠØ±Ø§ÙĨÙĨØ¯Ú¯ÛĮ": 2728,
      "ĠØ¨Ø®ÙĨØ¯": 2729,
      "ĠØ¨ÚĨØ±Ø®": 2730,
      "ĠÙħÙģÙĩ": 2731,
      "Ø²ÙħØ§ÙĨ": 2732,
      "âĢľ": 2733,
      "Ø³ØªÛĮ": 2734,
      "ĠÙ¾Øª": 2735,
      "ĠÙ¾Ø®Øª": 2736,
      "ĠÙĨØ§Ø¯": 2737,
      "ĠÚ¯ÚĨ": 2738,
      "ĠÚ©Ø±Ø¯ÛĮØ¯": 2739,
      "ĠØ¯ÙĪØ±Ø¨": 2740,
      "ĠØ¨Ø§Ø²ÛĮØ´": 2741,
      "ĠØ¬ÙĪØ§ÙĨ": 2742,
      "ĠÚ©ÙħÚ©Ùħ": 2743,
      "ĠØ¯Ø³ØªÚ©Ø´": 2744,
      "ĠØŃØ§ÙĦØª": 2745,
      "ĠØ·ÙĪØ±": 2746,
      "ĠØªØ®ØªÙĩ": 2747,
      "ĠØ®ÙĪØ´Ø¨Ø®ØªØ§ÙĨÙĩ": 2748,
      "ĠÙħØ´Ú©ÙĦÛĮ": 2749,
      "ĠÙħØ¬Ø±ÙĪØŃ": 2750,
      "ĠØªÛĮØ±Ùĩ": 2751,
      "ĠØ§ÙĩÙħÛĮØª": 2752,
      "ĠÙħÙģÙĩÙĪÙħ": 2753,
      "ĠØ¯ÙĪØ±Ø¨ÛĮÙĨ": 2754,
      "Ø¯ÙĨ": 2755,
      "ĠÙħØµ": 2756,
      "Ø²Ø¦": 2757,
      "Ú¯Ø¯": 2758,
      "ĠÙĪØ±Ø²": 2759,
      "ĠØ®Ø±Ø¨": 2760,
      "ĠÙĨØµ": 2761,
      "Ø®Ø§Ø±": 2762,
      "ĠØ§ÙĪÙĦÛĮ": 2763,
      "ĠØ´Ø±Ùħ": 2764,
      "ĠÚ©ÙĩÙĨÙĩ": 2765,
      "ĠÚĨØ±": 2766,
      "ĠÚĨÚ©": 2767,
      "ĠØ¨Ø±ÙĨØ¯": 2768,
      "ĠØªÙĪØ³Øª": 2769,
      "ĠÙĦÚ¯Ø¯": 2770,
      "ØºØ§ÙĦ": 2771,
      "ĠØ¨Ø§Ø´Ú¯Ø§Ùĩ": 2772,
      "ĠÙĦØ¨Ø®ÙĨØ¯ÛĮ": 2773,
      "ĠÚ©Ø§Ø±Øª": 2774,
      "ĠØ³Ø±Ø²Ùħ": 2775,
      "ĠÙħØ±Ø¯Ùĩ": 2776,
      "ĠØ·ÙĦ": 2777,
      "ĠØ§ÙģØªØ®Ø§Ø±": 2778,
      "ĠØ³ÙĨÚ¯Ø±ÛĮØ²Ùĩ": 2779,
      "ĠÚ©ÙĦØ§Ø³": 2780,
      "ĠØ¨Ø¨Ø±": 2781,
      "ĠÚ¯ÙĦØ¯Ø§ÙĨ": 2782,
      "ĠØ¯ÙĨØ¨Ø§ÙĦÙĩ": 2783,
      "ĠØ¯Ø±Ø®Ø´": 2784,
      "ĠÙĤÙĦØ§Ø¨": 2785,
      "Ø¨Ø±Ø¯ÙĨØ¯": 2786,
      "ĠØ¨Ø²ÙĨÙĨØ¯": 2787,
      "ĠØ§ØµÙĦØ§": 2788,
      "ĠÙĤØ¯Ø±Øª": 2789,
      "ĠÚ¯Ø°Ø´ØªÙĩ": 2790,
      "ĠØªÙĪÙĦØ¯": 2791,
      "ĠØ®Ø±Ø¨Ø²Ùĩ": 2792,
      "Ú©Ø³ÛĮ": 2793,
      "ØªØ§Ø±": 2794,
      "ĠØ§Ø¬Ø±Ø§": 2795,
      "ÙĨØ¯ÙĤ": 2796,
      "Ø¨Ø§ÙĩÛĮ": 2797,
      "ĠÙĪÙģ": 2798,
      "ĠÙħÛĮØ®ÙĪØ§Ø³Øª": 2799,
      "ĠØ¢ÛĮ": 2800,
      "ĠØ¢Ø±ÙĪÙħ": 2801,
      "ÙģÙĨØ¯": 2802,
      "ĠØ±Ø§ØŃØªÛĮ": 2803,
      "ĠÚ¯ÙĪØ²": 2804,
      "Ø§Ø¯ÙĪ": 2805,
      "Ø§Ø¯Øª": 2806,
      "ÛĮÙĨÚ©": 2807,
      "ØŃØµØ±": 2808,
      "ĠÙ¾Ø±ÚĨ": 2809,
      "ÙĪÙĨØ§": 2810,
      "ĠØŃØµ": 2811,
      "ĠÙģÙĨØ¯ÙĤ": 2812,
      "ĠÙħÙĨØŃØµØ±": 2813,
      "ĠØ¨Ø±Ø¯ÙĨ": 2814,
      "ĠØ³Ø±Ø²": 2815,
      "Ø¶Ø±": 2816,
      "ĠÚ©ÙĦÙħ": 2817,
      "Ø®ÙĪØ§ÙĩÛĮØ¯": 2818,
      "ĠØ¨Ø§Ø¨Ø§ÛĮØ´": 2819,
      "Ø§Ø²ÙĨØ¯": 2820,
      "ĠØªØ´ÙĪÛĮÙĤ": 2821,
      "ĠØ¯ÙĩÛĮ": 2822,
      "ĠØ¯ÙĩÛĮÙħ": 2823,
      "ĠØ§ÙĦÙħØ§Ø³": 2824,
      "Ø±Ø§ÙģÙĩ": 2825,
      "ĠØ¢ÙĤØ§": 2826,
      "ĠÙħØ®ØµÙĪØµ": 2827,
      "ĠØ§ÛĮØ³ØªÚ¯Ø§Ùĩ": 2828,
      "ĠÙģØ´Ø±Ø¯": 2829,
      "ĠÙģÙĩÙħÛĮØ¯ÙĨØ¯": 2830,
      "ĠÙĩÙħØ³Ø§ÛĮÙĩ": 2831,
      "ĠØ®Ø§Ú©Ø³ØªØ±ÛĮ": 2832,
      "ÙħØ´Ú©ÙĦÛĮ": 2833,
      "ĠÚ¯ÙĪØ²ÙĨ": 2834,
      "ĠØŃØµØ§Ø±": 2835,
      "Ø§Ú¯Ø±": 2836,
      "ÙĨÙĪØ§Ø®Øª": 2837,
      "ĠØ¨ØªÙĪØ§ÙĨÛĮÙħ": 2838,
      "Ø³Ø§Ø±Ø§": 2839,
      "ĠÙħÙĦ": 2840,
      "ĠÚ©Ø¯Ø§Ùħ": 2841,
      "Ø¨Ø§ÙĦ": 2842,
      "ĠØªØ±Ø´": 2843,
      "ĠØªØ²Ø¦": 2844,
      "ĠÙ¾Ø´Ùĩ": 2845,
      "ĠÙĨØ´ÙĨ": 2846,
      "ĠØ±ÙĪØ¨Ø§ÙĨ": 2847,
      "Ø§ÙħØ¯": 2848,
      "ĠØ®ÙĪØ¨Ùĩ": 2849,
      "ĠØ²Ø±Ø§ÙģÙĩ": 2850,
      "ĠØ¨Ø²ÙĨÙĩ": 2851,
      "ĠØ¨Ø±Ø§ÛĮØ´Ø§ÙĨ": 2852,
      "ĠÚ¯Ø°Ø±Ø§ÙĨØ¯": 2853,
      "ĠÙ¾Ø±Ø³ÛĮØ¯ÙĨØ¯": 2854,
      "Â».": 2855,
      "Ø§Ø²Ùħ": 2856,
      "ĠØªØ±Ø³ÛĮØ¯ÙĨØ¯": 2857,
      "ĠÙģØ±ÙĪØ¯": 2858,
      "ĠØ§ÙĨØ¨Ø§Ø±": 2859,
      "ĠØ¨Ø®ÙĪØ±Ùħ": 2860,
      "ĠØ¨Ø®ÙĪØ±Ùĩ": 2861,
      "ĠØ¬ÙĪØ§ÙĩØ±": 2862,
      "ĠØ§ÙĨÚ¯Ø§Ø±": 2863,
      "ĠÙħØºØ²": 2864,
      "ĠØŃÙħÙĦ": 2865,
      "ĠÙĨÙĪØ¨Øª": 2866,
      "ĠØºØ±ÛĮØ¨Ùĩ": 2867,
      "ĠØµÙģØŃ": 2868,
      "Ø¯Ø®Øª": 2869,
      "Ø±Ø¨Ùĩ": 2870,
      "ÙĩÛĮ": 2871,
      "Ú©Ø¯Ø§Ùħ": 2872,
      "ĠØ§ÙħØ§ÙĨ": 2873,
      "ĠØ§Ø¨Øª": 2874,
      "ĠÙħØ§Ø³": 2875,
      "ĠØ¢ÛĮÙĨÙĩ": 2876,
      "ĠÙĨÚ©ÙĨØ¯": 2877,
      "Ø®Øµ": 2878,
      "ĠØ´Ú©Ø±": 2879,
      "ĠØ´ÙĪÙĤ": 2880,
      "ĠØ±ÙĪÙĨØ¯": 2881,
      "ĠÙĩØ±Ø¯": 2882,
      "ĠÚĨÙĩØ§Ø±": 2883,
      "Ù¾Ø°ÛĮØ±": 2884,
      "ĠÙĦØ§ÛĮ": 2885,
      "ĠÚ©Ø§Ø±Ø´": 2886,
      "ĠØ¨ÙĦÙĪØ·": 2887,
      "ĠÙħÙĪØ²Ùĩ": 2888,
      "ĠØ¨Ø¨Ø±ÙĨØ¯": 2889,
      "ĠØ¨Ø§ÙĦØ´": 2890,
      "ĠØ¨ÛĮØ§ÙĪØ±": 2891,
      "ĠØ²ÛĮØ±Ø§": 2892,
      "ĠÚ©ÙĨØ§Ø±Ø´": 2893,
      "ĠØ³ÙħÙĪØ±": 2894,
      "ĠÚ©ØªØ§Ø¨Ø®Ø§ÙĨÙĩ": 2895,
      "ĠÚĨØ·ÙĪØ±ÛĮ": 2896,
      "ĠØ³Ø±Ø´Ø§ÙĨ": 2897,
      "ĠØ¨Ø¯ÙĩÙĨØ¯": 2898,
      "ĠØ´ÙĨØ§ÙĪØ±": 2899,
      "ĠÙĤÙĦØ¨": 2900,
      "ĠØ¸Ø±ÛĮÙģ": 2901,
      "ĠØ±ÙĤØµÛĮØ¯ÙĨØ¯": 2902,
      "ÚĨÛĮÙĨØ¯": 2903,
      "ĠÙĤØ´ÙĨÚ¯Ùĩ": 2904,
      "ĠÚ¯ÛĮØªØ§Ø±": 2905,
      "ĠØ¢ÙħÙĪØ®ØªÙĨØ¯": 2906,
      "Ø§ÙĨÚ¯ÛĮØ²ÛĮ": 2907,
      "ĠØ¨Ø³Ø§Ø²ÛĮÙħ": 2908,
      "Ø±ÙĤØµÛĮØ¯": 2909,
      "ĠØ³ÙĤÙģ": 2910,
      "ĠÛĮÙĪÚ¯": 2911,
      "ĠÙ¾ÛĮØ§ÙĨÙĪ": 2912,
      "ĠÙĤØ§Ø¨ÙĦ": 2913,
      "ĠÙ¾Ø±ÚĨÙħ": 2914,
      "ĠØ§Ø¨ØªØ¯Ø§": 2915,
      "Ø³Ø§ÙĨØ¯": 2916,
      "ĠÚ©ÙĦÛĮØ³": 2917,
      "ĠØ±ÚĺÙĩ": 2918,
      "ĠÙĪØ§ÙĨÙħ": 2919,
      "ĠÙħÛĮÙĪ": 2920,
      "ĠØ³Ø³": 2921,
      "ĠÙĩØ´Ø¯": 2922,
      "ĠØ¯Ø±ÙħÛĮ": 2923,
      "ĠØ¯Ø±Ø³ÛĮ": 2924,
      "ĠØ¯Ø±Ø®ÙĪØ§Ø³Øª": 2925,
      "Ø¹Ø·": 2926,
      "ĠÙĩÙħØ²ÙħØ§ÙĨ": 2927,
      "ĠØ¯ÙĪØ³ØªØ§ÛĮ": 2928,
      "ĠØ¬Ø°": 2929,
      "ĠÚĨÛĮØ¯": 2930,
      "ĠØªÙĪØ´": 2931,
      "ĠÙģÚ©": 2932,
      "ĠØ¹Ø¨": 2933,
      "ØµÙĩ": 2934,
      "ĠØªÙĪÙ¾ÛĮ": 2935,
      "ĠØ¯ÙĪØ³ØªØ§ÙĨÛĮ": 2936,
      "ĠØ¨Ø±Ú¯Ø²Ø§Ø±": 2937,
      "ĠÙħØ±ÛĮÙħ": 2938,
      "ĠØ´ÙĨÛĮ": 2939,
      "ĠÙĨÛĮØ§ÙħØ¯": 2940,
      "ĠÙħØ«ÙĦØ«": 2941,
      "ĠÙĪÛĮÙĪÙĦ": 2942,
      "ĠÙĤØ·Ø¹Ùĩ": 2943,
      "ĠÙĨØ¨Ø§Ø´Ø¯": 2944,
      "Ú¯Ø±Ø¯Ø¯": 2945,
      "ÚĨÛĮØ²": 2946,
      "ĠÙħØ§Ø¯Ø±Ø¨Ø²Ø±Ú¯Ø´": 2947,
      "ĠØ§ÛĮØ³ØªØ§Ø¯Ùĩ": 2948,
      "ĠØ§Ø±Ø²Ø´": 2949,
      "ĠØ¬ÙĪÛĮØ¨Ø§Ø±": 2950,
      "ĠÚ©ÙĦÙħØ§Øª": 2951,
      "!âĢĿ": 2952,
      "Ø§Ø·Ø±": 2953,
      "Ø³Ø§ÙĨ": 2954,
      "ĠÚ©Øª": 2955,
      "ĠÚ©ÙĪØ¯": 2956,
      "ĠÚ©Ø¨Ø±ÛĮØª": 2957,
      "Ø¨Ø±Ú¯": 2958,
      "Ø¨ÙĪØª": 2959,
      "ĠØ®Ø´ÙĨ": 2960,
      "Ø®ÙĪÙĨÙĩ": 2961,
      "ĠÚ¯ÙĪØ³": 2962,
      "ÚĨØ§ÙĦ": 2963,
      "ĠØ¯ÙĪÙĨØ¯": 2964,
      "ĠÙĩÙħÚ¯ÛĮ": 2965,
      "Ø§ÙĦØª": 2966,
      "ĠØ¬ÛĮÙĦ": 2967,
      "ĠØªÙĪØ¬Ùĩ": 2968,
      "ĠÚ©ÙħØ¯": 2969,
      "Ø´Ø§ÙĨØ³": 2970,
      "ĠØ¨ÙĨÙĪØ´": 2971,
      "Ø¸ÛĮÙħ": 2972,
      "ĠØªÙħÙĪÙħ": 2973,
      "Ø¢ÙĪØ±": 2974,
      "ĠØ¨Ø§Ø±ÛĮØ¯ÙĨ": 2975,
      "ĠØªÙĨÙĤÙĦ": 2976,
      "ĠÙĩÛĮÚĨÙĪÙĤØª": 2977,
      "ĠÙĪØŃØ´": 2978,
      "ĠÛĮØ®ÚĨØ§ÙĦ": 2979,
      "ĠØ¶Ø±Ø¨Ùĩ": 2980,
      "ĠÙ¾Ø´ØªÛĮ": 2981,
      "ĠØ¨ÙĪØ³ÛĮØ¯": 2982,
      "ĠÙħØªØ¹Ø¬Ø¨": 2983,
      "ÙĨÚ©Ø¨ÙĪØª": 2984,
      "ĠÙ¾Ø´ÛĮÙħØ§ÙĨÛĮ": 2985,
      "ĠÚĨØ´ÙħØ§ÙĨØ´": 2986,
      "ĠØ³Ù¾Ø§Ø³Ú¯Ø²Ø§Ø±": 2987,
      "ĠØ¬ÙĪØ±Ø§Ø¨": 2988,
      "ĠØªØ²Ø¦ÛĮÙĨ": 2989,
      "ĠÙĪØ§ÙĨÙħÙĪØ¯": 2990,
      "ĠØ¬Ø°Ø§Ø¨": 2991,
      "ĠÚ¯ÙĪØ³ÙģÙĨØ¯": 2992,
      "ĠØªÙĨÙĤÙĦØ§Øª": 2993,
      "an": 2994,
      "at": 2995,
      "lat": 2996,
      "ran": 2997,
      "slat": 2998,
      "Ø¯ÙĪØ§Ø¬": 2999,
      "Ø¯Ø³ØªÛĮ": 3000,
      "ÙħÙĪÙĦ": 3001,
      "ĠØ§Ú¯Ùĩ": 3002,
      "ĠÚ©Ø±Ú¯": 3003,
      "ÙĦÙĨÚ¯": 3004,
      "ĠÙĪØ¹Ø¯Ùĩ": 3005,
      "ĠØªØ§ÙĨ": 3006,
      "ĠØªÛĮÙĨØ§": 3007,
      "ĠØ´Ø³Øª": 3008,
      "ÙĤÚ©": 3009,
      "ĠØ®ÙĪÙĨ": 3010,
      "Ø¹Ø§ÙĦÛĮ": 3011,
      "ĠÙĩÙħÚ©Ø§Ø±ÛĮ": 3012,
      "ĠØ¯ÙĪØ³ØªØ´Ø§ÙĨ": 3013,
      "ĠØ§Ø²Ø¯ÙĪØ§Ø¬": 3014,
      "ĠØ´Ø¯ÛĮ": 3015,
      "ĠÚĨØ±Øª": 3016,
      "ĠØ®ÛĮØ±Ùĩ": 3017,
      "ĠØ¨Ø²ÙĨÛĮ": 3018,
      "ĠÙĤÛĮ": 3019,
      "ĠØªØ§ÛĮÙĨÛĮ": 3020,
      "ĠØ³ÙĪØ§ÙĦ": 3021,
      "ĠØ²ÛĮÙ¾": 3022,
      "ĠØ¨ÙĨØ§Ùħ": 3023,
      "ĠÙħØ§ÙĦÛĮ": 3024,
      "ĠØ¨Ø¯ÙĪÙĨØ¯": 3025,
      "ĠÙħØ±Ø¯Ø§Ø¨": 3026,
      "Ø¢Ø®": 3027,
      "Ø¯Ø±Ø®Ø´ÛĮØ¯": 3028,
      "ĠÙħÙĪØ¶": 3029,
      "ĠØ·Ø¹Ùħ": 3030,
      "ĠØ¬Ø¯ÛĮØ¯Ø´Ø§ÙĨ": 3031,
      "Ø®ÙĪØ§ÙĩÛĮÙħ": 3032,
      "ĠÙħØ§ÙĩÛĮÚ¯ÛĮØ±": 3033,
      "ĠÙģØ±ÙĨÚ¯ÛĮ": 3034,
      "ĠØ¯ÙĨØ¨Ø§ÙĦØ´": 3035,
      "ĠØ¨Ø¨ÛĮÙĨÙĩ": 3036,
      "ĠÚĨÙĪØ¨Ø¯Ø³ØªÛĮ": 3037,
      "Ú¯Ø°Ø§Ø±ÛĮ": 3038,
      "ĠÙħÙĪØ´Ú©": 3039,
      "ÚĨØ±Ø®ÛĮØ¯": 3040,
      "Ù¾Ø±ÛĮØ¯ÙĨØ¯": 3041,
      "ĠÙģØ±ÙĪØ´ÙĨØ¯Ùĩ": 3042,
      "ĠØ§ÙĦÚ©Ø³": 3043,
      "ĠØªÙĤØ±ÛĮ": 3044,
      "ĠØ¢Ø±Ø²ÙĪÛĮ": 3045,
      "ĠØ¯Ø¹Ø§": 3046,
      "ĠÚ¯ÛĮØ±ÙĨØ¯": 3047,
      "ĠØ§ÙħÛĮØ¯ÙĪØ§Ø±Ùħ": 3048,
      "ĠØ¯ÙĦÙĤÚ©": 3049,
      "Ø¬Ø±Ø¨Ùĩ": 3050,
      "ĠÙĤØ·Ø¹Ø§Øª": 3051,
      "ĠØ§ØŃØªÛĮØ§Ø·": 3052,
      "ĠÙĩÙĪØ´ÙħÙĨØ¯": 3053,
      "ĠØ³Ø¨Ø²ÛĮØ¬Ø§Øª": 3054,
      "ranslat": 3055,
      "ĠÙħÙĪØ¶ÙĪØ¹": 3056,
      ".âĢĮ": 3057,
      "He": 3058,
      "he": 3059,
      "re": 3060,
      "ÙĪÙĪÚ©": 3061,
      "ÙĨØªØ±Ø³": 3062,
      "Ø³ÛĮÙĨ": 3063,
      "ĠØ§Ø±Ø§": 3064,
      "ĠÙħØ¤": 3065,
      "ĠÚ©Ø±Ùĩ": 3066,
      "ĠØ±Ø²": 3067,
      "ĠØªÙĨØ¨": 3068,
      "ĠØ¨Ø§ÙĨØ¯": 3069,
      "ÙģÚ©Ø±": 3070,
      "ĠØ¨ÙĩØª": 3071,
      "ÛĮÚ©ÛĮ": 3072,
      "ĠØ´ÙħØ±Ø¯": 3073,
      "ĠØ´Ø®Øµ": 3074,
      "Ø²ÛĮÙĨ": 3075,
      "Ø¹Ø¨": 3076,
      "ĠØ¨Ø±ÙĨØ§ÙħÙĩ": 3077,
      "ĠÙ¾Ø±Ø´": 3078,
      "ĠØŃÙĤ": 3079,
      "Ø·Ø³Ùĩ": 3080,
      "Ø±Ø´Ø§ÙĨ": 3081,
      "ĠØ¹Ø·Ø³Ùĩ": 3082,
      "ØºØ±": 3083,
      "ĠÙħÙĨØ¸Ø±Ùĩ": 3084,
      "ĠÙ¾ÛĮØ¯Ø§Ø´": 3085,
      "ĠØ¯Ø§Ø¯ÛĮ": 3086,
      "ĠØ³ÙĪØ³": 3087,
      "Ø§Ø³Ø¯": 3088,
      "ĠØ·ÙĦÙĪ": 3089,
      "ĠÙħØ±Ú©": 3090,
      "ĠÙ¾Ø³Ø±Ú©": 3091,
      "ĠØ¨ÙĦÙĨØ¯ØªØ±": 3092,
      "ĠØ¨Ø§ÙĦØ§Ø®Ø±Ùĩ": 3093,
      "ĠØ¨ÛĮÙģØª": 3094,
      "ĠØ¨ÛĮØ§ÛĮÙĨØ¯": 3095,
      "ĠÚ¯ÙĦØ§Ø¨ÛĮ": 3096,
      "ĠØ§ØªØ§ÙĤØ´Ø§ÙĨ": 3097,
      "ĠØ®ÙĪØ±Ø¯Ùĩ": 3098,
      "ĠÙ¾ÛĮÙ¾": 3099,
      "ĠÙ¾Ø¯Ø±Ø´Ø§ÙĨ": 3100,
      "ĠØªÙĪØ§ÙĨÙĨØ¯": 3101,
      "ĠØ¬Ø§ÙĦØ¨Ùĩ": 3102,
      "ĠØ§ÙĨØ¹Ø·": 3103,
      "Ú©Ø´ÛĮØ¯": 3104,
      "ĠØ§ÙĨÚ¯ÛĮ": 3105,
      "ĠØ±ÛĮØ®ØªÚ¯ÛĮ": 3106,
      "ĠØºØ§ÙģÙĦÚ¯ÛĮØ±": 3107,
      "ĠØ¹Ø²ÛĮØ²": 3108,
      "ĠØ§Ø±Ø²Ø§ÙĨ": 3109,
      "ĠØµØ§ØŃØ¨Ø´": 3110,
      "Ġtranslat": 3111,
      "Ġthe": 3112,
      "ĠÙĪØ§ÙĦØ¯ÛĮÙĨØ´": 3113,
      "ĠÚ¯Ø°Ø±ÙĪÙĨØ¯ÙĨ": 3114,
      "Ġis": 3115,
      "ĠØ¨Ø¯Ø§Ø®ÙĦØ§ÙĤ": 3116,
      "ĠÙĩØ´Ø¯Ø§Ø±": 3117,
      "ĠÚ©Ø±Ú¯Ø¯ÙĨ": 3118,
      "ĠØªÙĤØ±ÛĮØ¨Ø§": 3119,
      "Here": 3120,
      "ĠØ§Ø±Ø§Ø¦Ùĩ": 3121,
      "ĠØ·ÙĦÙĪØ¹": 3122,
      "ĠØ§ÙĨØ¹Ø·Ø§Ùģ": 3123,
      "io": 3124,
      "ÙħÙħ": 3125,
      "ĠØ¨ØªÙĪØ§ÙĨÙħ": 3126,
      "ĠØ§ÙģØ±": 3127,
      "ĠØ¯ÙĦØª": 3128,
      "ĠØ±Ø¤": 3129,
      "Ø¨Ø®Ø´": 3130,
      "ĠÙĪØ§ÙģÙĦ": 3131,
      "ĠØªØ´Ú©": 3132,
      "ĠÙħÛĮÚ©Ø³": 3133,
      "ĠÙħÛĮÙĦÙĩ": 3134,
      "ĠØ®ÙĦØ§": 3135,
      "ĠØ¢ÙĪÙĪÚ©": 3136,
      "ĠÙ¾Ùĩ": 3137,
      "ĠØ±Ø§Ø¯ÛĮ": 3138,
      "ĠÚ¯ÙĨØ¯": 3139,
      "ĠÚ¯ÙĪÛĮÙĨØ¯": 3140,
      "ÙĦÛĮÙħ": 3141,
      "ĠØ¯Ø±Ø¢ÙħØ¯": 3142,
      "Ø²ÛĮØ±Ùĩ": 3143,
      "ĠØ®ÙĪØ±ÛĮ": 3144,
      "ĠØ¬ÛĮÙħ": 3145,
      "ĠØ¬Ø²ÛĮØ±Ùĩ": 3146,
      "ĠØ¨Ø±ÙĪÙħ": 3147,
      "ĠØ¨Ø±ÙĪÚ©": 3148,
      "Ø§Ø¨ÙĪÙĨ": 3149,
      "ĠÙĦÙĪÙĨØ§": 3150,
      "ĠØ§Ø³ØªÛĮÚ©": 3151,
      "ĠØµØ§Ø¯": 3152,
      "ØµÙĦÙĩ": 3153,
      "ĠÙħØ§Ø³Øª": 3154,
      "ĠÙħØªØŃ": 3155,
      "ĠÙ¾Ø³Ø±Ú©ÛĮ": 3156,
      "ĠØ²ÙħÛĮÙĨÛĮ": 3157,
      "ĠØ®Ø§ÙĨÚ¯ÛĮ": 3158,
      "Ø§ÛĮÙĨØ¬Ø§": 3159,
      "ĠØ¨Ú¯Ø°Ø±Ø§ÙĨÙĨØ¯": 3160,
      "ĠÙħÙĪØ§Ø¸Ø¨": 3161,
      "Ø®ÙĪØ±Ø¯ÙĨØ¯": 3162,
      "ĠØ±ÙĪØ³ØªØ§ÛĮ": 3163,
      "ĠØ¯ÙĤÛĮÙĤÙĩ": 3164,
      "ĠÙħØ³ØªÙĤÙĦ": 3165,
      "ĠØ¨Ù¾ÙĪØ´Ø¯": 3166,
      "ĠØ¨Ø±ÙĤØµØ¯": 3167,
      "ĠÙħØ¶ØŃ": 3168,
      "ĠÙ¾ÛĮØªØ²Ø§": 3169,
      "ĠØ¯ÙĤÛĮÙĤØ§": 3170,
      "ÙħØªØ£Ø³ÙģÙħ": 3171,
      "ĠÚĨÚ©ÙħÙĩ": 3172,
      "ĠÙĪÛĮÙĪÙĦÙĨ": 3173,
      "ĠÙĤÛĮÚĨÛĮ": 3174,
      "Ġtranslatio": 3175,
      "ĠØ¨Ø±ÙĪÚ©ÙĦÛĮ": 3176,
      "Ġtranslation": 3177,
      "Ø§Ù¾": 3178,
      "ÛĮØ³Øª": 3179,
      "ÙĪØ¹Ø¯Ùĩ": 3180,
      "ÙĨÙĪ": 3181,
      "ÙĨÙĪÛĮ": 3182,
      "ĠØ¨ÚĨÛĮÙĨØ¯": 3183,
      "Ø³Ø±ÛĮ": 3184,
      "ĠÚ©Ø±": 3185,
      "ĠÚ©Ø¯ÙĪ": 3186,
      "ĠØ¯Ø§Ùħ": 3187,
      "ĠØ±Ø®Øª": 3188,
      "Ø¨Ø±ÙĪ": 3189,
      "ÙģØ±ÙĪ": 3190,
      "ĠÙ¾ÙĪØ¯": 3191,
      "ĠÙĨØ¹": 3192,
      "ĠÙĨØ§Ø¯Ø±": 3193,
      "ĠØ´ÙĦÛĮ": 3194,
      "ĠØ´ØºÙĦ": 3195,
      "ĠØ´ÙĦÙĪ": 3196,
      "Ø§Ø±ÚĨ": 3197,
      "Ø¹Ø¸Ùĩ": 3198,
      "ĠØ²ÙĪÙħ": 3199,
      "ĠØ±ÙĪØ²ÙĩØ§ÛĮ": 3200,
      "ĠÚ¯Ø±ÙħØ§": 3201,
      "ĠÙģÙĨØ¬": 3202,
      "ĠÚ©ÙĪØ³Ùĩ": 3203,
      "ĠØ¹ÙħÙĩ": 3204,
      "ĠØ¹ÙĦØ§Ùħ": 3205,
      "ĠÙħÙĨÙĤ": 3206,
      "ĠØ³ÙĪØ²Ø§ÙĨ": 3207,
      "ĠÙĨÚ¯Ø§ÙĩÛĮ": 3208,
      "ĠØ¯Ø³ØªØ¨ÙĨØ¯": 3209,
      "ĠØ¯Ø³ØªÙħØ§ÙĦ": 3210,
      "ĠØµØ¯ÙħÙĩ": 3211,
      "ĠÙħÙĪØ¹Ø¸Ùĩ": 3212,
      "ĠÚ©Ø´ÛĮØ¯Ùĩ": 3213,
      "ĠÙĩØ§ÛĮÛĮ": 3214,
      "ĠØ¢Ø³ÙħÙĪÙĨ": 3215,
      "Ú¯Ø°Ø§Ø´Øª": 3216,
      "ĠÚĨØ±Ø®Ø§ÙĨØ¯": 3217,
      "ĠØ¨Ø´Ú©ÙĨØ¯": 3218,
      "ĠÙ¾Ø§Ù¾ÛĮ": 3219,
      "ĠØ¶Ø¹ÛĮ": 3220,
      "Ø¯ÙĪÙĨÙħ": 3221,
      "ĠÙĤÙĩØ±ÙħØ§ÙĨ": 3222,
      "ĠÙħØªØ§Ø³ÙģÙħ": 3223,
      "ĠÙħÚ©Ø¹Ø¨": 3224,
      "ĠØ¢ÙĪÛĮØ²": 3225,
      "ÙħØ±Øº": 3226,
      "ĠØ¨Ø¨ÙĨØ¯Ø¯": 3227,
      "ĠÙħÙĨØ§Ø³Ø¨": 3228,
      "ĠÙĪØ±Ø²Ø´": 3229,
      "ĠÛĮÙĪÚ¯Ø§": 3230,
      "ĠÚ©ÙĦÛĮØ³Ø§": 3231,
      "ĠÙħØ¤Ø¯Ø¨": 3232,
      "ĠØ¢ÙĪÙĪÚ©Ø§Ø¯ÙĪ": 3233,
      "ĠÙ¾ÙĪØ¯Ø±": 3234,
      "ÙĨØ´Ø§ÙĨ": 3235,
      "Ø³ÛĮÚ©": 3236,
      "Ø³ÙĪØ±": 3237,
      "ĠØªØ±ÙĪ": 3238,
      "Ø³ØªØ§Ø±": 3239,
      "ĠØ¢ÙĦÙĪØ¯": 3240,
      "ÙģÙĤÛĮ": 3241,
      "ĠÙĨÙĪ": 3242,
      "ĠÙĨØªÙĪÙĨØ³Øª": 3243,
      "ĠØ´Ùĩ": 3244,
      "ĠØ´Ø§ÙĦ": 3245,
      "ĠØ´ÙĪÛĮ": 3246,
      "Ø§Ø±ÛĮÙħ": 3247,
      "ĠÙĩÙģØªÙĩ": 3248,
      "ĠÛĮÚ©Ø¨Ø§Ø±": 3249,
      "ĠØ¬ÙĦ": 3250,
      "ĠØ¬ÙģØª": 3251,
      "ĠÚĨÙĪ": 3252,
      "ĠÙ¾Ø±Ø§Ú©": 3253,
      "ĠÙ¾Ø±Ø³ØªØ§Ø±": 3254,
      "Ù¾Ø²ÛĮ": 3255,
      "ÙĪÙĨÛĮ": 3256,
      "ĠÙģØ§Ø³Ø¯": 3257,
      "ĠÙĤØ§Ø±ÚĨ": 3258,
      "ĠØ¹ÙĨÚ©Ø¨ÙĪØª": 3259,
      "ĠØµØ§Ø¨ÙĪÙĨ": 3260,
      "ØµÙĦ": 3261,
      "ĠØ¨ÙĨØ²ÛĮÙĨ": 3262,
      "Ø®ÙĨØ¯ÙĨØ¯": 3263,
      "ĠÙħÙĩÙħÛĮ": 3264,
      "ĠØ¯Ø³ØªÙĩ": 3265,
      "Ø¢Ùħ": 3266,
      "ĠØ®ÙĪØ§ÙĨØ¯ÙĨØ¯": 3267,
      "ĠØ·Ø±": 3268,
      "ĠØ·Ø¨ÙĦ": 3269,
      "ĠØ¨Ø®Ø±ÙĨØ¯": 3270,
      "ĠØ¨Ø±Ø¯Ø§Ø´ØªÙĨ": 3271,
      "Ø·ÙĪØ±ÛĮ": 3272,
      "ĠØ¹ØµØ§": 3273,
      "ĠØ¨Ú¯ÛĮØ±ÛĮØ¯": 3274,
      "ĠØ®ÙĪØ§Ø¨Ø´": 3275,
      "ĠØ¢ÙĪØ±Ø¯ÙĨØ¯": 3276,
      "ĠØ¨Ø®ÙĪØ±ÛĮ": 3277,
      "Ú©ÙħÚ©": 3278,
      "ĠÚ¯ÙħØ´Ø¯Ùĩ": 3279,
      "ĠØ¢Ø³ÛĮØ§Ø¨": 3280,
      "ĠÙĨØ´Ø¯Ùĩ": 3281,
      "ĠÙ¾Ø±ØªÙĤ": 3282,
      "ĠØ§ØµØ±Ø§Ø±": 3283,
      "Ø¨Ø¨ÛĮÙĨ": 3284,
      "Ø®ÙĪØ±ÙĨØ¯": 3285,
      "ĠØ®Ø¬Ø§ÙĦØª": 3286,
      "ĠØŃØ³Ø§Ø¯Øª": 3287,
      "ĠØ²Ø§ÙĨÙĪÛĮØ´": 3288,
      "ĠØ¢ÙĪÛĮØ²Ø§ÙĨ": 3289,
      "ĠÚ¯ÛĮØ§ÙĩØ§ÙĨ": 3290,
      "ĠÚ©Ø§Ú©Ø§": 3291,
      "ĠØŃØ¯Ø³": 3292,
      "ĠÙĦØ±Ø²ÛĮØ¯ÙĨ": 3293,
      "ÙĨØª": 3294,
      "ÙħÚ©Ø³": 3295,
      "ĠØ¨Ø´Ùħ": 3296,
      "ĠØ¨ÙģÙĩ": 3297,
      "ĠÚ©ÚĨ": 3298,
      "ĠØ¯ÙĦÛĮ": 3299,
      "Ú¯ÙĪÙĨÙĩ": 3300,
      "ĠØªØ³": 3301,
      "ĠØªÙĨÚ¯": 3302,
      "ĠØªØ¬Ø±Ø¨Ùĩ": 3303,
      "ĠØ¨Ø§ÙĩØ§": 3304,
      "Ø§ÙĨØ´Ø§ÙĨ": 3305,
      "ÙģØ´Ø§ÙĨ": 3306,
      "ĠÙ¾ÛĮÚ©": 3307,
      "ĠÙĨÛĮØ±": 3308,
      "Ø®Ø¯Ø§ØŃØ§ÙģØ¸": 3309,
      "ĠÚ¯Ùĩ": 3310,
      "ĠØ´ÙĪØ±": 3311,
      "ĠØ±ÙĪØ³Ø±ÛĮ": 3312,
      "ÛĮÙĨÙħ": 3313,
      "ØŃØ§ÙĦÛĮ": 3314,
      "ĠØ²Ø¨": 3315,
      "ĠÙ¾Ø±Ø³Ø¯": 3316,
      "ĠØŃØ§": 3317,
      "ĠÙĦÙĪÙĦ": 3318,
      "ĠÙĤÛĮÙħ": 3319,
      "ĠÙĤØ±Ø¶": 3320,
      "Ø±ÙĪØµ": 3321,
      "ÙĪÛĮÙĦ": 3322,
      "ĠØ¯ÛĮÙĪØ§ÙĨÙĩ": 3323,
      "ĠØ¨Ø¯ÛĮÙħ": 3324,
      "Ø¢Ø¨": 3325,
      "Ø¢ÙĨØ§": 3326,
      "ĠÙħØªØ£Ø³Ùģ": 3327,
      "ĠØ¨Ø§Ø²Ú¯Ø´Øª": 3328,
      "ĠÙĦÙĪØ¨ÛĮØ§": 3329,
      "ĠØ¨Ø®Ø§Ø·Ø±": 3330,
      "ĠÙĨØ¯ÛĮØ¯ÙĨØ¯": 3331,
      "ĠØ¯ÙĩÛĮØ¯": 3332,
      "ĠØªÙĦØ®": 3333,
      "ĠØ¨Ø§Ø¯Ú©ÙĨ": 3334,
      "Ú¯Ø°Ø§Ø±Ø¯": 3335,
      "Ú¯Ø°Ø±Ø§ÙĨÙĨØ¯": 3336,
      "ÙħÙĪÙĨÛĮ": 3337,
      "ĠØ¨Ø¯ÙĩÛĮÙħ": 3338,
      "ĠØ§Ú¯Ø±ÚĨÙĩ": 3339,
      "ĠØ¢ØªØ´ÙģØ´Ø§ÙĨ": 3340,
      "ĠØ´Ø¬Ø§Ø¹Øª": 3341,
      "ĠØªÙħØ§Ø´Ø§ÛĮ": 3342,
      "ØªÙĪØ³": 3343,
      "ĠÙ¾Ø§ÙĩØ§ÛĮØ´": 3344,
      "ĠÚ©Ø§ØºØ°ÛĮ": 3345,
      "ĠØ§Ø¨Ø±ÙĩØ§": 3346,
      "ĠØ¨Ø²ÙĨÙħ": 3347,
      "ĠØ¹ÙħÙĪÛĮØ´": 3348,
      "ĠÙĩÛĮÙĪÙĦØ§ÛĮ": 3349,
      "ĠØ¹ÙħÛĮÙĤÛĮ": 3350,
      "ĠØºÙĦØªÛĮØ¯": 3351,
      "ĠÙħÙĪØªÙĪØ±Ø³ÛĮÚ©": 3352,
      "ĠØ¯ÙĪØ¯Ú©Ø´": 3353,
      "ĠØ¨Ø´ÙĨÙĪØ¯": 3354,
      "ĠÙĦØºØ²ÛĮØ¯": 3355,
      "ĠÚ©Ø§Ú©ØªÙĪØ³": 3356,
      "ĠØ¨ÙĨÙĪÛĮØ³Ø¯": 3357,
      "ĠØ¨Ù¾ÛĮÙĪÙĨØ¯": 3358,
      "ĠØ¹Ø¨ÙĪØ±": 3359,
      "ĠØ¯ÙĦØªÙĨÚ¯": 3360,
      "ĠØ®ÙĦØ§ØµÙĩ": 3361,
      "Fa": 3362,
      "rs": 3363,
      "ĠFa": 3364,
      "ÛĮÙĨØ¯": 3365,
      "ÙĪÙĦÛĮ": 3366,
      "Ø±ÙĨÚ¯": 3367,
      "ÙħØ§ÙĨÙĩ": 3368,
      "ĠØ¨ØªÙĪØ§ÙĨÙĨØ¯": 3369,
      "ĠÙĪØ±": 3370,
      "ĠØªÙĩ": 3371,
      "ĠØªØŃØª": 3372,
      "ĠØ¨Ø§ØŃØ§ÙĦ": 3373,
      "ĠÙħÛĮÚ©Ø±Ø¯ÙĨØ¯": 3374,
      "ÛĮØ¯ÛĮ": 3375,
      "ĠØ±Ø§Ú©Øª": 3376,
      "ĠÙĨÛĮØ§": 3377,
      "ĠÙĨØªØ±Ø³ÛĮØ¯": 3378,
      "ĠØ³ÛĮÙĨÛĮ": 3379,
      "ĠÙĩØ±ÛĮ": 3380,
      "ØŃØ«": 3381,
      "ĠØ²ÙĨØ¯Ùĩ": 3382,
      "ĠØ¬Ø§ÙĨÛĮ": 3383,
      "ĠØ¯Ø§Ø´ØªÙĨÛĮ": 3384,
      "Ù¾ÙĦÙĨÚ¯": 3385,
      "ĠØ¨Ø²ÙĪØ¯ÛĮ": 3386,
      "ĠÙĦØ§Ø²Ùħ": 3387,
      "ĠÙģÙĦØ§": 3388,
      "Ú©Ø±Ø¯Ùħ": 3389,
      "ĠÛĮÙĪØ²": 3390,
      "ĠØ¹Ø§Ø¯ÙĦ": 3391,
      "ĠØ¯Ø§ÙĦÛĮ": 3392,
      "ĠØ¯Ø§Ø³ØªØ§ÙĨÛĮ": 3393,
      "ĠØ¨Ø¹Ø¯Ø´": 3394,
      "ĠÙħØ§ÙĨØ¯Ùĩ": 3395,
      "ĠÙħØ§Ø¬Ø±": 3396,
      "ĠØ¯Ø§Ø±ÙĨ": 3397,
      "ĠØ¨Ø¯Ùħ": 3398,
      "ĠÙħÙĪØ¬": 3399,
      "ĠÙħÙĪÙģÙĤÛĮ": 3400,
      "ĠØ·Ø¨ÛĮ": 3401,
      "ĠØ·ÙĦØ§": 3402,
      "ĠØ¨Ø®Ø±ÛĮÙħ": 3403,
      "ĠØ®Ø±ÛĮØ¯ÙĨØ¯": 3404,
      "ĠØ®ÙĪØ§ÙĩÛĮÙħ": 3405,
      "ĠØ®ÙĪØ§ÙĩØ±Ø´": 3406,
      "ĠØ¬ÙĨÚ¯ÙĦÛĮ": 3407,
      "Ø¨Ø±Øª": 3408,
      "ĠÙħØ³Ø§Ùģ": 3409,
      "ĠØªÙĪØ§ÙĨÛĮØ¯": 3410,
      "ĠØ³Ø®ØªÛĮ": 3411,
      "Ú©Ø´ÛĮØ¯ÙĨØ¯": 3412,
      "ĠØ¢Ø´Ù¾Ø²ÛĮ": 3413,
      "ĠØ¯Ø§ÙĨØ³ØªÙĨØ¯": 3414,
      "ĠÙħØ§Ø±ÙħÙĪÙĦ": 3415,
      "ÙĪØ·ÛĮ": 3416,
      "ĠØ¬Ø³ØªØ¬ÙĪÛĮ": 3417,
      "ĠÙħØ¬ÙĦÙĩ": 3418,
      "ĠØ¨Ú¯Ø°Ø§Ø±ÛĮÙħ": 3419,
      "ĠØ§Ø´Ú©Ø§ÙĦ": 3420,
      "ĠØªØŃØ³ÛĮÙĨ": 3421,
      "ĠØ§ÙĪÙĦÛĮÙĨ": 3422,
      "ĠØµÙģØŃÙĩ": 3423,
      "ĠÚ¯ÙĩÙĪØ§Ø±Ùĩ": 3424,
      "rsi": 3425,
      "ĠFarsi": 3426,
      "ĠÛĮÙĪØ²Ù¾ÙĦÙĨÚ¯": 3427,
      "Ø¯Ø§ÙĨØ¯": 3428,
      "Ø±Ø³ÙĨØ¯": 3429,
      "Ø³Ø§Ùħ": 3430,
      "Ø³Ø§Ø®Øª": 3431,
      "Ø´ØªÛĮ": 3432,
      "ĠÚ©Ø±Ùģ": 3433,
      "ĠÚ©Ø³ÙĦ": 3434,
      "ĠØ¯ÙģÙĨ": 3435,
      "Ø²Ø´": 3436,
      "ĠØ±Ø®": 3437,
      "ĠØ±ÛĮÙĦ": 3438,
      "ĠØªØ¹Ø¯Ø§Ø¯": 3439,
      "ĠØ®Ø¨Ø±": 3440,
      "ĠØ¢Ø¬Ø±": 3441,
      "ĠØ¨ÙĩØ´ÙĪÙĨ": 3442,
      "ĠÙĨØ±ÙħÛĮ": 3443,
      "ĠØ´ÙħØ¹": 3444,
      "ÚĨØ·ÙĪØ±": 3445,
      "Ø§ÛĮØ±": 3446,
      "ĠØ¯ÙĪØ³ØªØ§": 3447,
      "ĠØ¬ÙĪÛĮØ¯": 3448,
      "ĠØ¨Ø±Ùħ": 3449,
      "ĠØ¨Ø±ÙĨÚ¯": 3450,
      "ĠÙģÙĨ": 3451,
      "ĠÙģÙĪØ§Ø±Ùĩ": 3452,
      "ĠÛĮÙĤÙĩ": 3453,
      "ĠÙħÙĨÙħ": 3454,
      "ØµØ¨Ø±": 3455,
      "ĠÚ©Ø§Ø±Ø´Ø§ÙĨ": 3456,
      "ĠÚĨÛĮØ²Ø§ÛĮ": 3457,
      "ĠÙħØªÙĪØ§": 3458,
      "ĠØ¨Ø®Ø´ÛĮ": 3459,
      "ĠÚ©Ø´ØªÛĮ": 3460,
      "ĠØ®ÙĪØ§ÙĩØ´": 3461,
      "ĠØ±Ø³ÛĮØ¯Ùĩ": 3462,
      "ĠÚ©ÛĮÙģØ´": 3463,
      "ĠÙ¾ÛĮÙĪ": 3464,
      "Ø¨Ø±ÙĨØ¯": 3465,
      "ĠÙĨÙĤØ±Ùĩ": 3466,
      "ĠÙģÙĤÛĮØ±": 3467,
      "ĠØªÙĪØ§ÙĨØ³ØªÙĨØ¯": 3468,
      "Ø¦ÛĮ": 3469,
      "ÙĪÙħÙĨØ¯": 3470,
      "ĠØ®ÙĪØ§Ø¨ÛĮØ¯": 3471,
      "ĠØ³ÙĨØ¬Ø§ÙĤ": 3472,
      "ĠØ¢ÙĩÙĪÛĮ": 3473,
      "ĠØ¢ÙĩØ³ØªÙĩ": 3474,
      "ĠÙĨÚ©Ø±Ø¯Ùĩ": 3475,
      "ĠÙĤØ¨ÙĪÙĦ": 3476,
      "ĠØ´Ø±ØŃ": 3477,
      "Ø°Ø±Øª": 3478,
      "ĠÚ¯ÛĮØ¬": 3479,
      "ĠØ¢ÙħÙĪØ®ØªÙĩ": 3480,
      "ĠØ´Ø§ÙĨØ³": 3481,
      "ÙĨØ§Ø¹": 3482,
      "ĠØªØ§Ø±ÛĮÚ©ÛĮ": 3483,
      "ĠØ®Ø§Ø±Ø´": 3484,
      "ĠØ´Ú©ÙĦØ§Øª": 3485,
      "ÙĪØµÙĦÙĩ": 3486,
      "ĠØ®Ø§ØµÛĮ": 3487,
      "ĠÚ¯Ø°Ø±ÙĪÙĨØ¯ÙĨØ¯": 3488,
      "ĠØªØŃÙĪÛĮÙĦ": 3489,
      "ĠÙħÙĪØ¯Ø§Ø±": 3490,
      "ĠÚ©ÙĪØ¯Ú©": 3491,
      "ĠØ±Ø§Ø¯ÛĮÙĪ": 3492,
      "ĠÚ¯ÙĨØ¯Ùħ": 3493,
      "ĠØ´ÙĦÛĮÚ©": 3494,
      "ĠØ¶Ø¹ÛĮÙģ": 3495,
      "ĠØªØ³ÙĦÛĮÙħ": 3496,
      "ĠÙħØ§Ø±ÙħÙĪÙĦÚ©": 3497,
      "ÛĮÙĪ": 3498,
      "Ø±Ø§ÙĨÛĮ": 3499,
      "ĠØ¨Ú©": 3500,
      "ĠØ§Ù¾": 3501,
      "ĠØ§Ø¨Ø±ÛĮ": 3502,
      "ĠÙħÚ¯": 3503,
      "ĠÙħØŃØª": 3504,
      "ĠØ¯ÙĦÙģ": 3505,
      "Ú¯ÙĪÙĨ": 3506,
      "ĠÙĪØµÙĦ": 3507,
      "ĠØ±Ø§Ø³Øª": 3508,
      "ĠÙĨØ§Ø´": 3509,
      "ĠØ§ÙĪØ³Øª": 3510,
      "ĠØ´Ú©ÙĨÙĨØ¯Ùĩ": 3511,
      "Ø§Ø¯Ø¨": 3512,
      "Ø§Ø¯Ø§Ø±": 3513,
      "ĠØ¨Ø§Ø²ÛĮÚ¯": 3514,
      "ĠØ¬ÙĪØ¬Ùĩ": 3515,
      "ÙĪØ§Ø¹": 3516,
      "ĠÚĨÛĮØ¯ÙĨ": 3517,
      "ĠÙĦÙĨÚ¯": 3518,
      "ĠÚ©ÙĪÙĦÙĩ": 3519,
      "ÙĪØ±Ø§ÙĨ": 3520,
      "ĠØºØ§Ø²": 3521,
      "ĠÙħØ§Ù¾": 3522,
      "Ø¸Ùħ": 3523,
      "ĠØ¨Ø±Ø¯ÛĮ": 3524,
      "ĠØ¨Ø±Ø¯Ùĩ": 3525,
      "ÙħÙĨÙħ": 3526,
      "ĠØ®ÙĪØ¯Ùħ": 3527,
      "ĠÛĮØ§Ø¯Ø´": 3528,
      "ĠÙħÙĪÙĩØ§ÛĮØ´": 3529,
      "ĠØ¢Ø¨Ú¯ÛĮØ±": 3530,
      "Ø¶Ø¹": 3531,
      "ĠØ®Ø±Ø§Ø´": 3532,
      "ĠØ§ÛĮÚ¯": 3533,
      "ĠÙĨØ¯Ø§Ø±ÙĨØ¯": 3534,
      "ĠØ¨Ø±Ø¯Ø§Ø´ØªÙĩ": 3535,
      "ĠÙĤØ¯ÛĮÙħ": 3536,
      "ĠØªØ´ÙĨÙĩ": 3537,
      "ĠÙħØ¯Ø§Ø¯Ø±": 3538,
      "ĠÚ©ÛĮÚ©ÛĮ": 3539,
      "ĠØ´Ø§Ø¯ÙħØ§ÙĨÙĩ": 3540,
      "ÙģØ§ØµÙĦÙĩ": 3541,
      "ĠØ§ÙĨÙĪØ§Ø¹": 3542,
      "ĠØ§ÙĦØ¨ØªÙĩ": 3543,
      "Ù¾Ø²Ø´Ú©": 3544,
      "ĠÚĨÙĨØ¯ØªØ§": 3545,
      "ĠØ¯Ø§ÙĨØ´": 3546,
      "ĠÚĨØ±Ø®ÛĮØ¯ÙĨ": 3547,
      "ĠÙĨÚ¯Ø±Ø§ÙĨÛĮ": 3548,
      "Ù¾ÛĮÚĨ": 3549,
      "ĠØ¢Ø²ÙħÙĪÙĨ": 3550,
      "ĠØ¨Ø²ÙĨÛĮÙħ": 3551,
      "ĠØ´Ø§ÙĩØ¯Ø®Øª": 3552,
      "ĠÙħØ®ØªÙĦÙģÛĮ": 3553,
      "ĠØ¨ÙĦØ§ÙģØ§ØµÙĦÙĩ": 3554,
      "ĠØ²ÙĪØ¯ØªØ±": 3555,
      "ĠØ´Ø¹Ø±": 3556,
      "ĠØ¢Ø®Ø±ÛĮÙĨ": 3557,
      "ĠØ¨ÙħØ§ÙĨÙĨØ¯": 3558,
      "ĠØ³Ø±Ø²ÙħÛĮÙĨ": 3559,
      "ĠÙĩØ±Ø¯ÙĪ": 3560,
      "ĠØªØ§ÙĨÚ©": 3561,
      "ĠØªÙĨØ¨ÙĦ": 3562,
      "ĠÙħØ±Ú©Ø²": 3563,
      "ĠØµØ§Ø¯ÙĤ": 3564,
      "ĠØ²Ø¨Ø§ÙĦÙĩ": 3565,
      "ĠØ¨Ø§Ø¯Ú©ÙĨÚ©": 3566,
      "ĠÚ©Ø±ÙģØ³": 3567,
      "ĠØ§Ù¾Ø±Ø§": 3568,
      "ĠÙħØ¯Ø§Ø¯Ø±ÙĨÚ¯ÛĮ": 3569,
      "Ø§Ø³Øª": 3570,
      "Ø§Ø¬": 3571,
      "Ø¯Ø¯": 3572,
      "ÙĨØ§ÛĮ": 3573,
      "ĠØ¨ØªÛĮ": 3574,
      "ĠØ¨ÙħÙĪÙĨ": 3575,
      "ĠØ¨Ø°Ø§Ø±": 3576,
      "ĠØ¨ØŃØ«": 3577,
      "ĠØ§Ø®Ùħ": 3578,
      "ĠÚ©Ø§ÙĨ": 3579,
      "ĠÚ©ÙĦØ§": 3580,
      "ĠØªØ®": 3581,
      "ĠØªØ±ÙĪÙħ": 3582,
      "ĠØ¨Ø§Ø±ÛĮ": 3583,
      "ĠØ¨Ø§ÙĤÛĮ": 3584,
      "ĠØ¨Ø§ÛĮØ³Øª": 3585,
      "ĠÙħÛĮÚ¯ÙĪ": 3586,
      "ĠÙĨØ®ÙĪØ§ÙĩØ¯": 3587,
      "ÙĦÛĮÙĤÙĩ": 3588,
      "ĠØ³ÙĪÛĮ": 3589,
      "ĠØ±ÙĪØ´": 3590,
      "ĠÙĩÙĦÙĪ": 3591,
      "ĠØ¯Ø±ÙĪØ§": 3592,
      "ÙĤØ±Ø§Ø±": 3593,
      "ĠØ®ÙĪØ§Ùħ": 3594,
      "ĠØ¯ÙĪØ³ØªØªØ§ÙĨ": 3595,
      "ĠØ´Ø¯Øª": 3596,
      "ĠØ¬Ø¯ÛĮ": 3597,
      "ĠÚĨØ§Ù¾": 3598,
      "Ø§Ø¨Ùĩ": 3599,
      "ĠØ§Ø³Ø§Ø³": 3600,
      "ÙĪØ§ÙĨÛĮ": 3601,
      "ĠØ³ÙĪØ®Øª": 3602,
      "Ø§Ø³ÙĪØ±": 3603,
      "Ø´ØªÙĩ": 3604,
      "ĠÙĨÚ¯ÙģØª": 3605,
      "ĠØ¨Ø¯Ø¨Ø®Øª": 3606,
      "ĠÚ©Ø§Ø±ÙĩØ§": 3607,
      "ĠÛĮØ§Ø¯Ø¢ÙĪØ±ÛĮ": 3608,
      "ĠÙĨÛĮÙģØª": 3609,
      "ĠÙĨØ²Ø¯ÛĮÚ©ÛĮ": 3610,
      "ĠØ²ÛĮØ¨Ø§ØªØ±": 3611,
      "ĠØ²ÛĮØ¨Ø§ØªØ±ÛĮÙĨ": 3612,
      "ĠØºØ°Ø§ÛĮØ´": 3613,
      "ĠØµØ¯Ø§ÛĮØ´": 3614,
      "ĠÙĨØ´ÙĪØ¯": 3615,
      "ĠÙħØ³Ø®Ø±Ùĩ": 3616,
      "ĠØ´Ø§Ø¯ÙħØ§ÙĨÛĮ": 3617,
      "ĠØ¨Ù¾Ø±ÙĨØ¯": 3618,
      "Ø®ÙĪØ§Ø¯": 3619,
      "ĠØ¢ÙĩÙĪ": 3620,
      "ĠØ§ÙħÛĮÙĦÛĮ": 3621,
      "ĠÚĨØ´ÙħÚ©": 3622,
      "ĠØ±ÛĮØ®ØªÙĩ": 3623,
      "Ø¯Ø§Ø´ØªÙĨÛĮ": 3624,
      "ĠÙĪØ³Ø·": 3625,
      "ĠØ§ØµÙĦÛĮ": 3626,
      "ĠÙ¾Ø³ØªÛĮ": 3627,
      "Ø±ÙĤØµÛĮØ¯ÙĨØ¯": 3628,
      "ĠÙħÚ©Ø«": 3629,
      "ĠÙħØ³ØªØ¨Ø¯": 3630,
      "ĠÚĨØ§ÙĤÙĪ": 3631,
      "ĠØªÙģØ±ÛĮ": 3632,
      "ĠÙĨÙĪØ§Ø®ØªÙĨ": 3633,
      "ĠØ¨ÛĮÙħØ§Ø±Ø³ØªØ§ÙĨ": 3634,
      "ĠØ¨ÚĨØ±Ø®Ø¯": 3635,
      "ĠÙ¾ØªÙĪÛĮ": 3636,
      "ĠØ¨Ø±ÙĨØ¯Ø§Ø´Øª": 3637,
      "ĠØ§ÙģØ±Ø§Ø¯": 3638,
      "ĠØ±Ø®ØªØ®ÙĪØ§Ø¨": 3639,
      "ĠØ¹ÙĦØ§ÙħØª": 3640,
      "ĠØ·Ø±ØŃ": 3641,
      "ĠÙħÙĪØªÙĪØ±Ø³ÛĮÚ©ÙĦØª": 3642,
      "ĠÙħØªÙĪØ§Ø¶Ø¹": 3643,
      "ĠØ¯ÙĦÙģÛĮÙĨ": 3644,
      "ĠØªØ±ÙĪÙħÙ¾": 3645,
      "ĠØ¯Ø±ÙĪØ§Ø²Ùĩ": 3646,
      "..": 3647,
      "Ø§ØªÛĮ": 3648,
      "Ø±Ø³": 3649,
      "ĠØ¨Ùħ": 3650,
      "ĠÙħØ´Ùĩ": 3651,
      "ĠÙħÙĦØª": 3652,
      "ĠÙħØ§ÙĩØ±": 3653,
      "ĠÚ©Ø§ÛĮ": 3654,
      "ÙĦØ±Ø²": 3655,
      "ĠÙĪØ§ÙĨ": 3656,
      "ĠØªØ±Ø¨ÚĨÙĩ": 3657,
      "ĠÙħÛĮÚ¯Ùĩ": 3658,
      "ĠØ¢Ø¬": 3659,
      "ĠØ¢Ø¯Ø§Ùħ": 3660,
      "ĠØ¢Ø¯Ùħ": 3661,
      "ĠÙĨÙĪÙĩ": 3662,
      "Ø®Ø§Ø´": 3663,
      "ĠØ³ÛĮÙħ": 3664,
      "ĠÙĩÙĪØ§ÛĮ": 3665,
      "ĠØ¯Ø±Ú©": 3666,
      "ĠØ¯Ø±ØŃØ§ÙĦÛĮ": 3667,
      "ÛĮÙĨØ§Ø³ÙĪØ±": 3668,
      "ĠÚĨÚ©Ø´": 3669,
      "ĠØ¨Ø±Ù¾Ø§": 3670,
      "ĠÙĦØ¨Ùĩ": 3671,
      "Ø·Ø±Ø¨": 3672,
      "Ø·ÛĮÙĦ": 3673,
      "ĠØ¯Ø§ÛĮÙĨØ§Ø³ÙĪØ±": 3674,
      "ĠØ¨Ø¯Ø¨ÙĪ": 3675,
      "ĠÚ¯Ø°Ø±Ø§": 3676,
      "ĠØ³Ø±Ø¨Ø§Ø²": 3677,
      "ĠØ¬Ø¹ÙĦÛĮ": 3678,
      "ĠØ¨Ø§Ø²Ø§Ø±": 3679,
      "Ø´ÙĨÙĪØ¯": 3680,
      "ĠØªØ¹Ø§Ø¯ÙĦ": 3681,
      "ĠØªØ¹Ø·ÛĮÙĦ": 3682,
      "ĠÙĨÛĮØ³ØªÛĮ": 3683,
      "Ø§Ø®ØªÙĩ": 3684,
      "ĠÙħØ¯Ø§Ùħ": 3685,
      "ĠØªÙĨØ¨ÛĮÙĩ": 3686,
      "ĠÙĨÙĤØ§Ø´": 3687,
      "ĠÙħØ³ÙĨ": 3688,
      "ĠØ³Ø¨Ú©": 3689,
      "Ú¯Ø°Ø§Ø±ÙĨØ¯": 3690,
      "ĠØ¨Ø¯ÙĩÙħ": 3691,
      "ĠÙ¾ÙĪØ´Ùĩ": 3692,
      "ĠØ¬ÙĪÙĦÛĮ": 3693,
      "ĠØºØ±ÛĮØ¯": 3694,
      "ĠÚĨØ±Ø®ÛĮØ¯": 3695,
      "ĠÚ¯Ø§ÙĪÙĩØ§": 3696,
      "ĠØ§Ø´ØªØ¨Ø§ÙĩÛĮ": 3697,
      "ĠÙ¾ÛĮÚĨÛĮØ¯": 3698,
      "ĠÙģØ±Ø´ØªÙĩ": 3699,
      "ĠØ²Ø§ÙĨÙĪ": 3700,
      "ĠØ¨Ú¯Ø°Ø§Ø±ÛĮØ¯": 3701,
      "ĠØ¬Ø±ÙĤÙĩ": 3702,
      "ĠØ´Ø¹ÙĦÙĩ": 3703,
      "ĠÙħØ¶Ø·Ø±Ø¨": 3704,
      "ĠØªÙģÙĨÚ¯": 3705,
      "ĠØ³Ø±Ø²ÙĨØ¯Ùĩ": 3706,
      "ĠØ§ÙĨÚ¯ÛĮØ²": 3707,
      "ĠÙħÛĮÚ©Ø³Ø±": 3708,
      "ĠÙħÙĨÙĤØ§Ø±Ø´": 3709,
      "ĠÚ©Ø§Ú©Ø§Ø¦ÙĪ": 3710,
      "ĠØ¯ÙĦÛĮÙĦ": 3711,
      "ĠÙħÚ¯Ø³": 3712,
      "ĠÚ©Ø§ÛĮØ§Ú©": 3713,
      ".âĢĿ": 3714,
      "ĠÛ": 3715,
      "Ø§ÙĪÛĮ": 3716,
      "ÙĨÙħ": 3717,
      "ÙĨÙĪØ´": 3718,
      "ĠØ§Ø¬": 3719,
      "ĠØ§Ø°": 3720,
      "ÙĦØ§Øª": 3721,
      "ĠØ±Ø¹Ø¯": 3722,
      "ĠØ±ÛĮØ´Ùĩ": 3723,
      "Ø¨Ø²": 3724,
      "Ø¨ÙĪØ±Ø¯": 3725,
      "ĠÙĪØ¸": 3726,
      "ĠØªÚ¯": 3727,
      "ĠØªÚ©Ø±": 3728,
      "ĠØ¨Ø§Ùħ": 3729,
      "ĠØ®ÙĨ": 3730,
      "ĠØ±Ø§Ø¬": 3731,
      "ĠØ±Ø§ØŃØª": 3732,
      "ĠÙĨÙģØ±": 3733,
      "ĠØ³ÙĦØ§": 3734,
      "Ø¹ÙĨÛĮ": 3735,
      "Ø¬ÛĮ": 3736,
      "ĠØ±ÙĪØ²ÙĨØ§ÙħÙĩ": 3737,
      "ĠÚĨÙħØ¯": 3738,
      "ĠÚĨÛĮØ¯ÙĨØ¯": 3739,
      "ĠØ¨Ø±Ø§Ø´": 3740,
      "ĠØ¨Ø±ÙĪÛĮ": 3741,
      "ĠØ¨Ø±Ø³ÙĨØ¯": 3742,
      "ĠØ¯Ø§Ø´ØªÙħ": 3743,
      "ĠØ®ÙĪØ´Ùħ": 3744,
      "ĠØŃÙĪØµÙĦÙĩ": 3745,
      "ĠÚ¯Ø±ÙħÛĮ": 3746,
      "ĠØ±ÙĪÛĮØ§": 3747,
      "ĠØ¯Ø§Ú©ÛĮ": 3748,
      "ĠØ¨ÙĨØ´": 3749,
      "ĠØ¨ÙĨÙĪØ§": 3750,
      "Ø¢ÙĨ": 3751,
      "ĠØ´ÙĨÛĮØ¯Ùĩ": 3752,
      "ØªÙĪÙĨÙĨ": 3753,
      "ĠØ±Ø³ÛĮØ¯ÙĨ": 3754,
      "ĠÙĨØ´Ø§ÙĨÛĮ": 3755,
      "ĠØ±Ø§ÙĩØ´": 3756,
      "ĠØ¯ÙĩØ§ÙĨ": 3757,
      "ĠØ´Ú©ÙħØ´": 3758,
      "ĠØ¨Ø¨ÛĮÙĨÛĮ": 3759,
      "Ú¯Ø°Ø±Ø§ÙĨØ¯": 3760,
      "ĠØ§ÙĨØ³Ø§ÙĨ": 3761,
      "ĠÙħØ¹Ø°Ø±Øª": 3762,
      "ĠØ¨Ø±Ú¯Ø±Ø¯ÙĨØ¯": 3763,
      "ĠØ¢Ø´ØºØ§ÙĦ": 3764,
      "ĠÙĤÙĦÙħ": 3765,
      "ĠØªØ®ØªØ®ÙĪØ§Ø¨": 3766,
      "ĠÙĨØ´Ø¯ÙĨØ¯": 3767,
      "ĠÙħØ±ØºØ§Ø¨ÛĮ": 3768,
      "ĠØ¯Ø±Ø¯Ø³Ø±": 3769,
      "ĠÙ¾ÙĨØ§Ùĩ": 3770,
      "ĠØ´ÙĪÚ©Ùĩ": 3771,
      "ĠØ§ÛĮÙħÙĨÛĮ": 3772,
      "ĠØ¯ÙĪÙĤÙĦÙĪÙĩØ§": 3773,
      "ĠÙħØªÙģØ§ÙĪØªÛĮ": 3774,
      "ĠØ¨Ø®Ø´ÙĨØ¯Ùĩ": 3775,
      "ĠØ¨ÛĮÙĦØ¨ÙĪØ±Ø¯": 3776,
      "ĠØ§ÙĩÙħÛĮØªÛĮ": 3777,
      "ĠØ§ÙĨÚ¯Ø´ØªØ´": 3778,
      "ĠÙģØ¶Ø§ÛĮ": 3779,
      "Ø¯ÙĪØ³ØªØª": 3780,
      "ĠÙħØµÙĨÙĪ": 3781,
      "ĠÙĨØ´ÙĨÛĮØ¯": 3782,
      "ĠØ¯Ø§ÙħÙ¾Ø²Ø´Ú©": 3783,
      "ĠØ´ÙĦÙĪØ§Ø±": 3784,
      "ĠÙģÙĨØ¬Ø§ÙĨ": 3785,
      "ĠÙ¾Ø±ØªÙĤØ§ÙĦ": 3786,
      "ĠØ¹Ø§Ø¯ÙĦØ§ÙĨÙĩ": 3787,
      "ĠÙħÙĪÙģÙĤÛĮØª": 3788,
      "ĠÙĨØ§Ø´ÙĨ": 3789,
      "ĠØ§Ø°ÛĮØª": 3790,
      "ĠØªÚ©Ø±Ø§Ø±": 3791,
      "ĠÙħØµÙĨÙĪØ¹ÛĮ": 3792,
      "ĠÚĺ": 3793,
      "ÙĪÙĨØ¯Ùĩ": 3794,
      "Ú©Ø§Øª": 3795,
      "ĠØ§Ø¨": 3796,
      "ĠØ§ÙĤÛĮ": 3797,
      "Ø´ÛĮØ±": 3798,
      "ĠÙħÙĨØ¯ÛĮ": 3799,
      "ĠÚ©Ø§Ø¨": 3800,
      "ĠÙĪÛĮÙĦ": 3801,
      "ĠØªØ¨Ø±": 3802,
      "ĠØ¨Ø§Ø³ØªØ§ÙĨÛĮ": 3803,
      "Ø§ÙĨÙĪØ³": 3804,
      "ĠØ¢Ø²Ùħ": 3805,
      "ĠÙĨØ³": 3806,
      "ĠÙĨÚ©ÙĨÛĮØ¯": 3807,
      "ĠÚ¯ÙĪØ¬Ùĩ": 3808,
      "ĠØ³Ø§Ø²": 3809,
      "ÚĨÙĤØ¯Ø±": 3810,
      "Ø§ÙħØ±ÙĪØ²": 3811,
      "ÙĤÛĮÙĦ": 3812,
      "ĠØ¯ÙĪØ³ØªÙħ": 3813,
      "ĠØ¬Ø§Ø±": 3814,
      "ĠØ¬ÙĦÛĮÙĤÙĩ": 3815,
      "ĠÚĨØ±ÙħÛĮ": 3816,
      "ĠÚ¯ÙģØªÙĨ": 3817,
      "ĠØ¨Ø±ÛĮØ¯": 3818,
      "Ø§Ø¨Ø±": 3819,
      "ĠÚ¯Ø±ÛĮ": 3820,
      "ĠÚ¯Ø±Ùĩ": 3821,
      "ĠÙĦÙĪÙĦÙĩ": 3822,
      "ĠÙĦÛĮØ³ÛĮØ¯": 3823,
      "ĠØ§Ø³ÙĦØŃ": 3824,
      "ĠÚ©ÙĪÚ©ÛĮ": 3825,
      "ĠØ¹ÛĮÙĨÚ©": 3826,
      "ĠØ¹Ø¨Ø±Øª": 3827,
      "ĠØ³ÙĪØ²ÛĮ": 3828,
      "Ø²Ø¯ÙĨ": 3829,
      "ĠØ¨ÙĨÛĮ": 3830,
      "ĠÙĩØ±ÚĨÙĩ": 3831,
      "ĠÚ¯Ø°Ø±": 3832,
      "ĠÚ©Ø§Ø±ÙĦ": 3833,
      "ĠØ®ÙĪØ¯ØªØ§ÙĨ": 3834,
      "ĠÙħÙĩÙħÙĪÙĨÛĮ": 3835,
      "ĠØ¯Ø³ØªØ±Ø³ÛĮ": 3836,
      "Ø¢ÛĮÙĨØ¯": 3837,
      "ĠÙħØªØ´Ú©Ø±Ùħ": 3838,
      "Ø«ÛĮØ±": 3839,
      "Ø«ÙĤÛĮÙĦ": 3840,
      "ĠÙĦÙĪØ³ÛĮÙĪÙĨ": 3841,
      "ĠØ¨Ø¨Ø±Ùħ": 3842,
      "ĠÙĨÛĮØ²": 3843,
      "ĠØ¨Ø§ÙĦÙĨ": 3844,
      "ĠØ´ÛĮØ±Ø¢Ø¨": 3845,
      "Ø¨Ø±Ø§ÛĮ": 3846,
      "ĠÚ©ÙĨØ§Ø±Ø´Ø§ÙĨ": 3847,
      "Ú¯ÛĮØ±Ùĩ": 3848,
      "ĠØ¨Ø¨ÛĮÙĨÛĮØ¯": 3849,
      "ĠØ¨Ù¾Ø±Ùħ": 3850,
      "ĠØªØ§Ø¨ÙĦÙĪÛĮ": 3851,
      "ĠØ´ÙĩØ±Ú©": 3852,
      "ĠÙħØ¹Ø¨Ø¯": 3853,
      "ĠØªØ±Ø³Ø§ÙĨØ¯": 3854,
      "ĠØ±ÛĮØ³": 3855,
      "ĠØ¨Ø®ÙĪØ§ÙĩØ¯": 3856,
      "ĠØ±ÙĤØµÛĮØ¯": 3857,
      "ĠÚ¯ÛĮØ±Ø¯": 3858,
      "ĠØ§ÙħÛĮØ¯ÙĪØ§Ø±ÙĨØ¯": 3859,
      "ĠØ§ÙĨØªØ¸": 3860,
      "ÙģÙĩÙħÛĮØ¯": 3861,
      "ĠÙĤØ§Ø·Ø±": 3862,
      "ĠØ¯ÙĪÙĤÙĦÙĪÙĩØ§ÛĮÛĮ": 3863,
      "ĠØ³Ø±Ø§Øº": 3864,
      "ĠØ²ÙĨÙĨØ¯": 3865,
      "ĠØ¬Ø±Ø«ÙĤÛĮÙĦ": 3866,
      "ĠÙ¾Ø§Ø´ÛĮØ¯": 3867,
      "ĠÚĨØ±Ù¾ÛĮ": 3868,
      "ĠÙħØ§Ø³Ú©": 3869,
      "ĠØ³ÙĪØ³Ú©": 3870,
      "ĠØ¹Ø²ÛĮØ²Ø§ÙĨÙħ": 3871,
      "ĠÙĨØ¹ÙĨØ§Ø¹": 3872,
      "ĠÙ¾Ø±Ø§Ú©ÙĨØ¯Ùĩ": 3873,
      "Ø±ÙĪØµØ¯Ø§": 3874,
      "ĠØ¨Ø§Ø²ÛĮÚ¯ÙĪØ´": 3875,
      "ĠØ¨Ø§ÛĮØ³ØªØ¯": 3876,
      "ĠØªÙģØ±ÛĮØŃ": 3877,
      "ĠØ§ÙĤÛĮØ§ÙĨÙĪØ³": 3878,
      "ĠØ¢Ø²ÙħØ§ÛĮØ´": 3879,
      "ĠØ§Ø³ÙĦØŃÙĩ": 3880,
      ":âĢĮ": 3881,
      "ÙĪØ¬": 3882,
      "ÙĪØ§ÛĮÛĮ": 3883,
      "Ø¯Ø§ÙĨÛĮ": 3884,
      "ÙħÙĪØ§": 3885,
      "Ø³Ú¯": 3886,
      "Ø´ÙĦ": 3887,
      "Ú¯ÙĨ": 3888,
      "Ú¯ÙĪØ±": 3889,
      "ĠØ±Ø´ØªÙĩ": 3890,
      "ĠÙĪÚ©ÛĮ": 3891,
      "ĠÙĪØ±ÙĪÙħ": 3892,
      "Ø±Ø¯Ø§ÙĨ": 3893,
      "ĠØªØ±Ø§": 3894,
      "ĠØªÙĦÙĩ": 3895,
      "Ø³ØªÛĮÚ©": 3896,
      "ĠÙħÛĮÚ©ÙĨÙħ": 3897,
      "ĠØ¢Ø®": 3898,
      "ĠÙ¾ÙĦÛĮ": 3899,
      "ĠÙĨØ§Ø¨": 3900,
      "ĠÙĨÙĪØ§Ø±": 3901,
      "ĠÚ¯Ø§Ø±Ø§": 3902,
      "ÛĮÚ©Ø¨Ø§Ø±": 3903,
      "ĠØ³ÙħÛĮ": 3904,
      "ĠØ³ÛĮÙĨÚ©": 3905,
      "ĠØ±ÙĪØ¨Ø§Øª": 3906,
      "ĠØ¯Ø±ÙĪ": 3907,
      "ĠØ¯ÙĪØ´ÙĪÙĨ": 3908,
      "Ø§ÛĮØ²": 3909,
      "Ø¬ÙĨÚ¯": 3910,
      "ĠÚĨÙ¾": 3911,
      "ĠÚĨØ§Ø¯Ø±": 3912,
      "ĠÚĨÚ¯ÙĪÙĨÙĩ": 3913,
      "ĠÙ¾Ø±Ø³": 3914,
      "ĠØ®ÛĮØ²": 3915,
      "ÙħÛĮØ²ÛĮ": 3916,
      "ĠØŃÙģØ±": 3917,
      "ĠÙģØ±Ùĩ": 3918,
      "ĠÙĦÛĮØ²Ø±": 3919,
      "ĠØ§ÛĮÙĨÙĩ": 3920,
      "ĠØ§ÛĮÙĨÙĤØ¯Ø±": 3921,
      "Ø·Ùĩ": 3922,
      "ĠÛĮØ¹ÙĨÛĮ": 3923,
      "Ø±ÙĪÙģ": 3924,
      "ĠØ¹Ø¸ÛĮÙħ": 3925,
      "ØŁâĢĿ": 3926,
      "Ú©ÙĨÙĪÙĨ": 3927,
      "ĠØ²ÛĮØªÙĪÙĨ": 3928,
      "Ø®ÙĨØ¯ÛĮØ¯ÙĨ": 3929,
      "ĠØ¨ÙĦÙĪ": 3930,
      "ĠØ¨ÙĦÙĪØ±": 3931,
      "ĠÙħÙĪØ§Ø¯": 3932,
      "ØŃØªÙħØ§": 3933,
      "ĠØ¨Ø§Ø²ÙĪ": 3934,
      "ĠØ¨Ø§Ø²ÙĪÛĮ": 3935,
      "ĠØ¨ÙĦÙĨØ¯ÙĤ": 3936,
      "ĠØ¨Ø¨Ø±ÛĮÙħ": 3937,
      "ĠØ¨Ø§Ø¨Ø§ÛĮ": 3938,
      "ĠÙĨÛĮØ³ØªÙħ": 3939,
      "ĠÙ¾Ø¯Ø§ÙĦ": 3940,
      "ĠÚ©ØªØ§Ø¨ÛĮ": 3941,
      "Ú©Ø´ÙĨØ¯": 3942,
      "ĠÙħØ¹ÙĨØ§ÛĮ": 3943,
      "ĠØ§Ø±Ø¯Ú©ÛĮ": 3944,
      "ĠÚ¯Ø±Ø¯ÙĨ": 3945,
      "ĠØ¯Ø§ÙĨÙħ": 3946,
      "ĠØ´Ø±Ú©Øª": 3947,
      "Ø¢ÙħØ¯ÙĨØ¯": 3948,
      "ĠØ³Ø±Ø¯Ø±Ú¯": 3949,
      "ĠØ³ÙĪØ±Ø§Ø®ÛĮ": 3950,
      "ĠÙĤØ·Ø§Ø±ÙĩØ§": 3951,
      "ĠØ§ÙĨØªÙĩØ§ÛĮ": 3952,
      "ĠØµØ¨ØŃØ§ÙĨÙĩ": 3953,
      "ĠØ¨Ø¯Ø¬ÙĨØ³ÛĮ": 3954,
      "ĠØ¨ÛĮÙĨØ¯Ø§Ø²Ø¯": 3955,
      "ĠØªØ³ØªÛĮ": 3956,
      "ĠÙħÙĩØ±Ø¨ÙĪÙĨÛĮ": 3957,
      "ĠØ²Ø§ÙĨÙĪÛĮ": 3958,
      "ĠÙ¾ÛĮØ±Ø§ÙĩÙĨØ´": 3959,
      "ĠÙħØ¹ÙĦÙħØ´": 3960,
      "Ú©ÙĪÚĨ": 3961,
      "ĠØ¢Ø³Ø§ÙĨØ³ÙĪØ±": 3962,
      "ĠØ§ØŃØªÛĮØ§Ø¬": 3963,
      "ĠÙħÙĪØ¬ÙĪØ¯Ø§Øª": 3964,
      "Ø¹Ø§ÙĦÛĮÙĩ": 3965,
      "ĠØ¨ÙģÙĩÙħØ¯": 3966,
      "ĠÙĤÛĮÙħØª": 3967,
      "ĠØ¨Ø±ÙĨÚ¯Ø´Øª": 3968,
      "ĠÙħØŃØªØ§Ø·": 3969,
      "ĠÚ©Ø§ÙĨÚ¯ÙĪØ±": 3970,
      "ĠØªØ±ÙĪÙħÙ¾Øª": 3971,
      "ĠØªØ¹Ø·ÛĮÙĦØ§Øª": 3972,
      "ĠØ§Ø¬Ø§ÙĤ": 3973,
      "ĠØ³ÙĦØ§ØŃ": 3974,
      "ĠÚ¯Ø§Ø±Ø§Úĺ": 3975,
      ".âĢľ": 3976,
      "ĠÙĨØ¯Ùĩ": 3977,
      "Ø§ÛĮÙħ": 3978,
      "Ø§ÙĪÙĨ": 3979,
      "ĠØ¨Ú©ÙĨÙĨØ¯": 3980,
      "Ú©Ø§": 3981,
      "ØªÙħØ§": 3982,
      "ĠØ§Ú©ÙĨÙĪÙĨ": 3983,
      "ĠÙħØ¹Ø¯": 3984,
      "ĠÙħØ¬Ø§": 3985,
      "ĠÙħØ§ÙĨÙĨØ¯": 3986,
      "ĠÚ©Ø§Ø´Øª": 3987,
      "Ø²ÙħÙĩ": 3988,
      "Ø²ÙĪØ¯ÛĮ": 3989,
      "ĠØ±ÙĤØ§Ø¨": 3990,
      "ĠØ±ÛĮÙĨØ§": 3991,
      "Ø¨ÙĪÙĦ": 3992,
      "Ø±Ø¯ÛĮ": 3993,
      "ĠØªØ²ÛĮ": 3994,
      "ĠØªØ£": 3995,
      "ĠØ¨Ø§Øª": 3996,
      "Ø§ÙĨØ³": 3997,
      "Ø³ØªØ§Ø¯": 3998,
      "Ø³ØªÚ¯ÛĮ": 3999,
      "ĠØ®Ø´": 4000,
      "ĠØ®Ø§Ùħ": 4001,
      "ĠÙ¾ÙĨØ¯ÛĮ": 4002,
      "ÙĩØ§Ø´ÙĪÙĨ": 4003,
      "ĠÙĨØ¸": 4004,
      "ĠÙĨÙħÛĮØ¯": 4005,
      "ĠØ³Ø¤": 4006,
      "ĠØ¯Ø±Ø¨ÛĮØ§": 4007,
      "ĠØ¯ÙĪØ±ÛĮ": 4008,
      "ÛĮÙĨØª": 4009,
      "ÙĤÛĮÙħ": 4010,
      "ĠØ²ØºØ§ÙĦ": 4011,
      "ĠÚĨÚ©Ø§Ø±": 4012,
      "ĠÚĨØ§ÙĦÙĩ": 4013,
      "ĠØ¨Ø±Ø³Ø§ÙĨØ¯": 4014,
      "Ù¾Ø§Ø´": 4015,
      "ÙħÛĮØ§": 4016,
      "ĠØŃÙĤÛĮ": 4017,
      "ĠÚ¯Ø±Ø§ÙĨ": 4018,
      "ĠÙģÛĮ": 4019,
      "ĠÙĤÙĨØ¯": 4020,
      "ĠØ§Ø³ØªÛĮÙĪ": 4021,
      "ĠØ§Ø³Ú©ÛĮ": 4022,
      "ĠØ¹ÙħÙĪ": 4023,
      "ĠØºØ±Ø¨": 4024,
      "ĠØ¨Ø¯ÙĨ": 4025,
      "Ø¢ÙħÛĮØ²": 4026,
      "Ø¨Ø§Ø²ÛĮØ´": 4027,
      "ĠØ·ÙĪØ·ÛĮ": 4028,
      "ĠÙħØ±Ø·": 4029,
      "ĠØ¨Ø¨Ø®Ø´": 4030,
      "ĠØ¨Ø¨Ø®Ø´ÛĮØ¯": 4031,
      "ĠØ²ÙħØ²ÙħÙĩ": 4032,
      "ĠØ¯Ø§Ø®ÙĦØ´": 4033,
      "Ø§ÙĨØ¯ÙĨØ¯": 4034,
      "Ø´ÙĨÙĪÙĨØ¯": 4035,
      "ĠØ¯Ø±Ø³ØªØ´": 4036,
      "ĠØ²ÛĮØ±Ø´ÛĮØ±": 4037,
      "ĠØ¨ØºÙĦØ´": 4038,
      "ĠÙĨÙĤØ·Ùĩ": 4039,
      "ÙĪØ²ÛĮØ¯": 4040,
      "ĠÙħØŃÙĦ": 4041,
      "ĠØ¹ØµØ§ÛĮ": 4042,
      "ĠÙ¾ÛĮØ±ÙĪÛĮ": 4043,
      "ĠØ¨Ú¯Ø°Ø§Ø±ÛĮ": 4044,
      "ĠÚĨØ·ÙĪØ±Ùĩ": 4045,
      "ĠÙĨÚ¯ÙĩØ¨Ø§ÙĨ": 4046,
      "ĠØŃØ±Ú©Ø§Øª": 4047,
      "ĠØ¢ÙĨØ¬Ø§Ø³Øª": 4048,
      "ĠÙħØ¹ÙĨÛĮ": 4049,
      "Ù¾Ø±Ø§ÛĮØ²": 4050,
      "ĠØ®Ø§Ø·": 4051,
      "ĠØ³ÙģØ§Ø±Ø´": 4052,
      "ĠØ¢ÙħØ¨ÙĪÙĦ": 4053,
      "ĠÚ©ÙĨØ¬Ú©Ø§ÙĪÛĮ": 4054,
      "ĠÚĨÙĨØ¯Ø§ÙĨ": 4055,
      "ĠÚ¯Ø±Ø¯Ø´": 4056,
      "ĠÚ¯Ø±Ø¯ÙĨØ¯": 4057,
      "ĠØ§ÙħÙĨÛĮ": 4058,
      "ĠØµØŃÙĨÙĩ": 4059,
      "ĠØªØ±Ø³ÙĨØ§Ú©ÛĮ": 4060,
      "ĠâĢ«": 4061,
      "ĠâĢİ": 4062,
      "ĠØ¯Ø±ÛĮØ§ÛĮ": 4063,
      "ĠØªÛĮØ²ÛĮ": 4064,
      "ØªØ±Ø³Ø§ÙĨØ¯": 4065,
      "ĠÙħÚ©Ø§ÙĨÛĮ": 4066,
      "ĠØ§ÙĨÚ¯ÙĪØ±ÙĩØ§": 4067,
      "ĠØ¬ÙĩØ§ÙĨ": 4068,
      "ĠØ¨Ú©Ø´ÛĮÙħ": 4069,
      "ĠÛĮØ§ÙģØªÙĨ": 4070,
      "ĠÙģÙĦØ²": 4071,
      "Ù¾ÙĪØ´ÛĮØ¯": 4072,
      "Ø®ÙĪØ´ØŃØ§ÙĦ": 4073,
      "ÙĩØ§ÛĮÙħØ§ÙĨ": 4074,
      "ĠØ¨Ø®ÙĪØ§ÙĨÙĨØ¯": 4075,
      "Ø¶Ø±Ø±": 4076,
      "Ø¨Ø±Ú¯Ø±Ø¯Ø§ÙĨ": 4077,
      "ĠÙħØªØŃØ¯": 4078,
      "ĠÙħØ¶ØŃÚ©": 4079,
      "ĠÚĨÙĪØ¨ÛĮ": 4080,
      "ĠØ¨Ø§ÙĩØ§Øª": 4081,
      "ĠÙģÙĦØ§ÙģÛĮ": 4082,
      "ĠÙĦÙĨÚ¯Ø±": 4083,
      "ĠÙħØ´ÙĩÙĪØ±": 4084,
      "ĠØ¢Ø¬ÛĮÙĦ": 4085,
      "ĠÚ¯Ø°Ø±ÙĨØ§ÙħÙĩ": 4086,
      "ĠØ±ÛĮØ³ÙħØ§ÙĨ": 4087,
      "ĠÙĪÚ©ÛĮÙĦ": 4088,
      "ĠÚ©Ø§ÙĨÚ¯ÙĪØ±ÙĪ": 4089,
      "ĠØªØ²ÛĮÛĮÙĨ": 4090,
      "ĠØ²ÛĮØ±Ø´ÛĮØ±ÙĪØ§ÙĨÛĮ": 4091,
      "Ġ.": 4092,
      "Ø§Úĺ": 4093,
      "ÛĮØ§Ø±": 4094,
      "ÙĨÛĮÚ©": 4095,
      "ÙĨØ¸Ùħ": 4096,
      "Ø±Ø¨Ø§": 4097,
      "ĠØ¨Ø³ØªÙĨØ¯": 4098,
      "Ø³Ø§": 4099,
      "Ø³Ø§ÙĦ": 4100,
      "Ø³ÙĪÙĨ": 4101,
      "ĠØ§Ùģ": 4102,
      "Ø´ÙĪÙħ": 4103,
      "ĠÙħØ±Ùħ": 4104,
      "Ø²Ø´Ú©": 4105,
      "Ú¯Ø§Ø±": 4106,
      "Ú¯Ø§ÙĩÛĮ": 4107,
      "Ú¯ÙĪÛĮÛĮ": 4108,
      "âĢ¬": 4109,
      "ĠØªØ¸": 4110,
      "ĠØ¨Ø§ØªØ±ÛĮ": 4111,
      "ĠÙħÛĮÙĦ": 4112,
      "ĠÙħÛĮÚ©ÙĨØ¯": 4113,
      "ĠØ¢ÙĪØ±": 4114,
      "ÙģØ±Ø¯": 4115,
      "ĠÙ¾Ø²Ø´Ú©": 4116,
      "ĠÙĨÚ©ÙĨÙĨØ¯": 4117,
      "Ø®ÙĪØ¯": 4118,
      "ĠØ´Ù¾": 4119,
      "ĠØ´ÛĮÙĦ": 4120,
      "ĠØ²Ø§Ø±Ø§": 4121,
      "ĠØ¬Ø³ÛĮ": 4122,
      "ĠÚ¯ÙģØªÙħ": 4123,
      "ĠØ¨Ø±ÙĪÛĮØ¯": 4124,
      "ĠÙ¾Ø±Ù¾Ø´Øª": 4125,
      "Ù¾Ø±Ø¯": 4126,
      "ĠØªÙĪØ¨ÛĮ": 4127,
      "Ø§ÙĩØ¯Ùĩ": 4128,
      "ĠØ¨Ø²Ø±Ú¯ØªØ±ÛĮÙĨ": 4129,
      "ĠØŃØªÙħØ§": 4130,
      "ĠÙĦØ¬": 4131,
      "Ø³ÛĮÚ¯Ø§Ø±ÛĮ": 4132,
      "ĠØªØ§Ú©": 4133,
      "ĠØµÙĦØŃ": 4134,
      "ĠÙĨÚ¯Ø°": 4135,
      "ĠØ¨Ø¯Ø±ÙģØª": 4136,
      "ĠÚ¯Ø°Ø§Ø±ÙĨØ¯": 4137,
      "ĠÙħÙĩÙħÙĩ": 4138,
      "ĠÛĮØ§Ø¯Ú¯ÛĮØ±ÛĮ": 4139,
      "ĠÙħØ§Ø¯Ø±Ø§ÙĨØ´Ø§ÙĨ": 4140,
      "Ø«Ø±": 4141,
      "ĠØ¨Ú¯ÙĪÛĮÙĨØ¯": 4142,
      "ĠØ±ÙĨÚ¯Ø´": 4143,
      "ĠØ§ÙģØªØ¯": 4144,
      "ĠØ®ÙĪØ¨ÛĮÙĩ": 4145,
      "ĠØ¨ÛĮØ§ÛĮ": 4146,
      "Ø¯ÛĮÚ¯Ùĩ": 4147,
      "ĠØ¨Ø¨ÙĨØ¯Ùĩ": 4148,
      "ÙĪÙĤØªÛĮ": 4149,
      "ĠØ®ÙĨØ¯Ø§ÙĨ": 4150,
      "ĠØ§ØªÙģØ§ÙĤØ§Øª": 4151,
      "ĠØ²ÛĮØ±Ø³ÛĮÚ¯Ø§Ø±ÛĮ": 4152,
      "ÙĪÙĩØ±": 4153,
      "ĠÙ¾ÛĮØªØ±": 4154,
      "Ú©ØªØ¨Ø§ÙĦ": 4155,
      "ĠØ¹ØµØ¨Ø§ÙĨÛĮØª": 4156,
      "ÙĨØ´Ø³Øª": 4157,
      "Ú¯ÙģØªÙĨØ¯": 4158,
      "ĠØ§ÙĨÙĤØ¯Ø±": 4159,
      "ĠÙħØ¹ÙħØ§": 4160,
      "ĠÙ¾Ø´ØªØ´": 4161,
      "ĠØ¢Ø³ÛĮØ¨ÛĮ": 4162,
      "ĠØ§ÙħØªØŃØ§ÙĨØ´": 4163,
      "ĠØ¨Ø³Ú©ØªØ¨Ø§ÙĦ": 4164,
      "ĠØªÙĤÙĦ": 4165,
      "ĠØªÙĤÙĪÛĮÙħ": 4166,
      "ĠÚ¯Ø´ØªÙĨ": 4167,
      "ĠÙ¾ÙĪØ´ÛĮØ¯ÙĨØ¯": 4168,
      "ĠØ§ÛĮÙĨØ¬Ø§Ø³Øª": 4169,
      "ĠØ¸ÙĩØ±": 4170,
      "ĠØ¨Ø®ÙĪØ§Ø¨": 4171,
      "ĠØ´Ø±Ø§Ø¨": 4172,
      "ĠÙħØ´Ø§ÙĩØ¯Ùĩ": 4173,
      "ĠÙĩØ¯Ø§ÛĮØª": 4174,
      "ĠÙħØ·ÛĮ": 4175,
      "ØªØ±Ø³ÛĮØ¯ÙĨØ¯": 4176,
      "ĠØ±ÙĨÚ¯Ø§Ø±ÙĨÚ¯ÛĮ": 4177,
      "ĠÙħÙĤØ§ÙĪ": 4178,
      "ĠÚ¯ÙĨØ¬ÛĮÙĨÙĩ": 4179,
      "ĠØ§ÚĺØ¯ÙĩØ§ÛĮ": 4180,
      "ĠÙĪØŃØ´ØªÙĨØ§Ú©": 4181,
      "ĠÙ¾ÙĦÙĨÚ¯": 4182,
      "ĠÙ¾ÙĪØ³ØªØ´": 4183,
      "ĠØªÙĪÙĨØ³ØªÙĩ": 4184,
      "ĠÚ©ÙĪØªØ§ÙĩÛĮ": 4185,
      "ĠÙģØ±Ø§ÙĪØ§ÙĨ": 4186,
      "ĠØ¨Ø±ÛĮØ²Ø¯": 4187,
      "ĠØ¨Ú©Ø´ÙĨØ¯": 4188,
      "ĠÙħÙĪØ¯Ø¨": 4189,
      "ĠÙĪØ§Úĺ": 4190,
      "ĠÙ¾Ø±Ø¯Ø§Ø®Øª": 4191,
      "ĠÙĦØ§ØºØ±": 4192,
      "ĠÙĨÙĪØ´ØªÙĨ": 4193,
      "ĠØ¨Ø®ÙĨØ¯Ø¯": 4194,
      "ĠØ·ÙĦØ§ÛĮÛĮ": 4195,
      "ĠØ³Ø±Ø²ÙĨØ´": 4196,
      "ĠÙħØ§Ø³Ø§Úĺ": 4197,
      "ĠØ¨ÛĮÙģØªØ¯": 4198,
      "Ø¢ÙħØ§Ø¯Ùĩ": 4199,
      "ĠÚ©ÚĨÙĦ": 4200,
      "ĠØŃØ§Ø¶Ø±": 4201,
      "ĠÙĦÙĪÙĦÙĪ": 4202,
      "ĠÙħØ³Ø§ÙģØ±Øª": 4203,
      "ĠØªØ®ÛĮÙĦ": 4204,
      "ĠÚ¯Ø°Ø±Ø§ÙĨØ¯Ùĩ": 4205,
      "ĠØ¨ÙĨÙĪØ§Ø²Ø¯": 4206,
      "ĠØ§ÙĨØªØ¸Ø§Ø±": 4207,
      "ĠÙĨØ§Ø¨ÙĪØ¯": 4208,
      "ĠÙģØ±ÙĩÙĨÚ¯": 4209,
      "ĠÙħØ¬Ø§Ø²": 4210,
      "ĠØŃÙĤÛĮÙĤØª": 4211,
      "ĠØ¢ÙħØ¨ÙĪÙĦØ§ÙĨØ³": 4212,
      "ĠØªØ¸Ø§ÙĩØ±": 4213,
      "ĠØ´ÛĮÙĦÙĨÚ¯": 4214,
      "na": 4215,
      "Ø¡": 4216,
      "Ø§ÛĮÚ©": 4217,
      "ÙĪÙħØ¯": 4218,
      "ÙĪØ¦ÙĨ": 4219,
      "ÙĪÚ¯ÙĪ": 4220,
      "Ø±Úĺ": 4221,
      "ÙħÛĮÙĨ": 4222,
      "ÙħÙĪÛĮ": 4223,
      "ĠØ¨ØªÙĪØ§ÙĨÛĮ": 4224,
      "ĠØ¨ÙģØ±": 4225,
      "ĠØ¨Ú©ÙĨÛĮÙħ": 4226,
      "Ú©ÛĮÚ©": 4227,
      "Ú©ÙĪØ¨": 4228,
      "Ø³Ø·": 4229,
      "ĠØ§Ø±": 4230,
      "ĠÙħØ§ÙĨ": 4231,
      "ĠÙħØ¨Ø§Ø±": 4232,
      "ĠÚ©Ø±ÛĮ": 4233,
      "Ø¨Ø³": 4234,
      "Ø¨ÚĨÙĩ": 4235,
      "ĠØªØ¯ÛĮ": 4236,
      "Ø§ÙĨÙĪØ±Ø¯": 4237,
      "ĠÙħÛĮØ¯ÙĩØ¯": 4238,
      "ĠÙħÛĮØªÙĪÙĨÛĮ": 4239,
      "ĠÙħÛĮÚ©Ø±Ø¯ÙĨ": 4240,
      "ĠØ®Ø³ØªÚ¯ÛĮ": 4241,
      "ĠÙ¾ÙĨÚ¯": 4242,
      "ÙĩØ§Ø±Ø´": 4243,
      "ĠØ±Ø§Ø¶ÛĮ": 4244,
      "ĠÙĨÙħØ§": 4245,
      "ĠÙĨÙĪÚ©": 4246,
      "ĠÙĨØ®ÙĪØ±": 4247,
      "Ø®Ø¨": 4248,
      "Ø®ÙĪÙĨØ¯": 4249,
      "Ø®Ø´Ùħ": 4250,
      "ĠÚ¯ÙĪÚ¯ÙĪ": 4251,
      "ĠØ³ÙĦ": 4252,
      "ĠØ³ÙĪØ±": 4253,
      "ĠØ³Ø§ÛĮØ±": 4254,
      "ĠØ´ÙĪÛĮØ¯": 4255,
      "ĠØ´ØªØ§Ø¨": 4256,
      "ĠØ±ÙĪØº": 4257,
      "ĠØ±ÙĪØ¨Ø§ÙĩÛĮ": 4258,
      "ĠÙĩØ´Øª": 4259,
      "ĠØ¨ÙĪØ¯ÛĮÙħ": 4260,
      "Ø¹ÙĦØ§ÙĤÙĩ": 4261,
      "ĠØ¬ÙĪÙĨ": 4262,
      "ĠØ¬ÙĪÙĩØ±": 4263,
      "ÙĪØ§Ø±Ø¯": 4264,
      "ĠÙ¾Ø±ÙĩØ§ÛĮ": 4265,
      "ĠÙ¾Ø±ÛĮØ¯Ùĩ": 4266,
      "Ù¾Ø§Øª": 4267,
      "ĠØªÙĪØ³Ø·": 4268,
      "ĠÚ©ÙĨØ¯ÙĨ": 4269,
      "ĠÙĤØµ": 4270,
      "ĠØ¯ÛĮØ¯Ùħ": 4271,
      "ĠÚ©ÙĪÚ©ÙĪ": 4272,
      "ĠØ¯Ø§Ø¯Ùħ": 4273,
      "Ø®ÙĪØ§Ø³ØªÛĮÙħ": 4274,
      "Ø§Ø³Ù¾Ø§Øª": 4275,
      "ĠÙĪÙĤØªØ´": 4276,
      "ĠØ¨Ø¯ÙĨØ´": 4277,
      "ĠØ¨Ø±Ø¯Ø§Ø±Ùħ": 4278,
      "ĠØªØ±ÛĮÙĨ": 4279,
      "ĠÚ©Ø§Ø±ÙĩØ§ÛĮÛĮ": 4280,
      "ĠÚ©Ø§Ø±Ø®ÙĪÙĨÙĩ": 4281,
      "ĠØ¯Ø³ØªÙĪØ±": 4282,
      "ĠØ¯Ø³ØªÚ¯ÛĮØ±Ùĩ": 4283,
      "ĠØ¢ÙħØ¯ÙĨ": 4284,
      "Ø¯Ø§ÙĨÙĨØ¯": 4285,
      "ĠÙĦÙĪÚ©Ø³": 4286,
      "ĠØ¨Ø®ÙĪÙĨÙĩ": 4287,
      "ĠØ¨ÙĦÙĨØ¯Ø´": 4288,
      "ĠØ¨ÛĮØ§Ø¯": 4289,
      "ĠØ§Ø³Ù¾Ø§ÛĮÚ©": 4290,
      "ĠØ®Ø±Ø³ÛĮ": 4291,
      "ĠØ§ÛĮÙĪØ§ÙĨ": 4292,
      "ĠØ´ÙĨÙĪØ¯": 4293,
      "ĠÙĨÛĮØ²Ùĩ": 4294,
      "Ø´ÙĨØ§Ø®Øª": 4295,
      "ØªØ§Ø¨Ùĩ": 4296,
      "ĠØ¯Ø±Ø³ØªÛĮ": 4297,
      "ĠÙģØ±Ø²ÙĨØ¯": 4298,
      "ĠÙħØŃØ¨Øª": 4299,
      "ÙģØ§Ø¹": 4300,
      "ĠÙ¾ÛĮØ±Ø²ÙĨ": 4301,
      "Ú¯Ø°Ø±ÙĪ": 4302,
      "ĠØ®ÙĪØ§Ø¨ÛĮØ¯ÙĨ": 4303,
      "ĠØ¢ÙĪØ±Ø¯ÙĨ": 4304,
      "ĠØ¨Ø®ÙĪØ±ÛĮØ¯": 4305,
      "ĠÙħÙĪØ±Ø¯Ø¹ÙĦØ§ÙĤÙĩ": 4306,
      "ĠÙĨØ¨Ø§Ø´ÛĮØ¯": 4307,
      "ĠÚ¯Ø±Ø¯ÙĨØ´": 4308,
      "ĠØ¹Ø¬ÙĦÙĩ": 4309,
      "Ø²ÙĨÙħ": 4310,
      "ĠÙħØ·Ø§ÙĦ": 4311,
      "ĠØ¨Ø§ÙĩÙĪØ´ÛĮ": 4312,
      "ĠØ±ÛĮØ®ØªÙĨØ¯": 4313,
      "ĠØ§Ø¨Ø±ÙĩØ§ÛĮ": 4314,
      "ĠØ§Ø¶Ø·Ø±": 4315,
      "ĠÙħÙĤØ¯Ø§Ø±": 4316,
      "ĠÙħÙħÚ©ÙĨÙĩ": 4317,
      "ĠÙ¾Ø³ØªÚĨÛĮ": 4318,
      "ĠØŃÙģØ¸": 4319,
      "ĠÙ¾ÛĮÚĨÛĮØ¯Ùĩ": 4320,
      "ĠØ¨Ø®Ø´ÛĮØ¯": 4321,
      "ĠØ®Ø±Ø¯ÙħÙĨØ¯ÛĮ": 4322,
      "ĠÙĦØºØ²": 4323,
      "ĠØ´ÙĪÙħÛĮÙĨÙĩ": 4324,
      "ĠØ´ÛĮØ·Ø§ÙĨ": 4325,
      "ĠÙ¾Ø±Ø¯Ùĩ": 4326,
      "ĠØ¢ÙĩÙĨØ±Ø¨Ø§": 4327,
      "ĠÙĦØ§Ø³ØªÛĮÚ©": 4328,
      "ĠÙ¾Ø®ØªÙĨ": 4329,
      "ĠØ¯ÙĪØ±Ø¨ÛĮÙĨØ´": 4330,
      "ĠÙĨØµÙģ": 4331,
      "ĠØ³Ø±Ø²ÙħÛĮÙĨÛĮ": 4332,
      "ĠØ¨Ø¨Ø±ÛĮØ¯": 4333,
      "ĠÙħÛĮÙĪÙħØ¯": 4334,
      "ĠØ±Ø¤ÛĮ": 4335,
      "ĠØ±Ø¤ÛĮØ§": 4336,
      "ĠÙ¾ÙĩÙĨ": 4337,
      "ĠØ¨Ù¾ÛĮÙĪÙĨØ¯Ø¯": 4338,
      "ĠÙħØ§Ø¬Ø±Ø§ÛĮ": 4339,
      "ĠØ§ÛĮÚ¯ÙĦÙĪ": 4340,
      "ĠØ¯Ø§ÙĨØ´Ú¯Ø§Ùĩ": 4341,
      "ÙĦØ±Ø²ÛĮØ¯": 4342,
      "ĠØ®ÙĨÚ©ÛĮ": 4343,
      "ĠÙĨØ³Ø¨Øª": 4344,
      "ĠØ³Ø¤Ø§ÙĦ": 4345,
      "ĠÙħØ±Ø·ÙĪØ¨": 4346,
      "ĠØ¨Ø¯Ø±ÙģØªØ§Ø±ÛĮ": 4347,
      "ĠÙĪØ§ÚĺÚ¯ÙĪÙĨ": 4348,
      "ĠÙħØ¬Ø§Ø²Ø§Øª": 4349,
      "Ø±ÚĺÛĮ": 4350,
      "ĠÙ¾ÙĨÚ¯ÙĪØ¦ÙĨ": 4351,
      "ØĽ": 4352,
      "Ġ'": 4353,
      "ÛĮØ²Ùĩ": 4354,
      "ÙĪÙĪÙĨ": 4355,
      "Ø¯ÛĮØ¯ÙĨØ¯": 4356,
      "Ø¯Ø§Ø±Ùĩ": 4357,
      "ĠØ¨ÙħØ§ÙĨÛĮ": 4358,
      "ĠØ¨ÙģØ±ÙĪ": 4359,
      "ØªÙĦ": 4360,
      "Ø³Ø§Ø²ÙĨØ¯": 4361,
      "ĠØ§Ø®Øª": 4362,
      "ĠØ§Ø¯Ø¨": 4363,
      "Ø´ÙĪÛĮÛĮ": 4364,
      "ĠÙħØ²": 4365,
      "ĠÚ©ÙĦÛĮ": 4366,
      "ĠÚ©Ø§Ø´": 4367,
      "ĠÚ©Ø´Ø¯": 4368,
      "ĠØ¯Ø´": 4369,
      "Ø²ÙĪÙĨ": 4370,
      "Ø²Ø§Ø±ÛĮ": 4371,
      "Ú¯Ø±ÛĮ": 4372,
      "ĠØ±Ø³Ø¯": 4373,
      "Ø¨ÛĮÙĨÙĩ": 4374,
      "âĢĮâĢĮ": 4375,
      "ĠÙĪØ§Ø²Ùĩ": 4376,
      "ĠÙĪÙĦÙĪØª": 4377,
      "ĠØªØ±Ø¯": 4378,
      "ĠØ¨Ø§ÙĨÛĮ": 4379,
      "Ø³ØªØ§": 4380,
      "ĠÙħÛĮØªÙĪÙĨÙħ": 4381,
      "ĠÙħÛĮØ®ÙĪØ§ÛĮ": 4382,
      "ĠØ®ÙĦ": 4383,
      "ĠØ®Ø±ÙĪ": 4384,
      "ĠØ¢Úĺ": 4385,
      "ĠÙ¾ÛĮÙĨ": 4386,
      "ĠÙĨØ±ÙĪ": 4387,
      "ĠÙĨØªØ±Ø³": 4388,
      "ĠÚ¯Ø§": 4389,
      "ĠØ³Ø§Ø¯Ùĩ": 4390,
      "ĠØ´Ùħ": 4391,
      "ĠØ´ØªØ±": 4392,
      "ĠÙĩØªÙĦ": 4393,
      "Ø§ÙħØª": 4394,
      "Ø§Ø´ÙĪÙĨ": 4395,
      "ĠØ®ÙĪØ§ÛĮ": 4396,
      "ĠØ¬Ø±Ø§ØŃÛĮ": 4397,
      "ĠØ¨Ø±ÙĨ": 4398,
      "ĠØ¨Ø±Ø´": 4399,
      "ĠØ¨Ø±ÛĮØ¯ÙĨ": 4400,
      "ĠØ®ÙĪØ´Ú¯Ø°": 4401,
      "ĠØªÙĪÙħ": 4402,
      "ĠÙģÙĪÙĦ": 4403,
      "ĠÙĤÙĪØ§ÙĨ": 4404,
      "ĠÚ©ÙĪÙĩ": 4405,
      "ĠØ§ÛĮÙĨØ·ÙĪØ±ÛĮ": 4406,
      "ĠØ®ÙĪØ´ØŃØ§ÙĦÙĨØ¯": 4407,
      "ĠØªØ§Ø¬": 4408,
      "ĠØ¹Ø¯Ø¯": 4409,
      "ĠØµÙĦÛĮ": 4410,
      "Ø§Ø³Ùħ": 4411,
      "ĠÚ¯Ø±ÙģØªÛĮ": 4412,
      "Ø¨Ø§Ø±ÛĮØ¯": 4413,
      "ĠØ¨Ø¹Ø¯ÛĮ": 4414,
      "ĠÚ©Ø±Ø¯ÙĨØ´": 4415,
      "ĠÙĩØ±Ø¬Ø§": 4416,
      "ĠÙĩØ±Ú©Ø¯Ø§Ùħ": 4417,
      "ĠØ¨Ø±Ø¯Ø§Ø±ÙĨØ¯": 4418,
      "ĠØ¨Ø±Ú¯Ùĩ": 4419,
      "ĠÙħÙĪÙĨØ¯": 4420,
      "ĠÙĨØ§Ø¢": 4421,
      "ĠØ¢Ø¨Ø¯Ø§Ø±": 4422,
      "ĠØ¨Ø®ÛĮØ±": 4423,
      "ĠØ¨ÛĮÚ¯": 4424,
      "ĠØ®Ø±Ø·": 4425,
      "ĠØ¨Ø¨Ø±Ùĩ": 4426,
      "Ø§ÙģØ´": 4427,
      "ÙĨØ¨ÙĨØ¯": 4428,
      "ĠØ¨Ø§Ø¨Øª": 4429,
      "ØªÙĪÙĨÛĮØ¯": 4430,
      "Ø§ÙĨØ¯Ø§Ø®Øª": 4431,
      "ĠØªØ±Ø³ÛĮØ¯ÙĨ": 4432,
      "ĠÙħØ§ÙĩÛĮÚ¯ÛĮØ±ÛĮ": 4433,
      "ĠØŃÛĮÙĪÙĪÙĨ": 4434,
      "ĠØ®Ø±Ú¯ÙĪØ´ÛĮ": 4435,
      "ĠØ®Ø±Ú¯ÙĪØ´Ùĩ": 4436,
      "ĠÙĨØ´ÛĮÙħ": 4437,
      "ĠÙĨØ´Ø§ÙĨÙĩ": 4438,
      "ĠØ¯ÙĩÙĨØ´": 4439,
      "ĠØ¹ØµØ¨ÛĮ": 4440,
      "ĠØ´Ø§Ø¯ÙħØ§ÙĨ": 4441,
      "ĠØ¨Ù¾Ø±": 4442,
      "ĠØ¨Ú¯Ø°Ø±": 4443,
      "Ú¯Ø°Ø§Ø±": 4444,
      "ĠÚ©ÙĦØ§ÙĩØ´": 4445,
      "ĠØ¨Ø±Ú¯Ø±Ø¯ÛĮÙħ": 4446,
      "ĠÙĤÙĦØ¨ÛĮ": 4447,
      "ĠÙĨØ±ÙħØ´": 4448,
      "ĠÚ©Ø§ÙħÛĮÙĪÙĨØ´": 4449,
      "ĠØ¢ÙĩÛĮ": 4450,
      "ĠØ§ÙĦÚ¯ÙĪ": 4451,
      "ĠØ§Ø·Ø§Ø¹Øª": 4452,
      "ÙĩØ§ÛĮØªØ§ÙĨ": 4453,
      "ØªÙĪÙ¾": 4454,
      "ĠÙĨÙħÚ©": 4455,
      "ĠÙĩÙħÛĮÙĨØ·ÙĪØ±": 4456,
      "ĠÙ¾Ø§Ù¾": 4457,
      "ĠØŃÙĦØ²ÙĪÙĨ": 4458,
      "ĠØ§ÙĪÙħØ¯ÙĨ": 4459,
      "ĠØ§ÙĪÙħØ¯Ùĩ": 4460,
      "ĠÚ©Ø«Ø§ÙģØª": 4461,
      "Ø±Ø³ÛĮØ¯ÙĨØ¯": 4462,
      "ĠØ§ÙĨØ¯Ø§Ø®ØªÙĨ": 4463,
      "ĠÙ¾ÙĨÚ©ÛĮÚ©": 4464,
      "ĠØ¨ÙĪØ³Ùĩ": 4465,
      "ĠÙ¾Ø§Ú©Øª": 4466,
      "ĠØªÛĮÙĦÛĮ": 4467,
      "ĠÙħÙĦØ§ÛĮÙħØª": 4468,
      "ĠÙĦØºØª": 4469,
      "ĠØºØ±ÛĮØ¨": 4470,
      "ĠÚĨÙĨÚ¯Ø§ÙĦØ´": 4471,
      "ĠØ³ÙĤÙĪØ·": 4472,
      "ĠØ´ÛĮØ·ÙĪÙĨ": 4473,
      "ĠØ¨Ú¯Ø±Ø¯Ø¯": 4474,
      "ĠØ¨Ù¾ÛĮÚĨ": 4475,
      "ĠÚ¯Ø±ÙĪÙĩÛĮ": 4476,
      "ĠÙĨØ§Ø¯ÛĮØ¯Ùĩ": 4477,
      "ĠÙħÙĦÚ©Ùĩ": 4478,
      "ĠØ´Ø³ØªÙĨ": 4479,
      "ĠØ´ÙħØ±Ø¯ÙĨ": 4480,
      "ĠÚ©Ø§Ø¨ÛĮÙĨØª": 4481,
      "ÙħÙĪØ§Ø¸Ø¨": 4482,
      "ĠÙ¾Ø±Ø³Ø±ÙĪØµØ¯Ø§": 4483,
      "Ú©ÙĪÚĨÙĪÙĦ": 4484,
      "ĠÙħØ¹Ø¯ÙĨ": 4485,
      "Ø®ÙĪØ´ØŃØ§ÙĦÙħ": 4486,
      "ĠÙħØ±ÙħÙĪØ²": 4487,
      "ĠÙĦØ¬Ø¨Ø§Ø²": 4488,
      "ĠØ³ÙĦÙĪÙĦ": 4489,
      "ĠØ±ÙĪØºÙĨ": 4490,
      "ĠÙħØ·Ø§ÙĦØ¹Ùĩ": 4491,
      "ĠØ¢ÚĺÛĮØ±": 4492,
      "Ø¯Ø±ÛĮ": 4493,
      "ÙĨØ¨Ùĩ": 4494,
      "ĠØ¨Ø°": 4495,
      "ĠØ¨ÙĪÚ©": 4496,
      "ĠØ¨Ø°Ø±": 4497,
      "Ú©ÙħØ§ÙĨ": 4498,
      "Ø³Ø¨Ø§": 4499,
      "ĠØ§ÛĮØ¯": 4500,
      "ĠØ§Ø±Ùĩ": 4501,
      "ĠØ§ØºÙĦ": 4502,
      "ĠØ§Ø¹Ø¯Ø§Ø¯": 4503,
      "ĠÙħØªØ±": 4504,
      "ĠÙħÚ¯ÛĮ": 4505,
      "ĠÙħÙĩØ§Ø±": 4506,
      "ĠÚ©Ø§Ùĩ": 4507,
      "ĠÚ©ÛĮÙĩ": 4508,
      "ĠØ¯Ú©Ø§ÙĨ": 4509,
      "ĠØ¯Ø³Ø±": 4510,
      "Ø²ÛĮÙħ": 4511,
      "Ø¨Ø³Øª": 4512,
      "Ø¨ÛĮÙĨ": 4513,
      "Ø¨ÛĮÙĨÙħ": 4514,
      "ĠÙĪÚ¯Ø±": 4515,
      "ĠÙĪØ²ÙĨ": 4516,
      "ĠØªÙĪØ§": 4517,
      "ĠØªØ§Ø±ÛĮ": 4518,
      "ĠÙħÛĮÚ¯ÙĪÛĮØ¯": 4519,
      "ĠÙħÛĮØ¯ÙĪÙĨØ³Øª": 4520,
      "ĠØ¢ÙĦ": 4521,
      "ĠÙ¾Ø§ÙģØ´": 4522,
      "ÙĪØ¯Ø§Ø±ÛĮ": 4523,
      "ĠÙĨÙĪÙĨ": 4524,
      "ĠÙĨØ²ÙĨ": 4525,
      "ÙĦÛĮØª": 4526,
      "ÙĦÛĮÙĦØ§": 4527,
      "ĠØ±ÙĪØ¨Ùĩ": 4528,
      "ĠØ¨ÙĪØ¯ÛĮ": 4529,
      "ÙĤÙģ": 4530,
      "ĠØ®ÙĪØ±ÙĨØ¯": 4531,
      "ĠØ²Ø¨Ø±": 4532,
      "ĠÙĩÙħÙĪÙĨ": 4533,
      "Ø¬Ø§Ø¨": 4534,
      "ĠØ´Ø¯ÛĮÙħ": 4535,
      "ĠØ¬Ø§Ø¨": 4536,
      "ÙĪØ§ÙĦÛĮ": 4537,
      "ĠÚ©ÙĨØªØ±": 4538,
      "ĠÚĨÙĩØ§Ø±Ø´": 4539,
      "ĠØ¨Ø±Ø§Øª": 4540,
      "ĠØ¨Ø±Ø³Ùħ": 4541,
      "Ø§Ø¨Ú©": 4542,
      "ĠØ¯Ø§Ø´ØªÛĮÙħ": 4543,
      "Ù¾ÙĪØ±": 4544,
      "ÛĮØ±ÛĮ": 4545,
      "ĠØªÙĪØ§ÙĦØª": 4546,
      "ÙĪÙĨÙħ": 4547,
      "ĠØ¨Ø²Ø±Ú¯Ø´Ø§ÙĨ": 4548,
      "ĠØŃØ¬Ø§Ø¨": 4549,
      "ĠÙĦØ§ÙĦÙĩ": 4550,
      "ĠØ§Ø³Ú©ÙĪ": 4551,
      "ĠØ§ÛĮÙĨÙĩØ§": 4552,
      "ÙĪØ±Ùĩ": 4553,
      "Ø·Ø±Ùģ": 4554,
      "ĠØªØ§Ú©Ø³ÛĮ": 4555,
      "Ø´Ø§ÙĨØ³ÛĮ": 4556,
      "Ø¨Ø§Ø¨Ø§": 4557,
      "Ø§Ø³Ø¨Ø§Ø¨": 4558,
      "ØŁâĢľ": 4559,
      "ĠØ¯ÙĪØ³ØªØ§ÙĨØª": 4560,
      "ĠÙħØ§ÛĮÚ©": 4561,
      "Ø¸ÙĪØ±": 4562,
      "ĠØ¯Ø®ØªØ±Ø´": 4563,
      "ÙĦØ§ØªÛĮ": 4564,
      "ĠØ¨Ø¯ÙĪÙĩ": 4565,
      "ĠØ®ÙĪØ¯ÙħØ§ÙĨ": 4566,
      "ĠØ¯Ø³ØªØ§ÙĨØ´": 4567,
      "Ú¯ÙĩØ¯Ø§Ø±": 4568,
      "ĠØ¨ÙĩØªØ±Ùĩ": 4569,
      "Ø¯Ø§ÙĨÚ¯ÙĩØ¯Ø§Ø±": 4570,
      "ĠØ·Ø¹": 4571,
      "ĠØ·ÙĪØ±ÛĮ": 4572,
      "ĠØ¨Ø®Ø§Ø±": 4573,
      "Ø±ÙģÛĮ": 4574,
      "ĠØ¨ÛĮØ§ÛĮÛĮ": 4575,
      "ĠØ³ÙĨÚ¯ÛĮ": 4576,
      "ĠØ¨Ø¨Ø±ÛĮ": 4577,
      "ĠÚ©Ø´ÙĪ": 4578,
      "ĠÚ©Ø´ÙĨØ¯": 4579,
      "ĠÚ¯ÙĦØ¨Ø±Ú¯": 4580,
      "ĠØ¨Ø§Ø±ÙĪÙĨ": 4581,
      "ĠØ®ÙĪØ§ÙĩÛĮØ¯": 4582,
      "ĠØ±Ø§ÙĩØ±ÙĪ": 4583,
      "ĠÙģØ±Øµ": 4584,
      "ĠÙĨØ´ÙĪ": 4585,
      "ĠÙħØ³Ø¦": 4586,
      "ĠØ´Ø§Ø¯ØªØ±": 4587,
      "ĠØ¨Ù¾Ø±Ùĩ": 4588,
      "ĠØ¨Ù¾Ø±ÛĮÙħ": 4589,
      "ĠØµØ¯Ø§ÙĩØ§": 4590,
      "ĠÙ¾ÛĮØ±ÛĮ": 4591,
      "ĠØ¨Ø§ØºØ´": 4592,
      "ĠØ¨Ú¯Ø°Ø§Ø±Ùħ": 4593,
      "ĠØ³Ù¾Ø±ÛĮ": 4594,
      "ĠÙĨÚ¯ÙĩØ´": 4595,
      "ĠØ§ÙĨØ¯ÛĮ": 4596,
      "ĠØ³Ø±Ø³Ø¨Ø²": 4597,
      "ĠØ®ÙĪØ§Ø¨ÛĮØ¯Ùĩ": 4598,
      "ĠÚ©ÙĦØ§ÙĩØ®ÙĪØ¯": 4599,
      "ĠØ¨Ø±Ú¯Ø±Ø¯ÙĪÙĨØ¯": 4600,
      "ĠØ¬ÙĪØ§Ùĩ": 4601,
      "ĠÙĨÛĮØ§Ø²ÙħÙĨØ¯": 4602,
      "ĠØ¬Ø§ÙĨÙĪØ±Ø§ÙĨ": 4603,
      "ĠØ¢ÙħÙĪØ²Ø´": 4604,
      "ĠÙĤØ§ÛĮÙĤØ´": 4605,
      "ĠØªÙĨØ¯ÛĮ": 4606,
      "Ø¯ÙĩÛĮÙħ": 4607,
      "ĠÚ¯Ø±Ø¯ÙĨØ¨ÙĨØ¯": 4608,
      "ĠØ±ÛĮØ²": 4609,
      "ĠØ¯Ø§ÙĨÙĨØ¯": 4610,
      "ĠÙħØ§Ø±Ù¾ÛĮÚĨ": 4611,
      "ĠÚĨØ±Ø®Ø´": 4612,
      "ĠØ³Ø±Ø¯Ø´": 4613,
      "ĠÙ¾ÙĪØ³ÛĮØ¯": 4614,
      "ĠÙĨÙĪØ´ÛĮØ¯ÙĨ": 4615,
      "ĠØºØ°Ø§ÛĮØ´Ø§ÙĨ": 4616,
      "ĠØ¶Ø®": 4617,
      "ÙģØ±ÙĨÚ¯ÛĮ": 4618,
      "Ù¾ÛĮÙĪ": 4619,
      "ĠÙħØ§Ø¬Ø±Ø§ÙĩØ§ÛĮ": 4620,
      "ĠÙĨØ´Ø³ØªÙĨ": 4621,
      "Ú©Ø§Ø±Øª": 4622,
      "ĠØ§ÙĨØ¯Ø§Ø®ØªÙĨØ¯": 4623,
      "ĠÙ¾Ø§Ú©ÛĮØ²Ùĩ": 4624,
      "ĠÙħØ·ÙħØ¦ÙĨÙħ": 4625,
      "Ú¯Ø´ØªÙĨØ¯": 4626,
      "ÙģØ§ÙĪØª": 4627,
      "ĠØ¬Ø´ÙĨÙĪØ§Ø±Ùĩ": 4628,
      "ĠÙħØ´Ú©ÙĦØ§Øª": 4629,
      "ĠØ´ÛĮÙ¾ÙĪØ±": 4630,
      "ĠÙħØªØ§Ø³ÙģØ§ÙĨÙĩ": 4631,
      "Ø®ÙĪØ§Ø¨ÛĮØ¯": 4632,
      "ĠØªÚ©ÛĮÙĩ": 4633,
      "ĠØªÙĪÙĨÙĦ": 4634,
      "ĠØªÙĪÙĨØ³Øª": 4635,
      "ĠÙ¾Ø§Ø´ÛĮØ¯ÙĨ": 4636,
      "ĠØªÙĪÙĦÛĮØ¯": 4637,
      "Ø³ÙĪØ²ÛĮ": 4638,
      "ĠØ¬ÙĩÛĮØ¯": 4639,
      "ĠØ¨Ú¯Ø±Ø¯ÙĨØ¯": 4640,
      "ĠØ¬ÙĦÙĪÚ¯ÛĮØ±ÛĮ": 4641,
      "ĠÚ©Ø³Ø§ÙĨÛĮ": 4642,
      "ĠÙĩÙĪØ´ÛĮØ§Ø±": 4643,
      "ĠØ¯Ø±Ø®Ø´ÛĮØ¯": 4644,
      "ĠÙ¾ÙĩÙĨØ§": 4645,
      "ĠØ´ÙĩØ±ÛĮ": 4646,
      "ĠÙĨÛĮØ±ÙĪÙħÙĨØ¯": 4647,
      "ĠÙħØªØ£Ø³ÙģÙħ": 4648,
      "ĠÙĨÛĮØ§Ø²ÛĮ": 4649,
      "ĠØ¬ÙĪÛĮØ¯ÙĨ": 4650,
      "ĠÙ¾ÛĮÙĪØ³Øª": 4651,
      "ĠÚ©ÙĦØ§Øº": 4652,
      "ĠÙĨÛĮÙģØªØ§Ø¯": 4653,
      "ĠØ¢Ø¯Ø§ÙħØ³": 4654,
      "ĠÛ³": 4655,
      "ĠØ¢Ø²ÙħØ§ÛĮØ´Ú¯Ø§Ùĩ": 4656,
      "ĠØ³Ø±Ø¯Ø±Ú¯Ùħ": 4657,
      "ĠØªØ£Ø«ÛĮØ±": 4658,
      "ĠØ³ÙĪØ±Ù¾Ø±Ø§ÛĮØ²": 4659,
      "ĠÙĤØµØ¯": 4660,
      "ĠÚ¯Ø§ÙĪØ¯Ø§Ø±ÛĮ": 4661,
      "ĠÙĤÙĪØ§ÙĨÛĮÙĨ": 4662,
      "ĠØµÙĦÛĮØ¨": 4663,
      "ĠÙĨØ´ÛĮÙħÙĨ": 4664,
      "ĠØ¨ÙĪÚ©Ø³ÛĮ": 4665,
      "ĠØ§ØºÙĦØ¨": 4666,
      "ĠÙĪÚ¯Ø±ÙĨÙĩ": 4667,
      "ĠØªÙĪØ§ÙģÙĤ": 4668,
      "ĠØ¬Ø§Ø¨Ø¬Ø§": 4669,
      "ĠÚ©ÙĨØªØ±ÙĦ": 4670,
      "ĠÚĨÙĩØ§Ø±Ø´ÙĨØ¨Ùĩ": 4671,
      "ĠØ§Ø³Ú©ÙĪØªØ±": 4672,
      "Be": 4673,
      "ĠâĢĿ": 4674,
      "ĠBe": 4675,
      "ĠØ£": 4676,
      "ÙħØ§Ø´ÛĮÙĨ": 4677,
      "ĠØ¨ÙĪÙħ": 4678,
      "ĠØ§Ø±Øª": 4679,
      "ĠØ§Ø«Ø±": 4680,
      "ÙĨØ¯Ú¯ÛĮ": 4681,
      "ĠØ±Ø³": 4682,
      "ĠØ±Ú¯Ùĩ": 4683,
      "Ø¨Ø±Ùħ": 4684,
      "âĢĮØĮ": 4685,
      "ĠÙĪÙĦ": 4686,
      "ĠÙĪØ§Ø¯Ø§Ø±": 4687,
      "ĠØªØ¯": 4688,
      "ĠÙħÛĮØ²Ø¯": 4689,
      "ĠÙħÛĮÚ©ÙĨÙĩ": 4690,
      "ĠØ®Ø¯": 4691,
      "ĠØ¢ÙĦÛĮØ³": 4692,
      "ĠØ¨ÙĩØ¨ÙĪØ¯": 4693,
      "ĠÙ¾ÛĮÙħ": 4694,
      "ĠÙ¾Ø§Ø´ÛĮ": 4695,
      "ÙĩØ§Ø³Øª": 4696,
      "ĠØ±Ø§Ø¨ÛĮ": 4697,
      "ĠÙĨÛĮØ´": 4698,
      "Ø®ÙħÛĮ": 4699,
      "ĠÚ¯Ø§Ø±ÛĮ": 4700,
      "ĠØ³Ø±Ùħ": 4701,
      "ĠØ´ÙĦ": 4702,
      "ĠØ¯ÙĪØ³": 4703,
      "ĠØ²ÙĦ": 4704,
      "ĠØ²ÙĨØ¬": 4705,
      "ĠØ²ÙĨÛĮ": 4706,
      "ĠØ²Ø´ØªÛĮ": 4707,
      "ĠÙĩÙħØ¯ÛĮÚ¯Ùĩ": 4708,
      "ĠØ¬Ø²": 4709,
      "ĠØ¬ÙĪÚ©": 4710,
      "ĠØ±ÙĪØ²Ú¯Ø§Ø±": 4711,
      "ĠØ¢ÙĨÙĩØ§Ø³Øª": 4712,
      "ĠÚĨØ§ÛĮÛĮ": 4713,
      "ĠØ¨Ø±Ø§Ø¨Ø±": 4714,
      "Ø§Ø¨Ø¯": 4715,
      "Ø§Ø¨Øª": 4716,
      "ĠØ®ÙĪØ´Ø§ÛĮÙĨØ¯": 4717,
      "ĠØªÙĪÙĨÛĮ": 4718,
      "ĠØªÙĪÙĤÙģ": 4719,
      "ĠÙģØ§": 4720,
      "ĠÙĤØ±": 4721,
      "ĠÙĤØ§ÙĨ": 4722,
      "ĠÙĦÛĮÙħÙĪÛĮ": 4723,
      "ĠØ¯ÛĮØ¯Ø§Ø±": 4724,
      "ĠÚ©ÙĪØ±": 4725,
      "ĠØ¨Ø±Ø§ÛĮØªØ§ÙĨ": 4726,
      "ĠØ¹Ø±": 4727,
      "ĠØµØ±Ùģ": 4728,
      "Ø¨ÛĮØ§ÛĮ": 4729,
      "ĠÚ©ÙħØªØ±": 4730,
      "ØªÙĪØ§ÙĨØ³ØªÙĩ": 4731,
      "ĠØ²ÛĮÙ¾ÛĮ": 4732,
      "ĠØªÙĪÙ¾Ø´Ø§ÙĨ": 4733,
      "ĠÙĨÚ¯ÙĩØ¯": 4734,
      "ĠØ¨Ø¹Ø¯Ø§Ø²": 4735,
      "ĠØ¨Ø§Ø´ÙĨ": 4736,
      "ĠØ¨Ø¯Ø§ÙĨÙĨØ¯": 4737,
      "ĠÚ©Ø§Ø±Ø®Ø§ÙĨÙĩ": 4738,
      "ĠØ§ØŃØ³Ø§Ø³Ø§Øª": 4739,
      "ĠÚĨÛĮØ²Ø§ÛĮÛĮ": 4740,
      "ĠØµØ¯Ø§Ø´": 4741,
      "ĠÛĮØ§Ø¯Ø¢ÙĪØ±": 4742,
      "ĠØ¢ÙħØ¯ÛĮ": 4743,
      "Ø¹ÛĮØª": 4744,
      "ĠÙĨØ§Ø²": 4745,
      "ĠØ¨Ø§Ø²Ø´": 4746,
      "ĠØ¨Ø§Ø²ÛĮÚ©": 4747,
      "ĠÙĦÙĪØ¨ÛĮØ§ÛĮ": 4748,
      "ĠÙĨÛĮÙĪÙħØ¯": 4749,
      "ĠÙĨØ¯Ø§Ø±Ùĩ": 4750,
      "ĠØ¯ÙĪØ±ØªØ±": 4751,
      "ĠÙĨØ²Ø¯ÛĮÚ©Ø´": 4752,
      "ĠØ¨Ø§Ø¨Ø±": 4753,
      "ĠØ§ÙģØªØ§Ø¯ÙĨ": 4754,
      "Ø´ÙĨØ¨Ùĩ": 4755,
      "ĠØ¨Ø§ÙĦØ´Øª": 4756,
      "ĠÚ©ÛĮØª": 4757,
      "ĠÚ©ÛĮØ³Øª": 4758,
      "ĠÙĨØ´Ø§ÙĨØ´": 4759,
      "ÙĦÙĪÙħ": 4760,
      "ÙĭØŁ\"": 4761,
      "ĠØªÙĨØ§": 4762,
      "ĠØªÙĨÙĪÙħÙĨØ¯": 4763,
      "ĠØ´Ú©Ùħ": 4764,
      "Ø¨Ø±ÛĮÙħ": 4765,
      "Ú¯ÛĮØ±Ùħ": 4766,
      "ĠØ¨Ø¨ÛĮÙĨÙħØ´": 4767,
      "ĠØ¬Ø§Ø¯ÙĪÛĮ": 4768,
      "ĠØ¨Ú¯Ø°Ø±Ø§ÙĨØ¯": 4769,
      "ĠØ§ÙĨØ±ÚĺÛĮ": 4770,
      "ĠØ®ÙĪØ±Ø´ÛĮØ¯ÛĮ": 4771,
      "ĠØ¨Ø¯ÙĩÛĮØ¯": 4772,
      "ĠÙħØ¹Ø±ÙģÛĮ": 4773,
      "ĠØ¬ÙĪØ§Ø¨ÛĮ": 4774,
      "Ù¾Ø±Ø³ÛĮØ¯": 4775,
      "ĠÙĦØ¨Ø§Ø³Ø´": 4776,
      "ĠØªÙĨÙĩØ§Ø³Øª": 4777,
      "ĠÙĨÚ©Ø±Ø¯ÙĨ": 4778,
      "ĠØ¢Ø±Ø²ÙĪÛĮØ´": 4779,
      "Ø¯ÙĩÛĮ": 4780,
      "ĠÙ¾ÙĪØ´ÛĮØ¯ÙĨ": 4781,
      "ĠØ¨Ø³ØªÙĨ": 4782,
      "ĠØ¢Ø´Ù¾Ø²Ø®ÙĪÙĨÙĩ": 4783,
      "Ø¯Ø§Ø±ÙĨØ¯": 4784,
      "ĠØ±ÙĪØ´ÙĨÛĮ": 4785,
      "ĠÚ©Ø§ØºØ°ÙĩØ§": 4786,
      "ĠÙģØ±Ø¯ÛĮ": 4787,
      "ĠÙħØ±ØºØ§Ø¨Ú©": 4788,
      "ĠÙħØ®Ø§ÙĦ": 4789,
      "ĠØ¯ÛĮÙĪØ§Ø±ÙĩØ§": 4790,
      "ĠÙħÙĤÙĪØ§ÛĮÛĮ": 4791,
      "ĠØ¯Ø±ÛĮØ§ÙĨÙĪØ±Ø¯": 4792,
      "ĠØ²ÙĨØ¨ÙĪØ±ÙĩØ§": 4793,
      "ĠØ®Ø§Ø±Ù¾Ø´Øª": 4794,
      "ĠÚĨØ´ÛĮØ¯": 4795,
      "ĠÙħØ¯Ø§Ø¯ÙĩØ§ÛĮ": 4796,
      "ĠØ·ÙĨØ§Ø¨ÛĮ": 4797,
      "Ø§ÙģØªØ§Ø¯": 4798,
      "ĠÙĨØ¯Ø§Ø¯ÙĨØ¯": 4799,
      "ĠÙ¾Ø§Ø¯Ø§Ø´": 4800,
      "ĠÙħÙĪØªÙĪØ±Ú©": 4801,
      "ĠÙ¾Ø°ÛĮØ±ÙģØª": 4802,
      "Ø§ÙħÛĮØ¯ÙĪØ§Ø±": 4803,
      "ĠØ¯Ø²Ø¯ÛĮ": 4804,
      "ĠØ®ÙĦØ§ÙĤØ§ÙĨÙĩ": 4805,
      "ĠÙĪØ§ÙĦØ¯ÛĮÙĨØ´Ø§ÙĨ": 4806,
      "ĠÙĨÙģØ³Ø´": 4807,
      "ÙħØªØ§Ø³ÙģÛĮÙħ": 4808,
      "ĠØ§ÙĪÙĨØ¬Ø§Ø³Øª": 4809,
      "ĠØ´ÛĮØ·ÙĨØª": 4810,
      "ĠÙħØŃØ¨ÙĪØ¨Ø´": 4811,
      "ÙħØ±Ø§ÙĤØ¨": 4812,
      "ĠÙħÙĨØ§Ø³Ø¨ÛĮ": 4813,
      "ĠÙĨØµØ¨": 4814,
      "ĠØ´Ø±ÙħÙĨØ¯Ùĩ": 4815,
      "ĠØ·ÙĦØ³Ùħ": 4816,
      "ĠØ¨ÛĮØ§ÙĪØ±ÙĨØ¯": 4817,
      "ĠØ¨ÙĨÙĪØ´ÙĨØ¯": 4818,
      "ĠØªØ²Ø¦ÛĮÙĨØ§Øª": 4819,
      "ĠØ³ÙĪØ³ÙĨ": 4820,
      "ĠÙħØ¤Ø¯Ø¨Ø§ÙĨÙĩ": 4821,
      "ĠØ¬ÙĦØ¨": 4822,
      "Ø¢ÙħÙĪØ²": 4823,
      "ĠÙĨÛĮØ±ÙĪÛĮ": 4824,
      "ĠØªÙĩÛĮÙĩ": 4825,
      "ĠØ·Ø¨ÛĮØ¹ÛĮ": 4826,
      "ĠØ·Ø¨ÛĮØ¹Øª": 4827,
      "ĠØ¨Ú©Ø´Ùĩ": 4828,
      "ĠØ±Ø§Ø¬Ø¹": 4829,
      "ĠÙĨØ§Ø´ÙĨØ§Ø®ØªÙĩ": 4830,
      "ĠÙ¾ÙĦÛĮÙĪØ±": 4831,
      "ĠØ¨ÙĦÙĨØ¯ÙĤØ¯": 4832,
      "ĠØ±ÙĤØ§Ø¨ØªÛĮ": 4833,
      "ĠØ®Ø´Ø®Ø§Ø´": 4834,
      "ĠÙħØ·ÛĮØ¹": 4835,
      "ĠÙħÙĤØ§ÙĪÙħØª": 4836,
      "ĠÙħØ¨Ø§Ø±Ø²Ùĩ": 4837,
      "ĠÙ¾ÛĮÙĨÚ©ÛĮ": 4838,
      "ĠØ´ØªØ±ÙħØ±Øº": 4839,
      "ĠØªØ§Ø±ÛĮØ®": 4840,
      "ĠBen": 4841,
      "ĠÙĨÚ¯ÙĩØ¯Ø§Ø±ÛĮ": 4842,
      "Ø¯ÙĨØ¯Ùĩ": 4843,
      "ĠØ¨Ø´ÛĮ": 4844,
      "ĠØ¨Ú©ÙĨÛĮ": 4845,
      "ĠØ¨Ø®ÙĪØ§ÙĩÛĮÙħ": 4846,
      "ØªÙĨ": 4847,
      "ØªØ¹": 4848,
      "ØªØ§ÙħÛĮ": 4849,
      "Ø³Ø§Ø²ÛĮ": 4850,
      "ĠÙħØ¹Øª": 4851,
      "ÙĦÙĪÛĮÛĮ": 4852,
      "Ø²ÛĮØ¯ÙĨ": 4853,
      "ĠØ±Ø³Øª": 4854,
      "Ø¨ÛĮÙĨÛĮ": 4855,
      "Ø¨Ø°Ø§Ø±": 4856,
      "Ø¨Ø®Ø´Ùħ": 4857,
      "ĠØªØ®ÛĮÙĦÛĮ": 4858,
      "ĠØªÙģØ§ÙĪØª": 4859,
      "ĠÙħÛĮÙĦÛĮ": 4860,
      "ĠÙħÛĮØ´Ø¯": 4861,
      "ĠÙħÛĮØ±ÙģØª": 4862,
      "ĠÙħÛĮØ´ÙĦ": 4863,
      "ĠØ¢ØºÙĦ": 4864,
      "ĠØ¢Ø®ÙĪØ±": 4865,
      "ĠØ¢ÙħÛĮØ²ÛĮ": 4866,
      "ÛĮØ¯ÛĮØ§": 4867,
      "ÙģÙĪØ³": 4868,
      "ĠÙ¾ÚĨ": 4869,
      "ĠÙ¾Ø¯ÛĮØ¯": 4870,
      "ĠÙ¾Ø§ÙģÛĮ": 4871,
      "ĠÙ¾Ø§ÙĦØª": 4872,
      "ĠÙĨØ±ÙģØª": 4873,
      "ĠÚ¯ÙĦÛĮ": 4874,
      "ĠÚ¯ÙħØ´": 4875,
      "ÙĦÛĮØ³Ø¯": 4876,
      "ĠØ³ÛĮÙĨÙĩ": 4877,
      "ĠØ±ÙĪÙģÙĪØ³": 4878,
      "ĠÙĩÙĪØ±Ø§": 4879,
      "ĠØ¯Ø±Ùĩ": 4880,
      "ĠØ¯Ø±Ø§Ùħ": 4881,
      "ĠØ²Ø®ÙħÛĮ": 4882,
      "ĠØ¨Ø§Ø²ÛĮÚĨÙĩ": 4883,
      "ÙĪØ§Øµ": 4884,
      "ĠØ¨Ø±Ø³": 4885,
      "Ù¾ÛĮØ¯": 4886,
      "ĠØªÙĪØ¦Ùĩ": 4887,
      "ÙĪÙĨÙĨ": 4888,
      "ĠÚ¯Ø±ÙħØ´": 4889,
      "ĠÙĦÙĤ": 4890,
      "ĠÙĦÛĮØ¯ÛĮØ§": 4891,
      "ĠÙģÛĮÙĨÛĮ": 4892,
      "Ú©Ø±Ø¯ÛĮÙħ": 4893,
      "ĠØªØ§Ø³Ùģ": 4894,
      "ĠØºØ¨Ø§Ø±": 4895,
      "ĠØºÙĪØ§Øµ": 4896,
      "Ø±ÛĮØ²ÛĮ": 4897,
      "Ø±ÛĮÙĤ": 4898,
      "ÙĪØ´ÙĪÙĨ": 4899,
      "ĠØ¯ÙĪØ³ØªØ§ÙĨÙħ": 4900,
      "ĠÙħØ§ÙĨØ¯ÙĨ": 4901,
      "Ø¸ÙĩØ±": 4902,
      "Ø®ÙĨØ¯Ø§ÙĨØ¯": 4903,
      "ĠÙĨÚ¯Ø§ÙĩØ´": 4904,
      "ĠØ§ÙĪÙĨÙħ": 4905,
      "ĠÙħØ§ÙħØ§ÙĨÙħ": 4906,
      "ĠØŃØ§ÙĦØ´Ø§ÙĨ": 4907,
      "ĠÙħÙĪØ²ÛĮ": 4908,
      "ĠØ·Ø¨": 4909,
      "ĠØ§Ø´ÛĮØ§": 4910,
      "ĠÙĨØ§ÙĩØ§": 4911,
      "ĠÙĦÙĪÙ¾": 4912,
      "Ø¶Ùĩ": 4913,
      "ĠØ¨ÛĮØ§Ùħ": 4914,
      "ĠØ¨ÛĮØ¨ÛĮ": 4915,
      "ĠØ®ÙĪØ§Ø³ØªÙħ": 4916,
      "ĠÙĩØ³ØªÙĨ": 4917,
      "Ø§ÙĪØ¶Ùĩ": 4918,
      "ĠØ§ØªØ§ÙĤÛĮ": 4919,
      "ĠØ§ØªØ§ÙĤØª": 4920,
      "Ø´ÙĨÛĮØ¯": 4921,
      "Ø¯Ø§ÙĨØ³ØªÙħ": 4922,
      "Ø§Ø²ÛĮÙħ": 4923,
      "ĠØªØ¹Ø¸ÛĮÙħ": 4924,
      "ĠØ¨Ø§ÙĦÚ¯Ø±Ø¯": 4925,
      "ĠØ®ÙĪØ¨Ùħ": 4926,
      "ĠÚ¯ÙĪØ´Ø´": 4927,
      "Ø´ÙħÙĨØ¯": 4928,
      "ĠØ´Ú©Ø§ÛĮØª": 4929,
      "ĠØ¨Ù¾Ø§Ø´": 4930,
      "ĠØ¨Ù¾Ø²Ø¯": 4931,
      "ĠØªØ§Ø¨ÙĦÙĪÛĮÛĮ": 4932,
      "ÙĨØ´ÛĮÙĨÙĨØ¯": 4933,
      "ĠØ³Ù¾Ø±": 4934,
      "ĠØ§ÙĨØ¯ÙĪÙĩ": 4935,
      "ĠØ³Ø±Ø³Ø®Øª": 4936,
      "ÚĨØ±Ø®Ø§ÙĨØ¯": 4937,
      "ĠÚ©Ø§Ù¾": 4938,
      "ĠÙĤÙĦÙĤÙĦ": 4939,
      "Ø®ÙĪØ¨Ùĩ": 4940,
      "ĠÙĦØ¨Ø§Ø³ÛĮ": 4941,
      "ĠÙħØªÙĨÙģØ±": 4942,
      "ĠØ·Ø±ÙģØ´": 4943,
      "ĠÚ¯ÛĮØ±Ùĩ": 4944,
      "Ú¯Ø±Ø¯Ø§ÙĨØ¯": 4945,
      "ĠØºØ±ÙĤ": 4946,
      "ÙĪØ·Ùĩ": 4947,
      "ĠÙĩÙĨØ±ÛĮ": 4948,
      "ĠÙħØ§ÙĦØ´": 4949,
      "ĠÙħØ§ÙĦÛĮØ¯": 4950,
      "ĠÙ¾ÙĨÙĩØ§ÙĨÛĮ": 4951,
      "ĠØ¨Ø±Ø¬Ø´Ø§ÙĨ": 4952,
      "ĠÙĩØ¯Ùģ": 4953,
      "ĠÙ¾Ø§Ø³ØªØ§": 4954,
      "ĠØ¢ØºØ§Ø²": 4955,
      "ĠØ¹Ø§ÙĦÛĮÙĩ": 4956,
      "ÛĮÙģÙĩ": 4957,
      "ĠØ¯ÙĪØ³ØªØ§Ø´ÙĪÙĨ": 4958,
      "ĠÚ©Ø«ÛĮ": 4959,
      "ĠÙĩÙħØ±Ø§ÙĩÛĮ": 4960,
      "ĠØ§Ø¨Ø±ÙĤÙĩ": 4961,
      "ĠÚ©Ø§ÙħÙĦÛĮ": 4962,
      "ĠÚ©Ø§ÙħÙ¾ÛĮÙĪ": 4963,
      "Ø£Øª": 4964,
      "ĠÙħØ§Ø¬Ø±Ø§Ø¬ÙĪ": 4965,
      "ĠØ§Ø¶Ø§ÙģÛĮ": 4966,
      "ĠÙĤØ¯Ø±ØªØ´": 4967,
      "ĠÙħØªØ§Ø³ÙģÛĮÙħ": 4968,
      "ĠØ·ÙĪÙģØ§ÙĨÛĮ": 4969,
      "Ø®ÙĪØ§ÙĨÙĨØ¯": 4970,
      "ĠØ®ÙħØ±Ùĩ": 4971,
      "ĠØªÙĪÙĨÛĮÙħ": 4972,
      "ĠØ¹ÙĤØ¨ÛĮ": 4973,
      "ĠØ¨Ø±ÙĤØµÙĩ": 4974,
      "Ú¯Ø±ÙģØªÙĨØ¯": 4975,
      "ĠÛĮØ§Ø¯Ø¯Ø§Ø´ØªÛĮ": 4976,
      "ĠØ¨Ú¯Ø±Ø¯ÛĮÙħ": 4977,
      "ĠØ§ÛĮØ³ØªØ§Ø¯ÙĨØ¯": 4978,
      "ĠØ¨Ø§ÙĪØ±Ø´": 4979,
      "ĠÙĨÙĪØ§Ø®ØªÙĨØ¯": 4980,
      "ĠØ³Ù¾Ø§Ø³Ú¯Ø²Ø§Ø±ÛĮ": 4981,
      "âĢİ.": 4982,
      "ĠÙĨØ§Ø¯Ø±ÛĮ": 4983,
      "ĠÙħØµÙħÙħ": 4984,
      "ĠÚĨØ±Ù¾": 4985,
      "ĠØ¯Ø±Ø®Ø´ÛĮØ¯ÙĨ": 4986,
      "ĠÙĪÙģÙĦÛĮ": 4987,
      "ĠÙĪÙģØ§Ø¯Ø§Ø±": 4988,
      "ĠØ¢ÛĮÙĪÛĮ": 4989,
      "ĠÙģØ±ÙĪØ¯Ú¯Ø§Ùĩ": 4990,
      "ĠØµÙģØŃØ§Øª": 4991,
      "ĠÙģÚ©Ø±ÛĮ": 4992,
      "ĠÙ¾ÛĮÙ¾ÛĮÙĨ": 4993,
      "ĠÙħØªØŃÛĮØ±": 4994,
      "Ú¯Ø°Ø§Ø´ØªÙĨØ¯": 4995,
      "ĠÙĨÙĪÚ©Ø´": 4996,
      "ĠÙĦÙĪÙĦØ§": 4997,
      "ĠÙĨÛĮØ§ÙĪØ±Ø¯": 4998,
      "ĠØ¨ÙħÙĪÙĨÙĩ": 4999,
      "ĠÙĪØ¸ÛĮÙģÙĩ": 5000,
      "ĠÚĨÙħØ¯Ø§ÙĨ": 5001,
      "ĠÚĺÙĦÙĩ": 5002,
      "ĠØ®Ø§Ø·Ø±Ø§Øª": 5003,
      "ĠØ¨ÙģØ±Ø³Øª": 5004,
      "Ú¯Ø°Ø±ÙĪÙĨØ¯ÙĨ": 5005,
      "ĠÙħØ²Ø§ØŃ": 5006,
      "ĠÙģÙĪÙĦØ§Ø¯ÛĮ": 5007,
      "ĠØ®Ø±Ø·ÙĪÙħ": 5008,
      "ĠÙħÙĩØ§Ø±Øª": 5009,
      "ĠÙ¾Ø§ÙģØ´Ø§Ø±": 5010,
      "ĠØ¶Ø®ÛĮÙħ": 5011,
      "ĠØ§Ø±ØªÙģØ§Ø¹": 5012,
      "ĠØ®Ø¯ÙħØª": 5013,
      "ĠÙ¾ÛĮÙħØ§ÙĨÙĩ": 5014,
      "ĠÙĤØ§ÙĨÙĪÙĨ": 5015,
      "ĠØ¨Ø¹Ø¯Ø§Ø²Ø¸ÙĩØ±": 5016,
      "ĠØ¨Ø§Ø²ÛĮÚ©ÙĨ": 5017,
      "ĠØ±Ø³ØªÙĪØ±Ø§ÙĨ": 5018,
      "ĠÙ¾Ø¯ÛĮØ¯Ø§Ø±": 5019,
      "ĠÚ©Ø§ÙħÙ¾ÛĮÙĪØªØ±": 5020,
      "An": 5021,
      "Ø§Ø¹": 5022,
      "Ø§Øµ": 5023,
      "ÙĪÙģØ§": 5024,
      "Ø¯ÙĤØª": 5025,
      "ÙĨØ¨Ø§Øª": 5026,
      "Ø±Ø²Ùĩ": 5027,
      "Ø±Ø§ÛĮÛĮ": 5028,
      "ÙĩÙĨ": 5029,
      "ĠØ¨Ø´ÙĪØ¯": 5030,
      "ĠØ¨ØªØ±Ø³Ø§ÙĨØ¯": 5031,
      "Ú©ØªÛĮ": 5032,
      "Ú©Ø¯Ùĩ": 5033,
      "Ú©ÙĪØ³": 5034,
      "ØªÙĪØ¬Ùĩ": 5035,
      "ØªÙĪÙĤÙģ": 5036,
      "ĠØ§ÙĤ": 5037,
      "ĠØ§Ø¨ÛĮ": 5038,
      "ĠØ§Ø¯Ø±ÛĮ": 5039,
      "ĠÙħØ¨Ùĩ": 5040,
      "ĠÙħÙĪÛĮ": 5041,
      "ĠÙħÙĤØµ": 5042,
      "ĠÙħØ²Ø§Ø±": 5043,
      "ĠÚ©Ø¯": 5044,
      "ĠÚ©Ø±ÛĮÙħ": 5045,
      "ĠØ¯Ú©Ùĩ": 5046,
      "ĠØ±Ú©Ø³": 5047,
      "ĠØ±Ø§ÙĨÛĮ": 5048,
      "ĠØ±ÙħØ§ÙĨ": 5049,
      "ĠØ±Úĺ": 5050,
      "ĠØ±Ø³Ø§ÙĨØ¯": 5051,
      "âĢ«": 5052,
      "Ø¨Ø±Ùĩ": 5053,
      "âĢĮ.âĢĮ": 5054,
      "Ø±Ø¯Ø§ÙĨÛĮ": 5055,
      "ĠØªØ§ÛĮ": 5056,
      "ĠØªØ±Ùħ": 5057,
      "ĠØªØ±Ø§Ùģ": 5058,
      "ĠØªÙħØ§Ø³": 5059,
      "ĠØªØ±Ø§Ú©ÛĮ": 5060,
      "ĠØ¨Ø§ÙĦÙĩ": 5061,
      "Ø§ÙĨÛĮÙħ": 5062,
      "Ø³ØªØ§ÙĦ": 5063,
      "ĠÙħÛĮØ¯Ø§Ø¯": 5064,
      "ĠÙħÛĮØªÙĪÙĨÛĮÙħ": 5065,
      "ĠØ®Ø¯Ø§": 5066,
      "ĠØ®ÙĦÙĤ": 5067,
      "ĠØ¢Ø±Ø¯": 5068,
      "ĠØ¢ØªÛĮ": 5069,
      "ØĮ\"": 5070,
      "ĠÙ¾ÙĦØ§": 5071,
      "ĠÙ¾Ø§ÙĨØ¯": 5072,
      "ÙĩØ§Øª": 5073,
      "ĠÙĨØ§Ø´ÛĮ": 5074,
      "ĠÙĨÙĪØ¹": 5075,
      "Ø®ÙĪØ±ÛĮ": 5076,
      "ĠØ³Ú©": 5077,
      "ĠØ´Ø´": 5078,
      "ĠØ´Ø·Ø±": 5079,
      "ĠØ±ÙĪØ¨Ø±ÙĪ": 5080,
      "Ø§Ø´Ú©": 5081,
      "ĠØ¯Ø±Ø¨": 5082,
      "ĠØ¯Ø±ÙĩØ§": 5083,
      "ĠØ¯ÙĪÙĨ": 5084,
      "ĠØ¯ÙĪØ³Ø±": 5085,
      "ĠØ¯ÙĪØªØ§": 5086,
      "ÙĤØ§Ø¯": 5087,
      "Ø§ÛĮØ³Øª": 5088,
      "ĠØ²ÙĪØ¬": 5089,
      "Ø¬Ø§ÛĮÛĮ": 5090,
      "ĠØ±ÙĪØ²Ø´Ø§ÙĨ": 5091,
      "ÙĪØ§ÙĤØ¹": 5092,
      "ĠÚĨØ³Ø¨Ø§": 5093,
      "ĠØ¨Ø±Ú©Ùĩ": 5094,
      "ĠØ¨Ø±Ø§ÛĮÙħ": 5095,
      "ĠÙ¾Ø±Ø®Ø§Ø´": 5096,
      "Ù¾Ø´ØªÛĮ": 5097,
      "ÛĮØ±ÛĮØª": 5098,
      "ÙħÛĮÙĦ": 5099,
      "ĠØŃØ¨Ø³": 5100,
      "ĠÚ©ÙĨØ¯ÙĨØ¯": 5101,
      "ÙħØ§Ú©Ø³": 5102,
      "ĠÙģÙĪØª": 5103,
      "ĠÙģØ±ÙħØ§ÙĨ": 5104,
      "ĠØ¯ÛĮØ¯ÙħØ´": 5105,
      "ØªØ±Ø³Ø¯": 5106,
      "ØªØ±Ø³Ùħ": 5107,
      "Ø±ÙĪØ³ÛĮ": 5108,
      "ĠØ¹Ø±ÙĪØ³ÛĮ": 5109,
      "ĠÙħÙĨØ¸ÙĪØ±": 5110,
      "Ø±ÛĮØ²Ø¯": 5111,
      "ĠØµÙĪØª": 5112,
      "ÙĪÛĮÛĮØ¯": 5113,
      "ĠÙ¾Ø³Ø±Ùĩ": 5114,
      "ĠÚ©ÙħØ±Ø´": 5115,
      "ĠØ±ÙĪÛĮØ§ÛĮ": 5116,
      "ĠÚ©ÙħÚ©Ø´Ø§ÙĨ": 5117,
      "ĠØ³ÙĪØ²": 5118,
      "ĠÚ¯Ø±ÙģØªÙħ": 5119,
      "Ø²Ø¯Ø¯": 5120,
      "ĠØ¯ÙĪØ³ØªØ§ÙĨÙħØ§ÙĨ": 5121,
      "ÙĦØ§Ùģ": 5122,
      "ĠØ¨Ø¯Ø²Ø¯Ø¯": 5123,
      "ĠÙĩØ±Ø¨Ø§Ø±": 5124,
      "ĠÚ¯Ø°Ø§Ø±": 5125,
      "ĠÚ¯Ø°Ø±Ø§ÙĨÙĨØ¯": 5126,
      "ĠÙ¾Ø§Ø±Ú©ÛĮ": 5127,
      "ĠØ³Ø±Øª": 5128,
      "ĠØ³Ø±ÙħØ§": 5129,
      "ĠÚĨÛĮØ²Ø§": 5130,
      "Ø¢ÙĦØ§Øª": 5131,
      "ĠØ¨Ø§Ø²ÙĪÛĮØ´": 5132,
      "ĠÙĦÙĪÚ©Ø§": 5133,
      "ĠØ¨ÛĮØ³Ø¨": 5134,
      "ĠØ®ÙĪØ§Ø³ØªÙĨ": 5135,
      "ĠØ®ÙĪØ§Ø³ØªÙĩ": 5136,
      "ĠØ´ÙĨÛĮØ¯ÙĨ": 5137,
      "ĠØ³ÙħØªØ´": 5138,
      "ĠÙĨØ¯Ø§Ø±ÛĮÙħ": 5139,
      "ĠØ¨Ø§Ø±Ø§ÙĨÛĮ": 5140,
      "ĠØ®ÙĨØ¯ÙĨØ¯": 5141,
      "ĠÙĩØ§ÛĮÙħ": 5142,
      "ĠØ®ÙĪØ§ÙĩØ±Øª": 5143,
      "ĠØ´ÛĮØ±ÛĮ": 5144,
      "ĠØ´ÛĮØ±Ø¬Ùĩ": 5145,
      "ĠÙħÙĩØ±Ø¨Ø§ÙĨØ´": 5146,
      "ĠÙħÙĩØ±Ø¨Ø§ÙĨØ§ÙĨÙĩ": 5147,
      "ĠÙģØ±Ø¶": 5148,
      "ĠÙģØ±Ø³ØªØ§Ø¯": 5149,
      "ØºÙĦØª": 5150,
      "ĠÙħØ¯ÛĮØ±ÛĮØª": 5151,
      "ĠØ¯ÙĩÚ©Ø¯Ùĩ": 5152,
      "ĠØ®ÙĪØ¯Ø´ÙĪÙĨ": 5153,
      "ĠÙ¾ÛĮÙĦÙĩ": 5154,
      "ĠØ´Ú©Ø§Ø±": 5155,
      "ĠØ´Ú©ÙģØª": 5156,
      "ĠØ´Ú©ÙģØªÙĩ": 5157,
      "ĠØ´Ú©ÙĪÙģØ§": 5158,
      "ĠØªÙĦÙģ": 5159,
      "ĠÙħØŃÚ©": 5160,
      "ĠØªÙĪØ§ÙĨØ§ÛĮÛĮ": 5161,
      "ĠØ´ÙħØ§ÙĦÛĮ": 5162,
      "ĠØ¨Ø§Ø¯Ø¨Ø§ÙĨ": 5163,
      "ĠØªØ§Ø¨ÛĮØ¯": 5164,
      "ĠØ¨Ú¯Ø°Ø±Ø§ÙĨ": 5165,
      "ĠØ®ÙĪØ§Ø¨ÛĮØ¯ÙĨØ¯": 5166,
      "ĠÙħØ¹ÙĦÙĪÙħ": 5167,
      "ĠÙħØ¹Ø§ÙĪØ¶Ùĩ": 5168,
      "ĠÙĨØ¯Ø§Ø´ØªÙĩ": 5169,
      "ĠÚ©Ø§Ø®": 5170,
      "Ù¾Ø±Ø³ÙĨØ¯": 5171,
      "ĠØ°Ø±Øª": 5172,
      "ĠÚ¯Ø±ÙħØ§ÛĮ": 5173,
      "ĠÙĨÚ©Ø±Ø¯Ùħ": 5174,
      "ĠØ³ÙĨØ¬Ø§Ø¨ÛĮ": 5175,
      "ĠØªÙĨØ¯ØªØ±ÛĮÙĨ": 5176,
      "ĠØªØ±Ø³ÙĪ": 5177,
      "ĠÚ¯ÛĮØ±ÛĮ": 5178,
      "ĠØ¨Ø®ÙĪØ§Ø¨ÛĮ": 5179,
      "Ø¯Ø§Ø±Ùħ": 5180,
      "ĠØµØŃØ±Ø§ÛĮÛĮ": 5181,
      "ĠÙĨÚ¯Ø±ÙģØª": 5182,
      "Ø²ÙħØ§ÙĨÛĮ": 5183,
      "ĠÙħØ´Ú©ÛĮ": 5184,
      "ĠØ§ÙħÙĪØ§Ø¬": 5185,
      "ĠØ¯ÙĦÙħ": 5186,
      "ĠØŃÙħØ§ÛĮØª": 5187,
      "ĠØ¯ÙĨØ¯Ø§ÙĨØ´": 5188,
      "ĠØ²ÙĨØ¨ÙĪØ±ÙĩØ§ÛĮ": 5189,
      "ĠÚ©ÙģØ´Ø§Ø´": 5190,
      "ĠÙħØ¯Ø±ÙĨ": 5191,
      "ĠØ§Ø¹ØªÙĤØ§Ø¯": 5192,
      "ĠØ¯ÙĪÙĤÙĦÙĪÙĩØ§ÛĮ": 5193,
      "ĠØ¯Ø±Ø¢ÙĪØ±Ø¯ÙĨØ¯": 5194,
      "ĠÙĪØ³Ø§ÛĮÙĦØ´": 5195,
      "Ø±ÙĤØµÛĮØ¯ÙĨ": 5196,
      "ĠØ¨Ø´ÙĨÙĪÛĮ": 5197,
      "ĠØ®Ø·Ø±ÙĨØ§Ú©ÛĮ": 5198,
      "ĠØªØµØ§ÙĪÛĮØ±ÛĮ": 5199,
      "ĠØ¯ÙĨÛĮØ§Ø³Øª": 5200,
      "ĠØ¯Ø²Ø¯Ø§ÙĨ": 5201,
      "ĠØ¢ÙĪÛĮØ®Øª": 5202,
      "ĠÙħØ±Ø¨Ø§ÛĮ": 5203,
      "ĠØ¨ÙĨØ¯Ø±": 5204,
      "ĠÙĩÙĪØ§Ù¾ÛĮÙħØ§ÙĩØ§ÛĮ": 5205,
      "ĠØ¨ÙħØ§ÙĨÛĮÙħ": 5206,
      "ĠØ¨ÛĮÙħØ§Ø±ÛĮ": 5207,
      "ĠÛĮÙĪÚ¯Ø±": 5208,
      "ĠØ³ÛĮØ±ÛĮÙĦ": 5209,
      "ĠÙĨØ®ÙĪØ±Ø¯Ùĩ": 5210,
      "ĠÚĨØ³Ø¨ÛĮØ¯Ùĩ": 5211,
      "ĠÙģØ¶ÙĪÙĦ": 5212,
      "Ġin": 5213,
      "ĠØ¨Ø¯Ø§Ø®ÙĦØ§ÙĤÛĮ": 5214,
      "ĠÙ¾ØªÙĪÛĮØ´": 5215,
      "ĠØªÙĪÙĦØ¯Ø´": 5216,
      "ĠØ¢ÛĮØ³": 5217,
      "ĠØ¨ÛĮØ§ÙĪØ±Ùħ": 5218,
      "ĠØ¨ÙĨÙĪØ´Ø¯": 5219,
      "ĠÚ©ÚĨÙĦÛĮ": 5220,
      "ĠØªÙĩÙĪØ¹": 5221,
      "ĠØ¯Ø±ØŃØ§ÙĦÛĮÚ©Ùĩ": 5222,
      "ĠØªØ¹Ø§Ø¯ÙĦØ´": 5223,
      "ĠÙĪØ¸Ø§ÛĮ": 5224,
      "ĠØ§Ø¨Ø²Ø§Ø±": 5225,
      "ĠÙĪÛĮÙĦÙĪÙĨ": 5226,
      "ĠØ¬Ø§Ø±ÙĪ": 5227,
      "ĠÚ¯Ø±ÛĮØ§ÙĨ": 5228,
      "ĠØ¯Ø±ÙĪØº": 5229,
      "ĠØ¨Ø§ØªÙĦØ§ÙĤ": 5230,
      "ĠØ®Ø§ÙħÙĩ": 5231,
      "ĠØ¯Ø±Ø¨ÛĮØ§ÙĪØ±Ø¯": 5232,
      "ĠØ§ÙģØ²": 5233,
      "ĠØ¨ÛĮØ§ÛĮÛĮÙħ": 5234,
      "ĠØªÙĤÙĦÛĮØ¯": 5235,
      "ĠÚ©Ø±ÛĮØ³ØªØ§ÙĦ": 5236,
      "ĠÙĨÙħØ§ÛĮØ¯": 5237,
      "ĠØ§Ø¶Ø·Ø±Ø§Ø¨": 5238,
      "ĠØ¯Ø´ÙĪØ§Ø±": 5239,
      "ĠØŃÛĮÙĪÙĪÙĨØ§Øª": 5240,
      "ĠØ¨Ù¾ÛĮÚĨØ¯": 5241,
      "Ú©ÙĪÚĨÙĪÙĦÙĪ": 5242,
      "ĠÙģØ±ØµØª": 5243,
      "ĠØ¬ÙĪØ§ÙĩØ±Ø§Øª": 5244,
      "ĠÙ¾ÙĩÙĨØ§ÙĪØ±": 5245,
      "ĠØ²ÙĨØ¬ÛĮØ±": 5246,
      "ĠØ¹Ø±Ø§Ø¨Ùĩ": 5247,
      "Ø§ÙħÛĮØ¯ÙĪØ§Ø±Ùħ": 5248,
      "ĠÙħØ¹ØªÙħØ¯": 5249,
      "ĠØºÙĪØ§ØµÛĮ": 5250,
      "ĠØ§Ø¨Ø±ÙĤÙĩØ±ÙħØ§ÙĨ": 5251,
      "Anna": 5252,
      "ĠÙħØ¨ÙĩÙĪØª": 5253,
      "ĠÙħØ²Ø§Ø±Ø¹": 5254,
      "ĠØ´Ø·Ø±ÙĨØ¬": 5255,
      "ÙĪØ§ÙĤØ¹Ø§": 5256,
      "ĠÙ¾Ø±Ø®Ø§Ø´Ú¯Ø±": 5257,
      "ĠÙģÙĪØªØ¨Ø§ÙĦ": 5258,
      "ĠØ¨ÛĮØ³Ø¨Ø§ÙĦ": 5259,
      "ĠAnna": 5260,
      "Ø§ÙĨØ¯Ùĩ": 5261,
      "Ø§Øº": 5262,
      "ÛĮÛĮ": 5263,
      "ÛĮØŃØª": 5264,
      "ÙĨØ§Ø±Ø§": 5265,
      "ÙĩÙħØ§ÙĨÛĮ": 5266,
      "ĠØ¨ØªÙĪÙĨÙĩ": 5267,
      "ĠØ¨Ø¬ÙĨÚ¯": 5268,
      "Ú©ÙħØª": 5269,
      "ØªÙħØ§Ø³": 5270,
      "Ø³Ø§ÙĨÛĮ": 5271,
      "ĠØ§ÛĮÚ©": 5272,
      "ĠØ§ÙħØ´": 5273,
      "ĠØ§ÙģØ´": 5274,
      "ĠØ§Ø¬Ø±": 5275,
      "ĠØ§ÙģØ³": 5276,
      "Ø´Ø³Øª": 5277,
      "Ø´ÛĮØ¯": 5278,
      "Ø´ÙĪÛĮ": 5279,
      "ĠÙħØ²Ùĩ": 5280,
      "ĠÙħØ£": 5281,
      "ĠÙħØ¹Ø¯Ùĩ": 5282,
      "ĠÚ©Ø±Ø§": 5283,
      "ÙĦØ·": 5284,
      "ÙĨØ¯ÙĪØ§ÙĨÙĩ": 5285,
      "Ø²ÙĨÙĩ": 5286,
      "Ú¯ÙĪÛĮÙħ": 5287,
      "ĠØ±ÛĮÙĩ": 5288,
      "ĠØ±ÙĪØ¯ÛĮ": 5289,
      "Ø¨ÙĨØ¯ÛĮ": 5290,
      "ĠÙĪØ§ÙĦÛĮ": 5291,
      "ĠÙĪØ²Ø´": 5292,
      "ĠØªØ§ÛĮØ±": 5293,
      "ĠØ¨Ø§ØŃ": 5294,
      "ĠØ¨Ø§Ø²Ø¯": 5295,
      "ĠÙħÛĮÙĨØ§": 5296,
      "ĠÙħÛĮØ¯Ùħ": 5297,
      "ĠÙħÛĮØªÙĨ": 5298,
      "ĠÙħÛĮÙĩÙħØ§ÙĨÛĮ": 5299,
      "ĠØ®Ø´Ùħ": 5300,
      "ĠØ¢Ø±ÙĪ": 5301,
      "ÙģØ±Ùħ": 5302,
      "ÙĩØ§ÙĩØ§": 5303,
      "ĠØ±Ø§Ø¨": 5304,
      "ĠØ±Ø§ÙĦÙģ": 5305,
      "ĠÙĨØªÛĮ": 5306,
      "ĠÙĨÚ©ÙĨÛĮ": 5307,
      "ĠÙĨØ²ÙĨØ¯": 5308,
      "ĠÙĨØªÙĪØ§ÙĨØ³ØªÙĩ": 5309,
      "Ø®ÙĪØ¨": 5310,
      "ĠÚ¯Ø§Ùħ": 5311,
      "ÙĦÛĮØ¸": 5312,
      "ĠØ§ÙĪØ§Ø²ÛĮ": 5313,
      "ĠØ³Ø§ÙĨ": 5314,
      "ĠØ³ÙģØª": 5315,
      "ĠØ³ÛĮÙĦ": 5316,
      "ĠØ³Ø§Ø¹": 5317,
      "ĠØ´Ùģ": 5318,
      "ĠØ´ÛĮÚ©": 5319,
      "ÚĨØ±": 5320,
      "ÚĨÙĪØ¨": 5321,
      "ÙģØªÚ¯ÛĮ": 5322,
      "ĠØ±ÙĪÙ¾ÙĪØ´": 5323,
      "ĠÙĩÙĨØ¯ÙĪØ§ÙĨÙĩ": 5324,
      "Ø§ÙħÙĪÙĨ": 5325,
      "ĠØ¯Ø±Ø§Ø²ÛĮ": 5326,
      "ĠÛĮÚ©Ø´ÙĨØ¨Ùĩ": 5327,
      "ĠØ®ÙĪÙĨØ¯": 5328,
      "Ø±Ú¯Ø§Ùĩ": 5329,
      "ĠØ§Ø²Ø´ÙĪÙĨ": 5330,
      "Ø¬ÙĪ": 5331,
      "Ø¬Ø¹": 5332,
      "Ø¬ÙĪØ±ÛĮ": 5333,
      "Ø§ÙĦØ´": 5334,
      "ĠØ¬Ø§Ø´": 5335,
      "ĠØ¬ÛĮØ§": 5336,
      "ĠØ¬ÙĨØ§": 5337,
      "ĠØ¬Ø³ÙĪØ±": 5338,
      "ĠÚĨØ§Ùĩ": 5339,
      "ĠÙ¾Ø±Ù¾": 5340,
      "ĠÙ¾Ø±ÙĨØª": 5341,
      "Ù¾Ø³": 5342,
      "Ù¾ÛĮÙĨ": 5343,
      "ĠØªÙĪØ±ÛĮ": 5344,
      "ÙĪÙĨØ³Øª": 5345,
      "ĠØ¨Ø²Ø±Ú¯Ùĩ": 5346,
      "ĠÙĦØ·": 5347,
      "ÙħØ§ÙĦÛĮ": 5348,
      "ĠÙģØ±Ùģ": 5349,
      "ĠÙĤØ¶": 5350,
      "ĠØ§Ø³ØªØ´Ùħ": 5351,
      "ĠÙĦÛĮØ²ÛĮ": 5352,
      "ĠØ§Ø³Ú©": 5353,
      "ĠØ§Ø³ÙĨÙĪÛĮ": 5354,
      "Ú©Ø±Ø¯Ùĩ": 5355,
      "ĠÚ©ÙĪØ¨ÛĮ": 5356,
      "Ø°ÛĮ": 5357,
      "ĠØ§ÛĮÙĨÙĪ": 5358,
      "ĠØ§ÛĮÙĨÚ©ÛĮ": 5359,
      "Ø±ÙĪØ·": 5360,
      "Ø¨Ø§Ú¯": 5361,
      "ØªÛĮØ§ÙĤ": 5362,
      "ĠØ¹Ú©Ø³ÛĮ": 5363,
      "ĠØºÙĪØ±Ùĩ": 5364,
      "ĠØºÙĦØ·": 5365,
      "ĠØºÙĦÛĮØ¸": 5366,
      "ÙĪÛĮÙĦÙĩ": 5367,
      "ĠÚ©ÙħØ±": 5368,
      "Ú¯Ø±Ø¨Ùĩ": 5369,
      "ĠØªÙĪÙ¾Ùħ": 5370,
      "ĠØ¯Ø§Ø±Ø§ÛĮ": 5371,
      "ĠÙĩØ±ÚĨÛĮ": 5372,
      "ĠØªØ±Ø§ÙĨÙĩ": 5373,
      "ĠÚ¯Ø°Ø§Ø±Ø¯": 5374,
      "ĠÚ¯Ø°Ø±ÙĪÙĨØ¯": 5375,
      "ĠÚ©Ø§Ø±ÙħÙĨØ¯": 5376,
      "ĠØ³Ø±Ú©Ø´": 5377,
      "ĠØ²ÙĨØ¯Ø§ÙĨ": 5378,
      "ĠØ¨ÙĦÙĪÙħ": 5379,
      "ĠÙħØ±Ø¯ÙħÛĮ": 5380,
      "ĠØ®ÙĪØ¯Ø±ÙĪ": 5381,
      "ĠÙħØ§Ø´ÛĮÙĨÛĮ": 5382,
      "ĠÛĮØ§Ø¯Øª": 5383,
      "ĠÙħØ§Ø¯Ø±ÙĩØ§ÛĮØ´Ø§ÙĨ": 5384,
      "ĠØ·Ø±ÛĮÙĤ": 5385,
      "ĠØ·ÙĪÛĮÙĦÙĩ": 5386,
      "ĠØ§Ø´ØªÛĮØ§ÙĤ": 5387,
      "ĠØ¨Ø§Ø²Ùħ": 5388,
      "ĠØ¬Ø¯ÛĮØ¯Ùħ": 5389,
      "ÙĪØ§Ø²Ùħ": 5390,
      "ĠÙĩÛĮÙ¾ÛĮ": 5391,
      "ĠØ¨ÛĮÚ¯ÛĮ": 5392,
      "ĠÚ©ÙĦØ³ÛĮ": 5393,
      "ĠÚ©ÙĦØ§ÙĩÛĮ": 5394,
      "ĠØ¨Ø¨ÙĨØ¯ÙĨØ¯": 5395,
      "ĠÙĨØ¨ÙĪØ¯Ùĩ": 5396,
      "Ø§ÙĪØª": 5397,
      "Ø§ÙĪÙħØ¯": 5398,
      "ĠÙħØ§ÙĩÛĮØªØ§Ø¨Ùĩ": 5399,
      "ĠÙĤØ¯Ø±Ø¯Ø§ÙĨÛĮ": 5400,
      "ĠØ±Ø§ÙĩÙ¾ÛĮÙħ": 5401,
      "Ú©ÛĮØªÛĮ": 5402,
      "ĠÚĨÛĮØ²ÙĩØ§ÛĮØ´Ø§ÙĨ": 5403,
      "ĠØ®Ø§ÙĨÙħÛĮ": 5404,
      "ĠØ´Ú©ÙĦÛĮ": 5405,
      "ĠØ´Ú©ÙĦØ§ØªÛĮ": 5406,
      "ĠØŃÛĮÙĪØ§ÙĨØ§ØªØ´": 5407,
      "ĠØ¨Ù¾Ø±ÛĮ": 5408,
      "ĠØ¨Ù¾Ø±Ø³Ø¯": 5409,
      "ĠÙ¾ÛĮØ±ÙĪØ²": 5410,
      "ĠØ¯Ø§Ø³ØªØ§ÙĨØ´": 5411,
      "Ú¯Ø°Ø´Øª": 5412,
      "ĠØ³Ø®ØªÙĩ": 5413,
      "ĠÙĩÛĮÚĨÛĮ": 5414,
      "ĠÙħØ¹Ø±ÙĪÙģ": 5415,
      "ĠØ¨Ø±Ú¯Ø±Ø¯Ùĩ": 5416,
      "ĠØ¢Ø´ØªÛĮ": 5417,
      "ĠØ¢Ø´ÙģØªÚ¯ÛĮ": 5418,
      "ĠØ¯ÛĮÚ¯Ø±Ø´": 5419,
      "ĠØ§ÙĦØªÙħØ§Ø³": 5420,
      "ĠØ¢Ø±Ø²ÙĪÛĮÛĮ": 5421,
      "ĠÚ¯Ø±Ø¯ÙĪÙĨÙĩ": 5422,
      "Ú¯Ø±Ø¯Ùħ": 5423,
      "Ø¢ÙĪØ±Ø¯ÙĨØ¯": 5424,
      "ĠØ¨Ø®ÙĪØ§Ø¨ÙĨØ¯": 5425,
      "ĠØ´Ø±ÙĤ": 5426,
      "ĠØ¨Ø±Ø¬ÛĮ": 5427,
      "ĠØ¨Ø±Ø¬Ø´": 5428,
      "ĠØ¨Ø´ÛĮÙħ": 5429,
      "ĠÙĩØ¯Ø§ÛĮ": 5430,
      "ĠÚ©Ø§ØºØ°ÙĩØ§ÛĮ": 5431,
      "ĠØ¢Ø±Ø²ÙĪÙĩØ§ÛĮ": 5432,
      "ĠÙħØ¬ÙħÙĪ": 5433,
      "ĠÙħØ¬Ø¯Ø¯": 5434,
      "ĠÙĨÙĪØ´ÛĮØ¯ÙĨØ¯": 5435,
      "ĠØ¢ÙĪØ§Ø²ÙĩØ§ÛĮ": 5436,
      "ĠÙħØ®Ø±ÙĪØ·": 5437,
      "ĠØ¯ÙĦØ³ÙĪØ²ÛĮ": 5438,
      "ĠØŃÙħÙĦÙĩ": 5439,
      "ĠÙħÙħÙĨÙĪÙĨÙħ": 5440,
      "ĠÙĦØŃØ¸": 5441,
      "ĠØ®Ø§Ú©ÛĮ": 5442,
      "ĠØ¨Ø²ÙĨÛĮØ¯": 5443,
      "ĠØ§ØµØ·": 5444,
      "ĠØªØµÙĪÛĮØ±ÛĮ": 5445,
      "ĠØ¨Ø³Ø§Ø²Ùħ": 5446,
      "ĠØ¨Ø±Ú¯Ø±Ø¯Ø§ÙĨØ¯ÙĨØ¯": 5447,
      "ĠÙħÙĦØ§ÙģÙĩ": 5448,
      "ĠÙ¾ÙĪÙĦØ´": 5449,
      "ĠØ´ÛĮÙĪÙĩ": 5450,
      "Ø®ÙĪØ±ÛĮÙħ": 5451,
      "ĠØºÙĦØªØ§ÙĨØ¯": 5452,
      "ĠØºÙĦØªØ§ÙĨØ¯ÙĨØ¯": 5453,
      "ĠØ¨Ø´ÙĨÙĪÙĨØ¯": 5454,
      "ĠØªØµØ§ÙĪÛĮØ±Ø´": 5455,
      "Ġto": 5456,
      "ĠÚĨØ´ÙħØ§ÙĨØ´Ø§ÙĨ": 5457,
      "ĠØ¨ÛĮÙĨÚ©ÛĮ": 5458,
      "ĠÙ¾ÙĪØ³ØªÛĮ": 5459,
      "ĠÙħØ³ØªÙĤÛĮÙħ": 5460,
      "ĠØ¯ÛĮØ±ÙĪØ²": 5461,
      "ĠØ¨ÙĨØ¯Ø±Ú¯Ø§Ùĩ": 5462,
      "ĠØ¬ÙĩØ´": 5463,
      "ĠØ¨ÙĨÙĪÛĮØ³Ùħ": 5464,
      "ĠØ´ÛĮØ·ÙĪÙĨÛĮ": 5465,
      "ĠØ±Ø§Ø²Ø¢ÙĦÙĪØ¯": 5466,
      "ĠÙģÙĦØ³": 5467,
      "ĠÙĪØ§Ú¯ÙĨ": 5468,
      "ĠÚĨØ³Ø¨ÛĮØ¯": 5469,
      "ĠØ¢ÙĩÙĨØ±Ø¨": 5470,
      "ĠØ¨Ø®ÙĪØ§ÙĨÛĮÙħ": 5471,
      "ĠØ¨Ø®ÙĨØ¯Ø§ÙĨØ¯": 5472,
      "ĠÙĨØµÛĮØŃØª": 5473,
      "ĠÙĪÙģÙĦ": 5474,
      "ÙĨÙĪØ§Ø®ØªÙĨØ¯": 5475,
      "Ø¯Ø®ØªØ±": 5476,
      "ĠÚĨÙĩØ§Ø±ÚĨÙĪØ¨": 5477,
      "Ø¢ÙĪØ±ÙĨØ¯": 5478,
      "ĠÙĩÙĪØ´ÙħÙĨØ¯ÛĮ": 5479,
      "ÙĨÙĪÛĮØ³Ø¯": 5480,
      "ĠØ´ØºÙĦØ´": 5481,
      "ĠØ¬ÙĦØ¯": 5482,
      "ĠØ¨Ø§ÙĩØ§Ø´ÙĪÙĨ": 5483,
      "ĠÙĪØ±ÙĤ": 5484,
      "ĠØ§Ø¨Ø±ÛĮØ´Ùħ": 5485,
      "ĠØ§ÛĮÚ¯ÙĦÙĪÛĮ": 5486,
      "...": 5487,
      "ÙĨÙħØ§ÛĮÛĮ": 5488,
      "ÙĨÙĪØ´Øª": 5489,
      "ĠØ±Ø§Ø¬ÙĪ": 5490,
      "ĠØ¨ÙĨØ´ÛĮÙĨÙĨØ¯": 5491,
      "ÙĪØ¬ÙĪÙĨ": 5492,
      "ĠØªØ±Ø§Ø²": 5493,
      "ĠÙĤÙĨØ¯ÛĮÙĦ": 5494,
      "ĠØ§Ø³Ú©ÛĮÙ¾": 5495,
      "ĠØ´Ù¾Ø´Ú©": 5496,
      "ĠÙĨÚ¯Ø°Ø§Ø´Øª": 5497,
      "ĠÙĪØŃØ´ØªÙĨØ§Ú©ÛĮ": 5498,
      "Ø´ÙĨØ§Ø®ØªÙĨØ¯": 5499,
      "ĠÙĦØºØ²ÙĨØ¯Ùĩ": 5500,
      "ĠØ®ÙĦØ¨Ø§ÙĨ": 5501,
      "Ø¨ÛĮÙĨÙħØª": 5502,
      "ĠØ·Ø¹ÙħØ´": 5503,
      "ĠÙħØ³Ø¦ÙĪÙĦ": 5504,
      "ĠÙ¾ÙĪØ³ÛĮØ¯Ùĩ": 5505,
      "ĠØ¯ÙĪØ³Ø´": 5506,
      "ĠÙĨØ§Ø²Ú©": 5507,
      "ĠØ§ÙĨØ¯ÙĪÙĩÚ¯ÛĮÙĨ": 5508,
      "ĠÙĤÙĦÙĤÙĦÚ©": 5509,
      "ĠØªØ±Ø§ÙģÛĮÚ©": 5510,
      "ĠÙĨØ§Ø´ÛĮØ§ÙĨÙĩ": 5511,
      "ĠØ³Ú©ÙĪØª": 5512,
      "ĠÛĮÙĪÚ¯Ø±Øª": 5513,
      "ĠØ§ÙģØ²Ø§ÛĮØ´": 5514,
      "ÙĨØ§Ø±Ø§ØŃØª": 5515,
      "ĠØ§ÙħØ´Ø¨": 5516,
      "ĠÙħÛĮØªÙĨØ²": 5517,
      "ĠØ§ÙĪØ§Ø²ÛĮØ³": 5518,
      "ĠØ§Ø³ØªØ´ÙħØ§Ùħ": 5519,
      "ĠØ±Ø§ÙĩÙ¾ÛĮÙħØ§ÛĮÛĮ": 5520,
      "!âĢľ": 5521,
      "Ø§ÙĪÙĦ": 5522,
      "ÛĮÚ¯Ø§ÙĨ": 5523,
      "ÙĪØ²ÛĮ": 5524,
      "ÙĪØ§Ø±ÛĮ": 5525,
      "Ø±Ø±": 5526,
      "Ø±Ø²Ø¯": 5527,
      "Ø±Ø³Ø§ÙĨØ¯": 5528,
      "ĠØ¨ØªÙĪÙĨÛĮÙħ": 5529,
      "ĠØ¨ØªÙĪØ§ÙĨÛĮØ¯": 5530,
      "Ú©Ø¨Ø±ÛĮØª": 5531,
      "Ø³Ø¨ÛĮ": 5532,
      "Ø³Ø§ÙĦÛĮ": 5533,
      "ĠØ§Ú©Øª": 5534,
      "Ø´Ø§Ø¯": 5535,
      "ĠÚ©Ø§Ø¯": 5536,
      "ĠÚ©Ø§Ø¯ÙĪ": 5537,
      "ĠØ¯Ùģ": 5538,
      "ĠØ¯ÙĨØ¯Ùĩ": 5539,
      "ĠØ¯Ø§ÙĨÛĮ": 5540,
      "Ø²ÙĦÙĩ": 5541,
      "ĠØ±Ø²ÛĮ": 5542,
      "ĠØ±ÙĨØ¬": 5543,
      "Ø¨Ø§ÛĮÙĦ": 5544,
      "Ø¨Ú¯Ø°Ø§Ø±": 5545,
      "ĠÙĪØ§Ø±": 5546,
      "ĠÙĪÛĮØ±": 5547,
      "ĠÙĪØ¶": 5548,
      "ĠÙĪØ§ÙĪ": 5549,
      "ĠÙĪØ§ØŃ": 5550,
      "ĠØ¨Ø§Ø§Ø±": 5551,
      "ĠØ¨Ø§Ø±Ùĩ": 5552,
      "ĠØ¨Ø§ÙĨØ¯ÛĮ": 5553,
      "Ø§ÙĨØ§": 5554,
      "ĠÙħÛĮÚ©ÙĨÙĨØ¯": 5555,
      "ĠÙħÛĮØªÙĪØ§ÙĨØ¯": 5556,
      "ĠÙħÛĮØ´ÙĪØ¯": 5557,
      "ĠÙħÛĮØ¯Ùĩ": 5558,
      "ĠÙħÛĮØ®ÙĪØ§Ùħ": 5559,
      "ĠØ¢Ø±Ùĩ": 5560,
      "ĠØ¢ÙĪØ±ÛĮ": 5561,
      "ÙĩØ§ÙħÙĪÙĨ": 5562,
      "ĠØ±Ø§Ø´ÙĦ": 5563,
      "ĠØ±Ø§ÛĮÚ¯Ø§ÙĨ": 5564,
      "ĠÙĨØŃ": 5565,
      "ĠÙĨØ§ÙĤ": 5566,
      "ĠÙĨÛĮÙħÛĮ": 5567,
      "ĠÙĨØ®ÙĪØ§ÙĩÛĮ": 5568,
      "ĠÙĨØ³ÛĮÙħ": 5569,
      "ĠÙĨÚ©ÙĨÛĮÙħ": 5570,
      "ĠÙĨØ®ÙĪØ§ÙĩÙĨØ¯": 5571,
      "ĠÙĨØ±ÙĪØ¯": 5572,
      "Ø®Ø¯Ø§ÙĨÚ¯ÙĩØ¯Ø§Ø±": 5573,
      "ĠÚ¯Ø´ÙĪØ¯": 5574,
      "ĠÚ¯ÙĪÙĨÙĩ": 5575,
      "ĠØ³Ø®": 5576,
      "ĠØ³ÙĨØ¯ÛĮ": 5577,
      "ĠØ´ÙĪØ§ÙĦÛĮ": 5578,
      "ĠØ¢ÙĨØ·ÙĪØ±": 5579,
      "Ø§Ø±ÛĮØ¯": 5580,
      "Ø§Ø±ÙĦÛĮ": 5581,
      "ÚĨÙĨØ¯": 5582,
      "ÚĨÙĪÙĨ": 5583,
      "ÚĨØ±Ø§ÙĨÛĮ": 5584,
      "ĠØ±ÙĪØ¨": 5585,
      "ĠÙĩØ§ÙĨØ§": 5586,
      "ĠØ¨ÙĪØ¯Ø§Ø±": 5587,
      "ĠØ¯Ø±Ú¯ÛĮØ±": 5588,
      "Ø²ÛĮØ³Øª": 5589,
      "ĠØ®ÙĪÙĨØ´": 5590,
      "Ø¹Ø²ÛĮ": 5591,
      "Ø¹Ø§Øª": 5592,
      "ØŃÙĩ": 5593,
      "ĠØ²ÙĪÛĮÛĮ": 5594,
      "ĠØ²Ø±ÙĨÚ¯": 5595,
      "Ø¬Ø§ÛĮ": 5596,
      "Ø§ÙĦÙĪÛĮÛĮ": 5597,
      "ĠØ¬Ø²Ø±": 5598,
      "ĠÚĨÚ¯ÙĪÙĨ": 5599,
      "ĠÚĨØ§Ø±ÙĦÛĮ": 5600,
      "ĠØ¨Ø±Ø§Ùħ": 5601,
      "ĠØ¯Ø§Ø´ØªÛĮ": 5602,
      "ĠÙ¾Ø±Ø±ÙĪ": 5603,
      "ĠÙ¾Ø±Ù¾Ø±": 5604,
      "Ù¾ÙĪ": 5605,
      "ĠØ®ÛĮØ§ÙĦ": 5606,
      "ĠØªÙĪØ¦": 5607,
      "Ø§ÙĩÙħ": 5608,
      "ÙħÛĮØªÙĪÙĨÙħ": 5609,
      "ĠØŃØ±ÙĪÙģ": 5610,
      "ĠÚ©ÙĨØ¯ÛĮ": 5611,
      "ĠÙĦØ§Ø¨": 5612,
      "ĠÙĦÙĪÛĮÛĮ": 5613,
      "ĠÙĦÙĪØ±Ø§": 5614,
      "ĠÙģÙĪØ±Ø§": 5615,
      "ĠÙĤÙĦÙĩ": 5616,
      "ĠÙĤÙĪÙĩ": 5617,
      "ĠÙĤÙĪØ·ÛĮ": 5618,
      "ĠÙĤØ§ÙħØª": 5619,
      "ĠØ§Ø³ÙħÛĮ": 5620,
      "ĠØ¯ÛĮØ¯ÛĮ": 5621,
      "ĠØ¯ÛĮØ¯ÛĮÙħ": 5622,
      "Ø°Ø§": 5623,
      "ĠØ§ÛĮÙĨØ¬Ø§Ùħ": 5624,
      "ÙĪØ±ÙĪÙħ": 5625,
      "ØªØ±Ú©": 5626,
      "ĠÛĮÙĪÙĨ": 5627,
      "ĠÛĮØ®ÛĮ": 5628,
      "ĠÛĮØ§Ø¨Ø¯": 5629,
      "Ø¨Ø§Ø±Ø¯": 5630,
      "ĠØºÙĦØ§Øª": 5631,
      "ØºÙħ": 5632,
      "ØºØ±ÛĮ": 5633,
      "ĠÙħÙĨÛĮ": 5634,
      "ĠÙħÙĨØ¸Ùħ": 5635,
      "Ø¨ÛĮÙ¾": 5636,
      "ĠÙ¾Ø³Ø±Ø´": 5637,
      "ĠØ¯Ø§Ø¯ÛĮØ¯": 5638,
      "Ø®ÙĪØ§Ø³ØªÙĨ": 5639,
      "Ø®ÙĪØ§Ø³ØªÙĩ": 5640,
      "ĠÙĨÙħÛĮØ§Ø¯": 5641,
      "ĠØ³ÙĪØ²ÙĨ": 5642,
      "Ø§Ø³Ø±": 5643,
      "Ø§Ø³ÙĨØ¯": 5644,
      "ĠØ¯Ø§ÙĪØ±": 5645,
      "Ø±ÙħØ±Ø¯": 5646,
      "ĠØ²ÛĮÚ¯ÛĮ": 5647,
      "ĠÙĨÚ¯ÛĮØ±": 5648,
      "ĠØ¯ÙĪØ³ØªØ§ÙĨØªØ§ÙĨ": 5649,
      "Ø®ÙĨØ¯Ø¯": 5650,
      "ĠØ¨Ø¯ØªØ±": 5651,
      "ĠØ¨Ø¯Ø±Ø®": 5652,
      "ÙħØªÙĪØ¬Ùĩ": 5653,
      "ĠØ¨Ø±Ø¯Ø§Ø±ÛĮÙħ": 5654,
      "ĠØ§ÙĪÙĨÙĤØ¯Ø±": 5655,
      "ĠÚ©Ø§Ø±ØªÙĪÙĨ": 5656,
      "ĠØ³Ø±Ø¹": 5657,
      "ĠØ®ÙĪØ¯Ø®ÙĪØ§ÙĩÛĮ": 5658,
      "ĠØ¯Ø³ØªØ±Ø³": 5659,
      "ĠÙħÙĪØ¨Ø§ÛĮÙĦ": 5660,
      "Ø¯Ø§ÙĨÛĮØ¯": 5661,
      "ĠØªØµØ§Ø¯": 5662,
      "ĠØ·Ø§ÙĪ": 5663,
      "ĠØ¢Ø¨Ø±ÙĪ": 5664,
      "ĠÙħØ±Ø¨ÛĮ": 5665,
      "ĠØ¨Ú¯ÙĪÛĮÙħ": 5666,
      "ĠÙ¾Ø³Ø±ÙĩØ§": 5667,
      "ĠØ¨Ø®Ø±ÛĮ": 5668,
      "ĠØ¨Ø®Ø±Ùħ": 5669,
      "Ø¶Ø§": 5670,
      "ĠØ¨Ø§ÙĦØ§ØªØ±ÛĮÙĨ": 5671,
      "ĠØ¨ÛĮØ§ÙĨ": 5672,
      "ĠØ¨ÛĮØ±Ø¯ÛĮ": 5673,
      "ĠØ§Ø³Ù¾ÛĮØ¯ÛĮ": 5674,
      "ĠØ®Ø±ÛĮØ¯Ùĩ": 5675,
      "ĠØ´ÙĨØ¨Ùĩ": 5676,
      "ĠØ¨Ø¨ÙĨØ¯ÛĮ": 5677,
      "ĠÙĨÛĮÙĨØ¯": 5678,
      "ĠÙĨØ¯Ø§Ø±ÛĮ": 5679,
      "ĠÚ¯ÙĦÙĩØ§": 5680,
      "Ø§ÙĨØ¯Ø§Ø²Ø¯": 5681,
      "ĠØ§ÙģØªØ§Ø¯Ùħ": 5682,
      "ĠØ®ÙĪØ±Ø¯ÙĨØ´": 5683,
      "ĠÙĩØ§Ù¾": 5684,
      "ĠÙĩØ§Ø´ÙĪÙĨ": 5685,
      "ĠØ´ÛĮØ±ÙĩØ§": 5686,
      "ĠØ²ÛĮØ±Ø²Ùħ": 5687,
      "ĠØ±Ø§ÙĩÙĨÙħØ§ÛĮÛĮ": 5688,
      "ĠÙģØ±Ø§ÙĨ": 5689,
      "ĠØ³Ø±ÛĮØ¹Ø§": 5690,
      "ĠØŃÛĮÙĪØ§ÙĨÛĮ": 5691,
      "ĠØªÙĪÛĮÛĮ": 5692,
      "ÙĦÙĪØ³ÛĮ": 5693,
      "ÙĦÙĪØªØ´": 5694,
      "ĠÙħØ¯ÙĦ": 5695,
      "ĠÙ¾ÛĮÚĨÛĮ": 5696,
      "ĠÙ¾ÛĮÙ¾Ø§": 5697,
      "ĠÙħØŃÙĪØ·Ùĩ": 5698,
      "ĠØ¨Ù¾Ø²ÛĮÙħ": 5699,
      "ĠØµØ¯Ø§ÙĩØ§ÛĮÛĮ": 5700,
      "ĠØ´Ø§Ú¯Ø±Ø¯": 5701,
      "ĠØªØ§Ø¨Ø³ØªØ§ÙĨ": 5702,
      "ĠØºÛĮØ±ÙħØ¹": 5703,
      "ÙĨØ´ÛĮÙĨÛĮ": 5704,
      "ĠÚĨÙĪØ¨Ú©Ø¨Ø±ÛĮØª": 5705,
      "ĠØ³Ø§Ø®ØªÙħ": 5706,
      "Ø¯Ø§Ø¯ÙĨ": 5707,
      "ĠÙģØ±ÙĪØ®Øª": 5708,
      "ĠÙĩÛĮÚĨÚ©Ø³": 5709,
      "ĠØ¢ÙĪØ±Ø¯ÛĮ": 5710,
      "ĠØ¨Ø±Ú¯Ø±Ø¯ÛĮØ¯": 5711,
      "ĠØ¨Ø®ÙĪØ±ÙĨ": 5712,
      "ĠØ´Ú¯ÙģØªÛĮ": 5713,
      "Ù¾Ø±ÙĨØ¯Ùĩ": 5714,
      "ĠØ³Ø§ÙĦÙĨ": 5715,
      "Ø®ÙĪØ±Ø¯ÙĨ": 5716,
      "ĠØ§Ø±Ø¯ÙĪØ¬ÙĪÙĨ": 5717,
      "ĠØ²ÛĮØ¨Ø§ÛĮØ´": 5718,
      "ĠØ³ÙģØ±Ø´": 5719,
      "ĠØ³ÙģØ±ÛĮ": 5720,
      "ĠØªÙĨØ¯ØªØ±": 5721,
      "ĠØªÙĨØ¯Ø±ÙĪ": 5722,
      "ĠÙ¾ÙĪØ´Ø§ÙĨØ¯": 5723,
      "ĠØ±ÛĮØ²Ùĩ": 5724,
      "Ú¯Ø±Ø¯ÙĨ": 5725,
      "ĠØ¬Ø§Ø¬": 5726,
      "ĠÙħØ§ÙĦÚ©": 5727,
      "ĠÙħØ§ÙĦÛĮØ¯ÙĨØ¯": 5728,
      "ĠÙħØ´ØªØ±ÛĮ": 5729,
      "ĠØ¨Ø´ÙĪÛĮØ¯": 5730,
      "ĠØ³ÙĪØ§Ø±Ø´": 5731,
      "ĠÙ¾ÛĮØ´Ø®ÙĪØ§ÙĨ": 5732,
      "ĠÙĦÙħØ³Ø´": 5733,
      "ĠØ°ÙĩÙĨ": 5734,
      "ĠØ°ÙĩÙĨØ´Ø§ÙĨ": 5735,
      "ĠØ¨Ø§ÙĩÙħ": 5736,
      "ÙħÙħÙĨÙĪÙĨÙħ": 5737,
      "ĠÙ¾ÙĪØ³ØªÙĩ": 5738,
      "ĠÙĨÙĪØ´ÛĮØ¯": 5739,
      "ÙĪØ³ÙĨØ¯": 5740,
      "ĠØµÙĪØ±ØªØ´Ø§ÙĨ": 5741,
      "ĠØ´Ø§ÙĨØ³ÛĮ": 5742,
      "ĠØ®Ø´Ú©ÛĮ": 5743,
      "ĠÚ¯Ø§ÙĪÚĨØ±Ø§ÙĨÛĮ": 5744,
      "ĠØ´Ø§ÙħÙĦ": 5745,
      "ĠâĢª": 5746,
      "ĠÙħÙĤØ§Ø¨": 5747,
      "ĠØ´Ú©Ø³ØªÙĨ": 5748,
      "ĠØªØµÙĪÛĮØ±Ø´": 5749,
      "ĠÙħÙĦØ§ÛĮÙħÛĮ": 5750,
      "ĠØ³ÛĮØ§ÙĩÛĮ": 5751,
      "ĠØ²Ø¨Ø§ÙĨØ´": 5752,
      "Ø§ÙģØªÙĨØ¯": 5753,
      "ĠØ¨ÛĮÙĨØ¯Ø§Ø²ÙĨØ¯": 5754,
      "ĠØ¨ÛĮÙĨØ¯Ø§Ø²ÛĮÙħ": 5755,
      "ĠÙ¾ÛĮÚĨÛĮØ¯ÙĨ": 5756,
      "ĠÙĤØ§Ø¶ÛĮ": 5757,
      "ĠØ§Ø±Ø²Ø´ÙħÙĨØ¯": 5758,
      "ĠØŃØ³ÙĪØ¯": 5759,
      "ĠØ«Ø§Ø¨Øª": 5760,
      "ĠØ³Ø¨Ø¯Ø´": 5761,
      "ĠÙ¾ÛĮØ±ÙħØ±Ø¯ÛĮ": 5762,
      "Ø±ÛĮØ®ØªÙĩ": 5763,
      "ĠÙħÙĪØ²ÛĮÚ©": 5764,
      "ĠØªÛĮØ±Ú©": 5765,
      "ĠÚ©ÙĪØªÙĪÙĦÙĩ": 5766,
      "ĠØ¬Ø±Ø£Øª": 5767,
      "ĠØ¨Ø±ÙĤØµÙĨØ¯": 5768,
      "ĠØ´Ø¹Ø±Ø´": 5769,
      "ĠØ§Ø´Ú©Ø§ÙĦÛĮ": 5770,
      "ĠØ§ÙĨÚ¯Ø´ØªØ§ÙĨ": 5771,
      "ĠØ¯ÙĨÛĮÙĦ": 5772,
      "Ø¹ÙħÙĦ": 5773,
      "ĠØ¨Ú©Ø´ÛĮ": 5774,
      "ĠÛĮØ§ÙģØªÙĨØ¯": 5775,
      "ĠØ±ÙĪØ³ØªØ§Ø¦ÛĮ": 5776,
      "ĠÙģÙĦØ²ÛĮ": 5777,
      "ĠØ¨ÚĨØ´Ø¯": 5778,
      "Ù¾ÙĪØ´Ø¯": 5779,
      "ÙħØªØ£Ø³ÙģØ§ÙĨÙĩ": 5780,
      "ĠÙģØ¶Ø§": 5781,
      "ĠÙħÙģÛĮØ¯ÛĮ": 5782,
      "ĠÙħØ¨ÙĦÙħØ§ÙĨ": 5783,
      "ĠØ¨Ø®ÙĪØ§ÙĨÙħ": 5784,
      "ĠÙĪØ±Ø²Ø´ÛĮ": 5785,
      "ĠØ¯Ø±Ø®Ø´Ø´": 5786,
      "ĠÙħÙĦØ®": 5787,
      "ĠÙħÙĦØ§ÙĦ": 5788,
      "ĠÙĩØ±Ø¯ÙĪØ´ÙĪÙĨ": 5789,
      "ĠØ³ÙĪØ§ÙĦØ§Øª": 5790,
      "ĠØªÙĨØ¨ÙĦÛĮ": 5791,
      "ĠØ´ÙħØ±Ø¯ÙĨØ¯": 5792,
      "ĠÙħØ±Ú©Ø¨": 5793,
      "ĠØ§ÙģØ±Ø§Ø¯ÛĮ": 5794,
      "ĠÙħØ¶ØŃÚ©ÛĮ": 5795,
      "ÙĨÙĪÛĮØ³Ùħ": 5796,
      "ĠÚ©Ø±Ú©Ø³": 5797,
      "ĠÙģÙĨØ¬ÙĪÙĨ": 5798,
      "ĠÙħÙĨÙĤØ§Ø±": 5799,
      "ĠÚĨØ±Ø®Ø§ÙĨØ¯ÙĨ": 5800,
      "ĠÙ¾Ø±ØªÙĤØ§ÙĦÛĮ": 5801,
      "ĠÙĤÛĮÙħØªÛĮ": 5802,
      "Ø±ÙĪØµØ¯": 5803,
      "ĠÙĨØªØ±Ø³ÛĮØ¯Ùĩ": 5804,
      "ĠÙģÙĦØ§Ø³ÛĮ": 5805,
      "ĠÙħØ§Ø¬Ø±Ø§ÛĮÛĮ": 5806,
      "ĠÙ¾ÛĮÙĪØ³ØªÙĨØ¯": 5807,
      "ĠØ¢Ø¯Ø§ÙħØ³ÛĮ": 5808,
      "ĠØ§Ø¨Ø±ÙħØ±Ø¯": 5809,
      "ĠØªØ±Ø§Ø³": 5810,
      "ĠØ¨Ø§Ø²ÙĪÙĩØ§": 5811,
      "ĠØ¨Ø§Ø¨Ø§ÛĮØ´Ø§ÙĨ": 5812,
      "ĠÙĨØ¸Ø±Ø´": 5813,
      "ĠÙģÛĮÙģÛĮ": 5814,
      "ĠØ¢ÙĪØ±ÙĨØ¯": 5815,
      "ĠØ´Ù¾Ø´": 5816,
      "ĠØ¨Ø®ÙĪØ§Ø¨Ùħ": 5817,
      "ĠØ±Ø¤ÛĮØ§ÛĮ": 5818,
      "ĠØ¨ÙģØ±ÙĪØ´Ø¯": 5819,
      "ĠØ§Ø®ØªÙĦØ§Ùģ": 5820,
      "Ú¯Ø±ÛĮÙĩ": 5821,
      "ĠØªØ±Ø¯ÙħÛĮÙĦ": 5822,
      "ĠØ´ÙħØ§Ø±Ùĩ": 5823,
      "ĠØ®ÙĪØ´Ú¯Ø°Ø±Ø§ÙĨÛĮ": 5824,
      "ĠØ¨Ù¾Ø±Ø³ÛĮÙħ": 5825,
      "ĠØ²ÙĦØ²ÙĦÙĩ": 5826,
      "ĠÙĤØ±Øµ": 5827,
      "ØªØ¹Ø§Ø¯ÙĦ": 5828,
      "ĠÙĨØ±ÙģØªÙĩ": 5829,
      "ĠÙĦÙĤÙħÙĩ": 5830,
      "ĠØ¨ÙģØ±Ø³ØªØ¯": 5831,
      "ĠØ§ÙĤØ³Ø§Ùħ": 5832,
      "ĠÙħÙĤØµØ¯": 5833,
      "ĠØªØ§ÛĮÚ¯Ø±": 5834,
      "ĠØªØ±ÙħÛĮÙħ": 5835,
      "ĠØ¢ØªÛĮØ´": 5836,
      "ĠØ¯ÙĪÙĨØ³Øª": 5837,
      "ĠØ³ÙĪØ²Ø§ÙĨØ¯": 5838,
      "ĠØ³Ø±ØªØ§Ø³Ø±": 5839,
      "ĠÙħØŃÚ©ÙħÛĮ": 5840,
      "ĠØ§ÛĮÚ©Ø³": 5841,
      "ĠØ§ÙģØ´Ø§ÙĨÙĩ": 5842,
      "ĠØ§Ø¬Ø±Ø§ÛĮ": 5843,
      "ĠÙħØ£Ùħ": 5844,
      "ĠØ¨Ø§Ø²Ø¯ÛĮØ¯": 5845,
      "ĠØ¢Ø±ÙĪØº": 5846,
      "ĠÙĨØªÛĮØ¬Ùĩ": 5847,
      "ĠØ³Ø§ÙĨØªØ§": 5848,
      "ĠØ´ÙģØ§Ùģ": 5849,
      "Ø¬Ø¹Ø¨Ùĩ": 5850,
      "ĠÙ¾Ø±Ù¾Ø´Ùħ": 5851,
      "ĠÙĤØ¶Ø§ÙĪØª": 5852,
      "ĠØºÙĦØ·ÛĮ": 5853,
      "ĠÙħØ¬ÙħÙĪØ¹Ùĩ": 5854,
      "ĠÙĦØŃØ¸Ø§Øª": 5855,
      "ĠØ§ØµØ·Ø¨ÙĦ": 5856,
      "ĠÙĪÛĮØ±Ø§ÙĨ": 5857,
      "ĠÙĨØŃÛĮÙģ": 5858,
      "ĠÙĨØ§ÙĤÙĪØ³": 5859,
      "ĠØ´ÙĪØ§ÙĦÛĮÙĩ": 5860,
      "ĠÚĨÚ¯ÙĪÙĨÚ¯ÛĮ": 5861,
      "ĠØªÙĪØ¦ÛĮØª": 5862,
      "ĠÙĦÙĪÛĮÛĮØ²": 5863,
      "ĠØ·Ø§ÙĪÙĪØ³": 5864,
      "ĠØ±ÙĪØ³ØªØ§Ø¦ÛĮØ§ÙĨ": 5865,
      ".âĢİ": 5866,
      ".âĢ¬": 5867,
      "gh": 5868,
      "ty": 5869,
      "ugh": 5870,
      "ĠÂ»": 5871,
      "Ø§ÛĮØ¯Ùĩ": 5872,
      "Ø§Ø¶Ø§": 5873,
      "ÛĮØ®": 5874,
      "ÛĮØ·": 5875,
      "Ø¯Ø³Øª": 5876,
      "ÙĨÛĮÙħ": 5877,
      "Ø±Ø§ÛĮØª": 5878,
      "ÙħØ±Ø§": 5879,
      "ÙħÙĤÛĮ": 5880,
      "ĠØ¨Ú¯Ùĩ": 5881,
      "ĠØ¨Ø¬ÙĪØ¯": 5882,
      "ĠØ¨Ú©ÙĨÙĩ": 5883,
      "ĠØ¨ÙĦÛĮØª": 5884,
      "Ú©ÙĪØ±": 5885,
      "Ú©Ø¬Ø§": 5886,
      "Ú©Ø±ÙĪØ³": 5887,
      "Ú©Ø¨Ø±": 5888,
      "ØªÙħ": 5889,
      "ØªØ§ÛĮ": 5890,
      "Ø³Ø¨Ø§Ø¨": 5891,
      "Ø³ÙĦÙĩ": 5892,
      "Ø³ÙĪØ²": 5893,
      "ĠØ§Ø¹": 5894,
      "ĠØ§Ú©Ø³ÛĮ": 5895,
      "Ø´Ø¨": 5896,
      "Ø´ØªØ±": 5897,
      "Ø´Ú©Ø±": 5898,
      "ĠÙħØ³ÛĮ": 5899,
      "ĠÙħØ±ÛĮ": 5900,
      "ĠÙħÚ¯Ø±": 5901,
      "ĠÙħØ§ÛĮÙĩ": 5902,
      "ĠÚ©Ø¯Ø±": 5903,
      "ĠÚ©Ø§Ùģ": 5904,
      "ĠÚ©ØªØ´": 5905,
      "ĠÚ©Ù¾ÛĮ": 5906,
      "ĠØ¯ÙħØ§Ø³": 5907,
      "ĠØ¯ÛĮÙĨØ§": 5908,
      "Ú¯Ùħ": 5909,
      "Ú¯ÙĦ": 5910,
      "Ú¯ÙĪÛĮ": 5911,
      "Ú¯Ø²Ø§": 5912,
      "Ú¯Ø²Ø§Ø±": 5913,
      "ĠØ±ÙĩØ§ÛĮØ´": 5914,
      "ĠØ±Ø³ÙĨØ¯": 5915,
      "Ø¨Ø§Ø¯ÛĮ": 5916,
      "Ø¨Ø²ÙĨ": 5917,
      "Ø¨Ø§ÙĦÙĪ": 5918,
      "âĢĮ.": 5919,
      "Ø±Ø¯Ùĩ": 5920,
      "ĠØªØ±ÛĮ": 5921,
      "ĠØªØ£Ø³Ùģ": 5922,
      "ĠØ¨Ø§ÛĮ": 5923,
      "ĠØ¨Ø§ÙĪÙĨ": 5924,
      "Ø§ÙĨØª": 5925,
      "Ø³ØªÙĪÙĨ": 5926,
      "Ø³ØªÛĮÚ©ÛĮ": 5927,
      "ĠÙħÛĮØ³ÛĮ": 5928,
      "ĠÙħÛĮØ±Ùĩ": 5929,
      "ĠÙħÛĮØ´ÙĨ": 5930,
      "ĠÙħÛĮÚ©Ø±ÙĪØ³": 5931,
      "ĠØ®ÙģÙĨ": 5932,
      "ĠØ®Ø§ÙĦÙĩ": 5933,
      "ĠØ®ØµÙĪØµ": 5934,
      "ĠØ¢ÙħØ§ÙĨØ¯": 5935,
      "ĠØ¢ÙĨØ¯ÛĮ": 5936,
      "ÛĮØ¯Ø§Ø¯": 5937,
      "ÙģØ±ÛĮ": 5938,
      "ÙģÛĮØ§": 5939,
      "ĠÙ¾ÙĨØ¯": 5940,
      "ĠØ±Ø§Ø¨Ø±Øª": 5941,
      "ĠÙĨÛĮÚ©": 5942,
      "ĠÙĨÚĨ": 5943,
      "ĠÙĨÙħÙĪÙĨ": 5944,
      "ĠÙĨÙħØ§ÙĨØ¯": 5945,
      "ĠÙĨØ±ÙģØªÙĨØ¯": 5946,
      "Ø®Ø±Ùħ": 5947,
      "Ø®Ø§Ø·Ø±": 5948,
      "ĠÚ¯ÙĪØ±": 5949,
      "ĠÚ¯Ø´Ø§Ø¯": 5950,
      "ĠØ³Ø±ÙĪ": 5951,
      "ĠØ³Ø±ÙĪÛĮ": 5952,
      "ĠØ´ÙĦÙĨÚ¯": 5953,
      "ĠÚ©Ø±Ø¯ÛĮÙĨ": 5954,
      "ĠØ±ÙĪÛĮØ¯Ø§Ø¯": 5955,
      "ĠÙĩÙģØª": 5956,
      "ĠØ¯Ø±ÙĩØ§ÛĮ": 5957,
      "ĠØ¯Ø±ØŃØ§ÙĦ": 5958,
      "ĠØ¯ÙĪÙħ": 5959,
      "ÛĮÙĨÛĮÙħ": 5960,
      "ÙĤØ§ÙĨ": 5961,
      "ÙĤØ¹ÛĮ": 5962,
      "ĠØ®ÙĪÙĨØ¯ÙĨ": 5963,
      "Ø§ÛĮØ³ØªØ§Ø¯": 5964,
      "ØŃØ±": 5965,
      "ĠØ²Ø®Ùħ": 5966,
      "ĠØ§Ø²Øª": 5967,
      "Ø¬Ùħ": 5968,
      "Ø¬ÙħØ¯": 5969,
      "Ø¬ÙĪÛĮØ¯": 5970,
      "ĠØ¬ÙĪÛĮÛĮ": 5971,
      "ĠØ¬Ø§Ø¨Ùĩ": 5972,
      "ĠÚĨØ§ÙĦØ´": 5973,
      "ĠØ¨Ø±ÛĮØ¯ÙĨØ¯": 5974,
      "ĠØ¨Ø±ÙĨÙħÛĮ": 5975,
      "ĠØ®ÙĪØ´Øª": 5976,
      "ĠØ¨Ø²Ø§Ø±": 5977,
      "ĠØŃØ±ÛĮ": 5978,
      "ĠÚ¯Ø±ÙħÙĩ": 5979,
      "ĠÚ¯Ø±ÛĮØ³Øª": 5980,
      "ĠÙĦØ±Ø²Ùĩ": 5981,
      "ĠÙĤÙĪ": 5982,
      "ĠÙĦÛĮÙ¾": 5983,
      "Ú©Ø±Ø¯ÛĮ": 5984,
      "Ø°Ø§Ø´Øª": 5985,
      "ÙĪØ±Ø¢ÙĦØ§Øª": 5986,
      "ØªØ±Ùħ": 5987,
      "ĠÙħØ§Ø¯Ø±ÛĮ": 5988,
      "ĠØ¹Ø§ÙĤ": 5989,
      "ĠØ¹Ø¸": 5990,
      "ØºØ§ÙģÙĦ": 5991,
      "ĠÙħÙĨØµ": 5992,
      "ĠÙħÙĨØ¬ÙħØ¯": 5993,
      ".\".": 5994,
      "Ø¨ÛĮØª": 5995,
      "Ø¨ÛĮÙĦ": 5996,
      "ĠÚ©ÙĪÚĨÚ©Ø´Ø§ÙĨ": 5997,
      "ĠØ±ÙĪÛĮØ´": 5998,
      "ĠÚ©ÙħÚ©ÛĮ": 5999,
      "Ú¯ÛĮÙĦ": 6000,
      "ĠØ³ÙĪÙģÛĮ": 6001,
      "ĠØ³ÙĪÙģÛĮØ§": 6002,
      "Ø±ÙħØ§ÙĨÛĮ": 6003,
      "ĠØ³Ú¯Ùĩ": 6004,
      "ĠØ²ÛĮÚ¯Ø²Ø§": 6005,
      "ĠØ²ÛĮÙĪØ±Ø¢ÙĦØ§Øª": 6006,
      "ĠØªÙĪÙ¾Øª": 6007,
      "ĠØ¯Ø§Ø±ÙĪ": 6008,
      "ĠØ¨Ø¯ÙĪÛĮ": 6009,
      "ĠØ§ØŃÙħÙĤÛĮ": 6010,
      "ĠÙĩØ±ÚĨÙĤØ¯Ø±": 6011,
      "ĠØ¨Ø±Ø¯Ø§Ø±ÛĮ": 6012,
      "ĠÙĦØ¨Ø´": 6013,
      "ĠÚ¯Ø°Ø§Ø±ÛĮ": 6014,
      "ĠÚ©Ø§Ø±ÙĪ": 6015,
      "ĠÚ©Ø§Ø±Ùħ": 6016,
      "ĠØ³Ø±Ú©": 6017,
      "ĠØ³Ø±Ù¾": 6018,
      "ĠÙħÙĩÛĮ": 6019,
      "ĠÙħØ§ÙħØ§ÙĨØ´Ø§ÙĨ": 6020,
      "ĠÚĨÛĮØ²ÙĩØ§ÛĮØ´": 6021,
      "ĠÙħØ§Ø´ÛĮÙĨÙħ": 6022,
      "ĠÚ©ÙĪÚĨÙĪÙĦÙĪÛĮØ´": 6023,
      "ĠØ¯Ø®ØªØ±ÙĩØ§": 6024,
      "Ø¢ÛĮÙħ": 6025,
      "ĠÙħØªÚ©Ø¨Ø±": 6026,
      "ĠÙħÙĪÙĩØ§Ø´": 6027,
      "ĠÙĨØ¨Ø±Ø¯": 6028,
      "ÙħØ§ÙĨÙĨØ¯": 6029,
      "ĠØ§Ø´ÛĮ": 6030,
      "ĠÙĨØ§ØªÙĪØ§ÙĨ": 6031,
      "ĠÙħØ±Ø³ÛĮ": 6032,
      "ĠØ¬Ø¯ÛĮØ¯Ø´ÙĪÙĨ": 6033,
      "ĠØ¨Ú¯ÙĪÛĮÛĮ": 6034,
      "ĠØ¨Ú¯ÙĪÛĮÛĮØ¯": 6035,
      "ĠÙĩÛĮØ²Ùħ": 6036,
      "ĠØ¨ÛĮØ§Ø¨": 6037,
      "ĠØ¨ÛĮÙ¾": 6038,
      "ĠØ¨ÛĮÙģØªÙĩ": 6039,
      "ĠÙĨØ¯Ø§Ø¯Ùĩ": 6040,
      "ĠÚ¯ÙĦÙĩØ§ÛĮ": 6041,
      "ĠÚ¯ÙĦÙĪÙĦÙĩ": 6042,
      "ĠØ®ÙĨØ¯Ø¯": 6043,
      "ĠØ®ÙĨØ¯ÙĤ": 6044,
      "ĠÙĩØ§Ø´": 6045,
      "ĠÙĤØ¯ÙħÛĮ": 6046,
      "ĠØ¨ÙĩØªØ±ÛĮÙĨØ´": 6047,
      "ÚĺÙĨ": 6048,
      "ĠØµØ¯Ø§ÛĮØ´Ø§ÙĨ": 6049,
      "ĠÙĩØ§ÛĮØªØ§ÙĨ": 6050,
      "ĠÙģØ±Ø³Øª": 6051,
      "ĠÙģØ±Ø§ÙĩÙħ": 6052,
      "ĠØŃÛĮÙĪØ§ÙĨØ§ØªÛĮ": 6053,
      "ĠØ¬ÙĨÚ¯ÛĮØ¯ÙĨ": 6054,
      "ÙİÙĳ": 6055,
      "ĠÙħØ³Ø¦ÙĪ": 6056,
      "ĠØ¨ÛĮØ´ØªØ±ÛĮÙĨ": 6057,
      "ĠÙħØŃØ¶": 6058,
      "ĠÙħØŃÛĮØ·": 6059,
      "ĠØ¹ØµØ±": 6060,
      "ĠØ¨Ø¨ÛĮÙĨÙĨ": 6061,
      "ĠØ¨Ø¨ÛĮÙĨÛĮØ´": 6062,
      "ĠØ³Ø¨Ø¯ÛĮ": 6063,
      "ĠØ¢Ø¨ÛĮÚ¯ÛĮÙĦ": 6064,
      "ĠÚ©ØªØ§Ø¨Ø´": 6065,
      "ĠØ¨Ø§Ø¯Ú¯ÛĮØ±": 6066,
      "ĠØ¨Ø§Ø¯Ø¨Ø²ÙĨ": 6067,
      "ĠÙ¾ÛĮØ±ÙĪØ²ÛĮ": 6068,
      "ĠØªØ§Ø¨ÛĮ": 6069,
      "ĠØ¹Ø±ÙĪØ³Ú©ÛĮØ´": 6070,
      "ĠØºØ°Ø§ÙĩØ§": 6071,
      "ĠØ§ÙĨØ¯Ø§Ø²Ø¯": 6072,
      "ĠÛĮØ§Ø²Ø¯Ùĩ": 6073,
      "ĠØ§ÙĨØ³Ø§ÙĨÛĮ": 6074,
      "ĠØ®ÙĪØ´ØŃØ§ÙĦÛĮÙħ": 6075,
      "ĠÙħØ§ÙħØ§ÙĨØ´ÙĪÙĨ": 6076,
      "ĠÙħØ¹Ú©ÙĪØ³": 6077,
      "ĠØ¨Ø±Ú¯Ø±Ø¯ÙĪÙĨ": 6078,
      "ĠØ¨Ø±Ú¯Ø±Ø¯Ø§ÙĨÙĨØ¯": 6079,
      "ĠØ¢Ø´ÙģØªÙĩ": 6080,
      "ÚĨØ±Ø®ÛĮØ¯ÙĨØ¯": 6081,
      "ĠÙĨØ¯Ø§Ø´ØªÙĨ": 6082,
      "ĠÙħÙĪØ§Ø¬Ùĩ": 6083,
      "ĠØ³Ø§ÙĦÙħÛĮ": 6084,
      "ĠØ¢ÙĩÙĨÚ¯ÛĮ": 6085,
      "ĠÙħÙĨØªØ¸": 6086,
      "ĠØ¢ØªØ´ÛĮ": 6087,
      "ĠØ³ÙģØ±Ø´Ø§ÙĨ": 6088,
      "ĠÙ¾Ø´ÙħØ§ÙĦÙĪÛĮÛĮ": 6089,
      "ĠÙģØ±ÛĮØ¨": 6090,
      "ĠÙĨÚ©Ø±Ø¯ÛĮÙħ": 6091,
      "Ø®Ø±ÛĮØ¯ÙĨØ¯": 6092,
      "ĠØªÙĤØ§Ø¶Ø§": 6093,
      "ĠÙ¾Ø¯Ø±Øª": 6094,
      "ĠÚ¯Ø±Ø¯ÛĮ": 6095,
      "ĠÚ¯Ø±Ø¯ÙĪ": 6096,
      "ĠÚ¯Ø±Ø¯Ø¯": 6097,
      "ĠÙħÛĮØ²Ø´": 6098,
      "ĠØºØ±ØºØ±": 6099,
      "ĠØ´Ø¨Ø§ÙĨÙĩ": 6100,
      "ĠØ¨Ø®ÙĪØ§Ø¨Ùĩ": 6101,
      "ĠØ²Ø±Ø¯ÛĮ": 6102,
      "ĠÚĨØ±Ø®ÛĮØ¯ÙĨØ¯": 6103,
      "ĠÙĤØ´ÙĨÚ¯Ø´": 6104,
      "ĠØ³Ø±Ø¯ÛĮ": 6105,
      "ĠØ¨Ø´Ú©Ùĩ": 6106,
      "ĠØ¨Ø´Ú©ÙĨÙĨØ¯": 6107,
      "ĠÙ¾Ø§ÙĩØ§ÛĮØ´Ø§ÙĨ": 6108,
      "ĠØ®ÙĪØ´Ø¨Ø®ØªÛĮ": 6109,
      "ĠØ¢Ø±Ø²ÙĪÙĩØ§": 6110,
      "ĠÚĨØ´ÙħØ§Ø´": 6111,
      "ĠÚĨØ´ÙħÙĩØ§ÛĮØ´": 6112,
      "ĠÙħØ¬ÙħØ¹": 6113,
      "ĠÙħØ§Ø¯Ø±Ø¨Ø²Ø±Ú¯Ø´Ø§ÙĨ": 6114,
      "ĠØªØ§Ø±Ø¹": 6115,
      "ĠÚ¯Ø±Ø³ÙĨÚ¯ÛĮ": 6116,
      "Ø¯Ø§Ø®ÙĦ": 6117,
      "ĠØ¯Ø±Ø¯ÛĮ": 6118,
      "ĠØ¨Ø±Ø§ÙĤÛĮ": 6119,
      "ĠØ¢Ø²Ø§Ø±": 6120,
      "ĠØ¢Ø²Ø§Ø¯ÛĮ": 6121,
      "Ø¯ÙĪÙĨÛĮ": 6122,
      "ĠÙ¾ÙĨØ¨Ùĩ": 6123,
      "ĠÙĤÙĩØ±ÙħØ§ÙĨÛĮ": 6124,
      "ĠØ³ÙģÛĮØ¯ÛĮ": 6125,
      "ÙĨØ§Ú©Ùĩ": 6126,
      "ĠØ¨ÙĪØ³ØªÙĪÙĨ": 6127,
      "ĠØ´Ø§ÙħÙ¾ÙĪ": 6128,
      "ØªÙĪÙĨØ³ØªÙĨ": 6129,
      "ĠÙħÙĤÙĪØ§": 6130,
      "ĠØ´Ø§ÙĩÛĮÙĨ": 6131,
      "ĠØ¯Ø±ÛĮÚĨÙĩ": 6132,
      "ĠØ§Ø´ØªØ¨Ø§": 6133,
      "ĠØ¹ÙħÙĪÛĮ": 6134,
      "Ø§ÙģØªÙĩ": 6135,
      "ĠÙĨØ§ÙĨØ³ÛĮ": 6136,
      "Ø®ÙĪØ±Ùĩ": 6137,
      "ĠØºÙĦØªÛĮØ¯ÙĨ": 6138,
      "ĠÙĨÛĮÙħÚ©ØªÛĮ": 6139,
      "ĠØ§ÙĦÛĮÙĪ": 6140,
      "ĠØ¨Ø®Ø´ÛĮØ¯ÙĨ": 6141,
      "ĠÙĨÙħÙĪØ¯ÙĨØ¯": 6142,
      "ĠÙ¾ÙĦÚ©": 6143,
      "ĠØ¯Ø²Ø¯ÛĮØ¯Ùĩ": 6144,
      "ĠØ¨Ø§Ø¯Ø¨Ø§Ø¯Ú©Ø´": 6145,
      "ĠØªÙĪÙĨÙħ": 6146,
      "ĠØŃÙħØ§ÙħØ´": 6147,
      "ĠØ¨ÛĮÙĦÚĨÙĩ": 6148,
      "Ú©ÙĪÙ¾": 6149,
      "Ø¨ÙĨØ¯Ùħ": 6150,
      "ĠØ®Ø·ÙĪØ·": 6151,
      "ĠØ®ÙĪØ´Ú¯ÙĦÛĮ": 6152,
      "ĠØ®ÙĪØ´Ú¯ÙĦÙĩ": 6153,
      "ĠØªÙĪÙĦÛĮØ¯ÛĮ": 6154,
      "ĠØ±ÙĪØŃÛĮÙĩ": 6155,
      "ĠØ¨Ø±ÚĨØ³Ø¨ÛĮ": 6156,
      "ĠÙĨÙĪØ§Ø²ÙĨØ¯Ùĩ": 6157,
      "ĠØ¬ÙĩÛĮØ¯ÙĨ": 6158,
      "ĠÛĮÙĪÙħÛĮ": 6159,
      "ĠØ¨ÙĨÙĪÛĮØ³ÛĮØ¯": 6160,
      "ĠØ¨ÚĨÛĮÙĨÙħ": 6161,
      "ĠØ¬ÛĮÚ©ÙĪ": 6162,
      "ĠÙ¾Ø¯Ø±Ø¨Ø²Ø±Ú¯Ø´": 6163,
      "ĠØ´ÙħØ´ÛĮØ±Ø´": 6164,
      "ĠÚ©ÙĦÙħØ§ØªÛĮ": 6165,
      "ĠØ¯Ø±ÛĮØ§ÙģØªÙĨØ¯": 6166,
      "ĠÙĨÙĪØ´ØªÙĨØ¯": 6167,
      "ĠØ¨Ø®ÙĨØ¯ÙĨØ¯": 6168,
      "ĠÙ¾Ø®ØªÙĨØ¯": 6169,
      "ĠÙĨØ§Ø¯Ø§ÙĨ": 6170,
      "ĠØ´Ø±ÙħÙĨØ¯Ú¯ÛĮ": 6171,
      "ĠØ·ÙĦØ§ÛĮ": 6172,
      "ĠØ§ØµÙĦØ§ØŃ": 6173,
      "ĠÙħØ®ØµÙĪØµØ´": 6174,
      "ĠØ¨Ø§ÙĦØ´Ø´": 6175,
      "ĠØ¹Ø¨ÙĪØ³": 6176,
      "ĠØ¨ÙĪØ³ÛĮØ¯ÙĨØ¯": 6177,
      "ĠØ´Ø®ØµÛĮ": 6178,
      "ĠØ§ÙĨÚ¯ÛĮØ²ÛĮ": 6179,
      "Ø¨Ø®Ø´ÙħØª": 6180,
      "ĠØ¬ÛĮÙħØ²": 6181,
      "ĠØµØ§Ø¯ÙĤÙĩ": 6182,
      "ĠØ¯Ø§ÙħÙĨ": 6183,
      "ĠØ¹ÙĦØ§ÙħØªÛĮ": 6184,
      "ĠÙĪØ±Ø²Ø´Ú¯Ø§Ùĩ": 6185,
      "ĠØ´ÙĩØ±Ø´Ø§ÙĨ": 6186,
      "ĠÚ©Ø§Ú©Ø§Ø¦": 6187,
      "ĠÙĦÙĪØ¨ÛĮØ§ÙĩØ§ÛĮ": 6188,
      "ĠØ¨Ù¾ÛĮÙĪÙĨØ¯Ùħ": 6189,
      "ĠÙĪØ±ÙĪØ¯ÛĮ": 6190,
      "ĠÙĨØªØ±Ø³ÛĮØ¯ÙĨØ¯": 6191,
      "ĠÙħØ³Ø§ÙģØ±Ø§ÙĨ": 6192,
      "Ø³Ø§Ø®ØªÙĨØ¯": 6193,
      "ĠÙģÙĤÛĮØ±ÛĮ": 6194,
      "ĠØ¨ÙħØ¨": 6195,
      "ĠÚĨÙħØ¯ÙĪÙĨÙĩ": 6196,
      "ĠÙ¾ÙĨØ§ÙĩÚ¯Ø§Ùĩ": 6197,
      "ĠÚ¯Ø±ÛĮØ³": 6198,
      "ĠÚ©Ø§Ø±ÙĦØªÙĪÙĨ": 6199,
      "ĠÙĨÙħÛĮØ¯ÙĪÙĨØ³Øª": 6200,
      "ĠØ¨Ø¨Ø®Ø´ÛĮ": 6201,
      "Ø³Ø§ÙĦØ§Ø¯": 6202,
      "ĠÙĨØ§Ø¢Ú¯Ø§Ùĩ": 6203,
      "ĠØ¨ÛĮÚ¯Ø§ÙĨÙĩ": 6204,
      "ĠÙ¾Ø§Ù¾Ú©ÙĪØ±": 6205,
      "ĠØ¢ÙĦØ¨Ø§ÙĦÙĪ": 6206,
      "ĠÙħØ®Ø§ÙĦÙģØª": 6207,
      "ĠÙ¾Ø§ÙĦØªÙĪÛĮ": 6208,
      "ĠØ¯Ø±ÙĩÙħ": 6209,
      "ĠØ·Ø¨ÙĤ": 6210,
      "ĠØ§Ø´ÛĮØ§Ø¡": 6211,
      "ĠØ¨Ù¾Ø§Ø´Ø¯": 6212,
      "ĠÚ©Ø«ÛĮÙģÛĮ": 6213,
      "ĠÙħØ²Ø§ØŃÙħ": 6214,
      "ĠØ®Ø±Ø·ÙĪÙħØ´": 6215,
      "ĠÚ©Ø¯ÙĪÛĮ": 6216,
      "ĠÚĨØ³Ø¨Ø§ÙĨØ¯": 6217,
      "ĠØ¨Ú¯Ø°Ø±Ø§ÙĨÛĮÙħ": 6218,
      "ĠÙĪØ¸Ø§ÛĮÙģ": 6219,
      "ÙģØ±ÙħØ§ÛĮÛĮØ¯": 6220,
      "Ù¾ÛĮÙĨÚ¯": 6221,
      "ĠÙģØ±ÙģØ±Ùĩ": 6222,
      "ĠØªØ±Ø§Ø²ÙĪ": 6223,
      "ĠØ¯ÙģØ¹Ùĩ": 6224,
      "ĠÙĪØ¶Ø¹ÛĮØª": 6225,
      "ĠÙĪØ§ØŃÙĩ": 6226,
      "ĠØ¨Ø§Ø§Ø±Ø²Ø´": 6227,
      "Ø¹Ø²ÛĮØ²Ùħ": 6228,
      "ØºÙħÚ¯ÛĮÙĨ": 6229,
      "ĠØ³Ø±Ø¹ØªØ´": 6230,
      "ĠØ²ÛĮØ±Ø²ÙħÛĮÙĨÛĮ": 6231,
      "ĠÙģØ±Ø§ÙĨÚ©": 6232,
      "ĠØªÙĪÛĮÛĮØªÛĮ": 6233,
      "ughty": 6234,
      "ĠØ§Ú©Ø³ÛĮÚĺÙĨ": 6235,
      "ĠØ¨Ø§ÙĪÙĨØ³": 6236,
      "ĠÙħÛĮÚ©Ø±ÙĪØ³Ú©ÙĪÙ¾": 6237,
      "ĠØ¢ÙħØ§ÙĨØ¯Ø§": 6238,
      "ĠÙĨÙħÙĪÙĨÙĩ": 6239,
      "ĠÚ¯ÙĪØ±ÛĮÙĦ": 6240,
      "ĠØ³Ø±ÙĪÛĮØ³": 6241,
      "ĠØŃØ±ÛĮØµ": 6242,
      "ĠØ¹Ø¸ÛĮÙħÛĮ": 6243,
      "ØºØ§ÙģÙĦÚ¯ÛĮØ±ÛĮ": 6244,
      "ĠØ²ÛĮÚ¯Ø²Ø§Ú¯": 6245,
      "ĠÙħØ³Ø¦ÙĪÙĦÛĮØª": 6246,
      "ĠÙ¾Ø§Ù¾Ú©ÙĪØ±ÙĨ": 6247,
      "!âĢĮ": 6248,
      ",\"": 6249,
      "Ø§ØªØ±": 6250,
      "ÛĮØ¬Ùĩ": 6251,
      "ÙĪÙĪ": 6252,
      "ÙĪØ¨Ø§Ú¯": 6253,
      "Ø¯Ø³": 6254,
      "Ø¯ÛĮÙħ": 6255,
      "ÙĨÚ©Ø±Ø¯": 6256,
      "ÙĨØ¸": 6257,
      "ÙĨÙħÛĮØ¯": 6258,
      "Ø±Ø£": 6259,
      "ÙħÙĦ": 6260,
      "ĠØ¨ØªØ±": 6261,
      "ĠØ¨ØªÙĪÙĨÙħ": 6262,
      "ĠØ¨ÙģØ±Ø¯": 6263,
      "Ø³Ø§Ø±ÛĮ": 6264,
      "Ø³ÙħØ³": 6265,
      "Ø³Ø§Ø²Ø¯": 6266,
      "Ø³Ø§Ø²Ùħ": 6267,
      "Ø´ÙĪ": 6268,
      "Ø´ÙĨØ¯": 6269,
      "ĠÙħÚĨ": 6270,
      "ĠÙħØ§Ùħ": 6271,
      "ĠÙħØ²Ø§": 6272,
      "ĠÚ©Ù¾": 6273,
      "ĠÚ©Ø±ÙħÛĮ": 6274,
      "ĠÚ©Ø¬Ø§ÛĮÛĮ": 6275,
      "ĠØ¯ÙħÛĮ": 6276,
      "ĠØ¯ÙħÛĮØ¯": 6277,
      "ÙĦØªØ´": 6278,
      "ÙĨØ¯Ø§": 6279,
      "Ø²ÙĦ": 6280,
      "Ø²ÙĨÛĮ": 6281,
      "Ú¯Ø§": 6282,
      "Ú¯Ø³ÛĮ": 6283,
      "ĠØ±Ø¹": 6284,
      "Ø¨ÛĮØ¯": 6285,
      "ĠÙĪÙĨ": 6286,
      "ĠÙĪØ³ÛĮ": 6287,
      "ĠÙĪØ±Ø§": 6288,
      "ĠÙĪØ²ÛĮØ¯ÙĨ": 6289,
      "ĠØªÛĮÚ©": 6290,
      "ĠØªÛĮØ§": 6291,
      "ĠØªØ¦": 6292,
      "ĠØ¨Ø§ÙĦÛĮ": 6293,
      "ĠØ¨Ø§ÙģØª": 6294,
      "ĠØ¨Ø§Ø±Ú¯": 6295,
      "ĠØ¨Ø§Ú¯Ø³ÛĮ": 6296,
      "ĠÙħÛĮØ±": 6297,
      "ĠÙħÛĮÚ¯ÙģØª": 6298,
      "ĠÙħÛĮØªÙĪØ§ÙĨÛĮ": 6299,
      "ĠÙħÛĮÚ©ÙĨÛĮ": 6300,
      "ĠÙħÛĮØªØ±Ø³ÛĮØ¯": 6301,
      "ĠÙħÛĮØ®ÙĨØ¯ÛĮØ¯ÙĨØ¯": 6302,
      "ĠÙħÛĮØ±Ø³Ø¯": 6303,
      "ĠÙħÛĮØªÙĪÙĨÙĩ": 6304,
      "ĠÙħÛĮØ®ÙĪØ§Ø¯": 6305,
      "ĠÙħÛĮØ²Ø¯ÙĨ": 6306,
      "ĠÙħÛĮØ®ÙĨØ¯ÛĮØ¯ÙĨ": 6307,
      "ĠÙħÛĮÚ©Ø§": 6308,
      "ĠØ®Ùģ": 6309,
      "ĠØ®ÙģØª": 6310,
      "ĠØ®Ø±Ùħ": 6311,
      "ĠØ®Ø¯Ø§ÙĨÚ¯ÙĩØ¯Ø§Ø±": 6312,
      "ĠØ®Ø¨Ø±Ùĩ": 6313,
      "ĠØ¢ÙĪØ§": 6314,
      "ĠØ¢ÙĪÙĨ": 6315,
      "ĠØ¨ÙĩØ§Ø±": 6316,
      "ĠÙ¾Úĺ": 6317,
      "ĠØ±Ø§ÙĨØ¯": 6318,
      "ĠÙĨØ´Øª": 6319,
      "ĠÙĨØªÙĪØ§ÙĨØ¯": 6320,
      "ĠÙĨØ§ÙĦÙĩ": 6321,
      "ĠÙĨÙģØ±ÛĮ": 6322,
      "Ø®Ø´Ø¯": 6323,
      "ÛĮÚ©ÙĦ": 6324,
      "ĠØ³Ø§ÙĤ": 6325,
      "ĠØ³Ø±ÙĪØµØ¯Ø§": 6326,
      "ĠØ³ÙĪØ§ÙĦÛĮ": 6327,
      "ĠØ³ØŃØ±": 6328,
      "ĠØ´Ø³ØªÙĩ": 6329,
      "Ø§Ø±Øª": 6330,
      "Ø§Ø±Ùģ": 6331,
      "ÚĨØ§Ø±Ùĩ": 6332,
      "ĠØ±ÙĪØ§ÙĨ": 6333,
      "ĠØ±ÙĪØ¨ÛĮ": 6334,
      "ĠÙĩÙĪØ§ÛĮÛĮ": 6335,
      "ĠÙĩÛĮÚ©ÙĦ": 6336,
      "Ø§Ø¯Ø±Ø§ÙĨ": 6337,
      "Ø§Ø´Ùĩ": 6338,
      "ĠØ¯Ø±Ø´Øª": 6339,
      "ĠÛĮÚ©Ø¬Ø§": 6340,
      "ĠÛĮÚ©Ø³Ø§ÙĨ": 6341,
      "ÙĤØªÛĮ": 6342,
      "ÙĤÙĪÙĦ": 6343,
      "ÙĤØ¨Ø§ÙĦ": 6344,
      "Ø§ÛĮÙĨØ¯ÛĮ": 6345,
      "Ø¹Ú©Ø³": 6346,
      "ØŃØ¯Ø³": 6347,
      "ĠØ²ÙĪ": 6348,
      "ĠØ¨Ø§Ø²ÛĮØ´ÙĪÙĨ": 6349,
      "Ø¬ÛĮÙħÛĮ": 6350,
      "ĠØ¬Ø§ÛĮØ´": 6351,
      "Ġ\"âĢİ": 6352,
      "ÙĪØ§Ú©": 6353,
      "ÙĪØ§ÙĤØ¹ÛĮ": 6354,
      "ĠÚĨØ±Ùħ": 6355,
      "Ø§Ø¨ÙĤØª": 6356,
      "ĠÙ¾Ø±ÙĨØ¯": 6357,
      "ĠÙ¾Ø±ÙĪÙĨØ¯Ùĩ": 6358,
      "Ù¾ÙĦ": 6359,
      "Ù¾Ø®Øª": 6360,
      "Ù¾Ø³Ø±": 6361,
      "Ù¾ÙĪÙĦÛĮ": 6362,
      "ĠÚ©ÙĨØ¯Ùĩ": 6363,
      "ĠÙĦØ²": 6364,
      "ĠÙĦÙĪÛĮ": 6365,
      "ĠÙĦØªÙĩ": 6366,
      "ÙħØ§Ø±Ø¯": 6367,
      "ÙħØ§ÙĨØ¯Ùĩ": 6368,
      "ĠÙģÙĪÙĤ": 6369,
      "ĠÙģÙĦÙĪØªØ´": 6370,
      "ĠÙĤØ¯ÛĮ": 6371,
      "ĠÙĤÙĪØ³": 6372,
      "ĠØ§Ø³ØªÙĤØ¨Ø§ÙĦ": 6373,
      "ĠÙĦÛĮØ³Ø§": 6374,
      "ĠØ§Ø³ÙħØª": 6375,
      "ĠÚ©ÙĪØ¨ÛĮØ¯": 6376,
      "Ø®ÙĪØ§ÛĮÙħ": 6377,
      "ĠØ§ÛĮÙĨØ¨Ø§Ø±": 6378,
      "ĠØ§ÛĮÙĨØ·ÙĪØ±": 6379,
      "ÙĪØ±ÙĨØ¯": 6380,
      "ĠØ®ÙĪØ´ØŃØ§ÙĦØ§ÙĨÙĩ": 6381,
      "Ø±ÙĪÛĮÙħ": 6382,
      "ĠØªØ§Ø«ÛĮØ±": 6383,
      "Ø¨Ø§ØªØ´": 6384,
      "ĠÙħØ§Ø¯Ø±Ùħ": 6385,
      "ØªÛĮØ§Ø²": 6386,
      "ĠØ¹ÙĦÛĮ": 6387,
      "ĠØ¹Ø·Ø±": 6388,
      "ĠØ¹ÙħÙĤ": 6389,
      "ĠØ¹Ø§Ø¯Øª": 6390,
      "ĠØºØ¯Ùĩ": 6391,
      "ĠØºØ§Øº": 6392,
      "Ø§ÙĤØª": 6393,
      "ØºØ´": 6394,
      "ĠØµÛĮØ¯": 6395,
      "ĠØµØ§ÙģÛĮ": 6396,
      "Ø¨ÛĮÙĦÛĮ": 6397,
      "ØµØ¯Ø§": 6398,
      "ĠÚ©ÙħØªØ±ÛĮ": 6399,
      "ĠÚ©ÙħÙ¾ÛĮÙĨÚ¯": 6400,
      "ĠØ¯Ø§Ø¯Ø§": 6401,
      "ĠØ¯Ø§Ø¯Ø§Ø´": 6402,
      "ĠÙĨØ§ÙħØ´": 6403,
      "Ú¯Ø±Ø§ÙĨ": 6404,
      "ĠØ±ÙĪÛĮØ§ÛĮØ´": 6405,
      "ÙĪÙĦØ´": 6406,
      "ÛĮØ§ÙģØª": 6407,
      "ĠØ¯Ø§Ú¯": 6408,
      "ĠØ¯Ø§Ú¯ÛĮ": 6409,
      "Ø¹Ø¯Ø§Ø¯ÛĮ": 6410,
      "ĠÙĨÚ¯Ø°Ø§Ø±": 6411,
      "ĠØ¨ÙĨÙĪØ§Ø²Ùħ": 6412,
      "ĠØ¨Ø§Ø´ÛĮÙĨ": 6413,
      "ĠÙħØ§Úĺ": 6414,
      "ĠØ¯Ø®ØªØ±Ùĩ": 6415,
      "ÙĦØ§Ø³ÛĮ": 6416,
      "ĠÙ¾Ø§Ø±ÙĪ": 6417,
      "ĠØ¨Ø¯ÙĪ": 6418,
      "ÛĮØ´ÛĮØ¯": 6419,
      "ĠÙĩØ±Ø·ÙĪØ±": 6420,
      "ĠÚ©Ø§Ø±ÙĩØ§ÛĮØ´": 6421,
      "ĠØªÙħØ´Ú©": 6422,
      "ĠØ¨ÙĦØ¯": 6423,
      "ĠØ®ÙĪØ¯ØªÙĪÙĨ": 6424,
      "ĠØ®ÙĪØ¯ÙħÙĪÙĨ": 6425,
      "ĠØ®ÙĪØ¯Ø±Ø£": 6426,
      "ĠØ¨Ø±Ú¯ÛĮ": 6427,
      "ĠØ¯Ø³ØªÛĮ": 6428,
      "Ø¢Ùĩ": 6429,
      "Ø¢Ø±Ø²": 6430,
      "ĠÙħØªØ¹Ø¯": 6431,
      "ĠÙħØªÙĪØ³": 6432,
      "Ø¯Ø±Ø®Ø´": 6433,
      "ĠØ®ÙĪØ§ÙĨØ¯Ùĩ": 6434,
      "ĠØ¢ÙħØ¯ÛĮØ¯": 6435,
      "ĠÙħÙĪÙĩØ§": 6436,
      "ĠÙħÙĪÙĨØ¯Ùĩ": 6437,
      "Ø¯Ø§ÙĨÛĮÙħ": 6438,
      "ĠØ·ÛĮ": 6439,
      "ĠØ¨Ø§Ø²Ø³Ø§Ø²ÛĮ": 6440,
      "ĠØ¢Ø¨Ø¬ÛĮ": 6441,
      "ĠØ¢Ø¨ÙĨØ¨Ø§Øª": 6442,
      "ĠØ¨Ø®Ø´Ùħ": 6443,
      "ĠØ¨ÙĦÙĨØ¯ØªØ±ÛĮÙĨ": 6444,
      "Ø§Ø±ÛĮØ³Ø§": 6445,
      "ĠØ¨ÛĮØ§Ø±Ùĩ": 6446,
      "ĠØ®Ø±ÛĮØ¯ÙĨ": 6447,
      "ĠØ³ÙĨÚ¯ÛĮÙĨÛĮ": 6448,
      "ĠØ´ÙĨØ§Ø®ØªÙĩ": 6449,
      "ĠÚ©ÙĦØ§Ø±ÛĮØ³Ø§": 6450,
      "ĠÚ©Ø´ÙĪÛĮ": 6451,
      "ĠØ³ÙħØªØ´Ø§ÙĨ": 6452,
      "ĠÚ¯ÙĦÙĪØ¨Ø§Ú¯": 6453,
      "ĠÙĨØ§Ø±Ø§ØŃØªÙĩ": 6454,
      "ØªÙĪØ§ÙĨØ³ØªÛĮØ¯": 6455,
      "ÙħÙĩÙħ": 6456,
      "Ø§ÙĨØ¯Ø§Ø²": 6457,
      "Ø§ÙĨØ¯Ø§Ø²ÛĮ": 6458,
      "ĠØ§ØªØ§ÙĤÙħ": 6459,
      "Ø´ÙĨØ§Ø³Ùħ": 6460,
      "Ø´ÙĨØ§Ø³ÙĨØ¯": 6461,
      "ØªØ§Ø¨ÛĮ": 6462,
      "ĠØªØ¹Ø§Ø±Ùģ": 6463,
      "ĠÙĩØ§Øª": 6464,
      "ĠÙĩØ§Ú©ÛĮ": 6465,
      "Ø´Ú©Ø³Øª": 6466,
      "ĠÙĨØ´Ø§ÙĨØ´Ø§ÙĨ": 6467,
      "ÙĤØ¯Ø±Øª": 6468,
      "ĠØ¢Ø³ÙĪØ¯Ùĩ": 6469,
      "ĠÙģØ±Ø§Ø±ÛĮ": 6470,
      "ĠÙ¾Ø¯Ø±ÛĮ": 6471,
      "ÙĪÙĩÛĮ": 6472,
      "ĠØªØ´Ø®ÛĮ": 6473,
      "ĠÙĨØ´ÙĪÛĮØ¯": 6474,
      "ĠÙĨØ´ÙĪÙĨØ¯": 6475,
      "ĠÙĨØ´Ø§Ø·": 6476,
      "ĠØ³Ø±Ú¯ÛĮØ¬Ùĩ": 6477,
      "ĠØ¯ÙĩÙĨ": 6478,
      "ĠØ¯ÙĩÙĤØ§ÙĨ": 6479,
      "ĠØ¨ØºÙĦØª": 6480,
      "ĠØªÙĨÙģØ³": 6481,
      "ĠÙĨÙĤÙĦ": 6482,
      "ĠÙħØŃÙĦÙĩ": 6483,
      "ĠØ´Ø§Ø¯Ø§Ø¨": 6484,
      "ĠØ´ÙħØ§Ø³Øª": 6485,
      "ĠØ¨Ú¯ÛĮØ±ÙĨ": 6486,
      "ĠØ¨Ø§Ø¯Ø§Ùħ": 6487,
      "ĠØªØ§Ø¨Ø³ØªØ§ÙĨÛĮ": 6488,
      "ĠØ´ÙĩØ±Ú©ÛĮ": 6489,
      "ĠØºÛĮØ±ÙĪØ§ÙĤØ¹ÛĮ": 6490,
      "ÙĨØ´ÛĮÙĨØ¯": 6491,
      "ĠØ§Ø´ØªØ±Ø§Ú©ÛĮ": 6492,
      "ÙģÙĤØ·": 6493,
      "ĠÙħÙĪØ´ÛĮ": 6494,
      "ĠØªØ¹Ø¬Ø¨Ø´": 6495,
      "Ø±ÙģØªÙĨ": 6496,
      "ĠØªÙħÛĮØ²Ø´": 6497,
      "ÚĨØ±Ø®Ø¯": 6498,
      "ĠÚ©Ø§Ù¾ÛĮ": 6499,
      "ĠØ§ÙĨÚ¯Ø´ØªØ±": 6500,
      "ĠØ¬Ø§ÙĨØ³ÙĪÙĨ": 6501,
      "ĠÙģØ±ÙĪØ´Ú¯Ø§ÙĩÛĮ": 6502,
      "ĠØ³Ø¨Ø²Ø´": 6503,
      "ĠÙħÙĨØªÙĤÙĦ": 6504,
      "ĠØ§ÙĦÚ¯ÙĪÛĮ": 6505,
      "ĠØ§ÙħØªÙĨØ§Ø¹": 6506,
      "ĠÙħØªÙĨÙĪØ¹": 6507,
      "ĠØ¢Ø³ÛĮØ¨Øª": 6508,
      "ĠÙĨÚ©Ø±Ø¯ÛĮØ¯": 6509,
      "ĠØ¨Ø³ÙĪØ²": 6510,
      "ĠØ¨Ø³Ø§Ø²ÛĮ": 6511,
      "ĠØªØ±Ø³Ø´": 6512,
      "ĠÙĨØ¨Ø§Ø´ÙĨØ¯": 6513,
      "ĠØ¢ÙĨÙĤØ¯Ø±ÙĩØ§": 6514,
      "ĠÚĨÙĨØ¯ÛĮÙĨ": 6515,
      "ĠÚ¯Ø±Ø¯ÙĨÛĮ": 6516,
      "ĠÙħØ§Ø±ÛĮØ§": 6517,
      "ĠÙħÛĮØ²ÙĨÙĩ": 6518,
      "ĠØ¬ÙĪØ¦ÛĮ": 6519,
      "ĠØ´Ø±ÙĪØ±": 6520,
      "ĠÙħØ±ØªØ¨ÛĮ": 6521,
      "Ø¯Ø§Ø±ÛĮØ¯": 6522,
      "ĠØ¨Ø´Ú©ÙĨÙĩ": 6523,
      "ĠØ¨Ø´ÙħØ§Ø±Ø¯": 6524,
      "ĠÙĩÙĨÙĪØ²Ùħ": 6525,
      "ĠÙħØ·Ø§Ø¨ÙĤØª": 6526,
      "Ø¨Ø±Ø¯ÙĨ": 6527,
      "ĠÚĨØ´ÙħØ´": 6528,
      "Ø§ÙĨØ¬Ø§ÙħØ´": 6529,
      "ÛĮÙģØ±Ùħ": 6530,
      "ĠØ§ÙħØªÛĮØ§Ø²": 6531,
      "ĠÙĪØ§ÙĤØ¹ÛĮÙĩ": 6532,
      "ÙģØ±ÙħØ§": 6533,
      "ĠÙģÛĮÙĦÙħÛĮ": 6534,
      "ĠÙĤÙĪÙĦØ´": 6535,
      "ĠØ¯ÙĪÛĮØ¯ÙĨØ´": 6536,
      "ĠØ¯Ø±Ø¯ÙĨØ§Ú©": 6537,
      "ĠÙĩÙħØ±Ø§ÙĩØ´": 6538,
      "ÙħØ±Ø¯ÛĮ": 6539,
      "ĠØ§ÙĨØ¯Ø§Ø®ØªÙĩ": 6540,
      "ÙģÙĩÙħØ¯": 6541,
      "Ø³ÙĦØ³ÙĦÙĩ": 6542,
      "ĠÚ¯ÙĨØ¬ÛĮ": 6543,
      "ĠÚ¯ÙĨØ¬Ø´Ø§ÙĨ": 6544,
      "ĠØ¬ÛĮÙ¾": 6545,
      "ĠØ¬ÛĮØ³ÙĪÙĨ": 6546,
      "ĠØ´Ú©Ø³ØªÛĮ": 6547,
      "ĠØ¨Ø±Ø§Ø¯Ø±Øª": 6548,
      "ĠØ¨Ø±Ø§Ø¯Ø±ÙĩØ§": 6549,
      "ĠØªÛĮÙ¾": 6550,
      "ĠØªÛĮØºÙĩ": 6551,
      "ĠÚĨØ´ÛĮØ¯ÙĨØ¯": 6552,
      "ĠØ¨Ø³Ø§Ø²ÛĮØ¯": 6553,
      "ĠØ³ÛĮØ§Ø±Ùĩ": 6554,
      "ĠØ³ÛĮÙĨØ¯ÛĮ": 6555,
      "ĠÚĨÙħÙĨØ²Ø§Ø±": 6556,
      "ĠØ¯ÙĨØ¯Ø§ÙĨØª": 6557,
      "ĠØ´ÛĮØ¡": 6558,
      "ÙħØ§Ø¯Ø±Ø¨Ø²Ø±Ú¯": 6559,
      "Ø®ÙĪØ±Ø´ÛĮØ¯": 6560,
      "ĠØºÙĦØªÙĪÙĨØ¯": 6561,
      "ĠØ®Ø·Ø±ÙĨØ§Ú©Ùĩ": 6562,
      "ĠØ³Ø·ØŃ": 6563,
      "ĠØŃØ³ÙĪØ¯ÛĮ": 6564,
      "Ø¯ÙĪÙĨØ³ØªÙĨ": 6565,
      "ĠØ²Ø§ÙĨÙĪØ´": 6566,
      "ĠØ§Ø³Ø¨Ø´": 6567,
      "ĠÙĨÛĮÙħÙĩ": 6568,
      "ĠÙħØ³ÛĮØ±ÛĮ": 6569,
      "ĠÙħØ³ÛĮØ±ÙĩØ§ÛĮ": 6570,
      "ĠÙħÙĪØ²ÙĩØ§": 6571,
      "ĠØ¢Ø²Ø§Ø¯Ø§ÙĨÙĩ": 6572,
      "ĠÙ¾ÙĪØ³ØªØ±": 6573,
      "ĠÙ¾Ø§Ø¯Ø´Ø§ÙĩÛĮ": 6574,
      "ĠÙĨÙħØ§ÛĮØ´ÛĮ": 6575,
      "ĠÙĨÙħØ§ÛĮØ´Ú¯Ø§Ùĩ": 6576,
      "ĠØ³Ø§ÙĦØ§Ø¯Ø´": 6577,
      "ĠØ¬Ø±Ø§ÙĦØ¯": 6578,
      "ĠØ®ÙĦØ§ÙĤÛĮ": 6579,
      "ĠØ¨Ø±ÙĤØ±Ø§Ø±": 6580,
      "ĠØ¨Ù¾ÙĪØ´Ùĩ": 6581,
      "ĠØªØ±Ú©ÛĮØ¯": 6582,
      "ĠØªÙĦÙģÙĨÙħ": 6583,
      "ĠÚ©ÙħØ±Ø¨ÙĨØ¯Ø´": 6584,
      "Ø¨ÙĨØ¯Ø¯": 6585,
      "ĠØ¨Ø§ÙĦÙĪÙĨØ´": 6586,
      "ĠÙĩÙĪØ§Ù¾ÛĮÙħØ§ÙĩØ§": 6587,
      "ĠØ§ÙĨÚ¯Ø´ØªØ§ÙĨØ´": 6588,
      "Ø¢ÙĦÙĪØ¯Ùĩ": 6589,
      "ĠØ¨Ú©Ø´ÛĮØ¯": 6590,
      "Ø¨ÙĪØ¯ÙĨØ¯": 6591,
      "ĠØ¨Ú¯Ø±Ø¯Ùĩ": 6592,
      "ĠØ¨Ù¾ÛĮÚĨÙĩ": 6593,
      "ĠØ¨Ø§ÙĪØ±ÙĨÚ©Ø±Ø¯": 6594,
      "ĠÙģÙĩÙħÛĮØ¯ÙĨ": 6595,
      "ĠÚĨØªØ±Ø´": 6596,
      "ĠÙĦØ±Ø²Ø´": 6597,
      "ĠÙģÙĦØ´": 6598,
      "ĠÙ¾ÛĮØ§ÙĨÙĪÛĮ": 6599,
      "âĢİ:": 6600,
      "âĢİØĮ": 6601,
      "ĠÙĪØ§Ø¶": 6602,
      "Ø®ÙĪØ´Ø¨Ø®Øª": 6603,
      "ÙħØªØ£Ø³ÙģÛĮÙħ": 6604,
      "ĠØ¬Ø±ÛĮØŃÙĩ": 6605,
      "ĠÙĦØ§ØºØ±ÛĮ": 6606,
      "ĠØ¬ÙĪØ§ÙĨÛĮ": 6607,
      "ĠØ§ÙĪÙĦÛĮÙĪØ±": 6608,
      "ĠØ´Ø±ÙħØ³Ø§Ø±ÛĮ": 6609,
      "ĠÙĪÙģØ§Ø¯": 6610,
      "ĠØ¢ÛĮÙĨØ¯": 6611,
      "ĠØ¢ÛĮÙĨØ¯Ùĩ": 6612,
      "ĠÙħÙĨØŃØµØ±Ø¨Ùĩ": 6613,
      "ĠÙĨØ´ÙĨÛĮØ¯ÙĨØ¯": 6614,
      "ĠÙĨØ´ÙĨØ§Ø®Øª": 6615,
      "ĠÙĤØ§Ø¨ÙĦÙħÙĩ": 6616,
      "ĠÙģÚ©ÙĪØ±": 6617,
      "ĠÙħØ«ÙĦØ«ÛĮ": 6618,
      "ĠØ¨ÛĮÙģØªÙĨØ¯": 6619,
      "ÙħÙħÙħ": 6620,
      "ÙĨÙĪØŃ": 6621,
      "ĠØ±Ø®ØªØ´ÙĪÛĮÛĮ": 6622,
      "ÙģØ±ÙĪØ´": 6623,
      "ĠÙĨØ¹ÙĨØ§": 6624,
      "ÙĨØ´Ø§ÙĨÛĮ": 6625,
      "ĠØ¢ÙĦÙĪØ¯Ùĩ": 6626,
      "ĠØ¢ÙĦÙĪØ¯Ú¯ÛĮ": 6627,
      "ĠÙĨØªÙĪÙĨØ³ØªÙĨ": 6628,
      "ĠÙ¾Ø±Ø³ØªØ§Ø±ÙĩØ§": 6629,
      "ĠØ·Ø±ØŃÛĮ": 6630,
      "ĠØ¨Ø´ÙħØ§Ø±ÛĮÙħ": 6631,
      "ĠØŃØ§ÙĪÛĮ": 6632,
      "ĠÙĦÙĪØ¨ÛĮØ§ÙĩØ§": 6633,
      "ĠØ¯ÙĦØªÙĨÚ¯Øª": 6634,
      "ÙĪÙĦÛĮÙĨ": 6635,
      "ÚĨØ·ÙĪØ±Ùĩ": 6636,
      "ÛĮÙĪÚ¯Ø§": 6637,
      "ĠØ¨Ø¯Ø¨Ø®ØªÛĮ": 6638,
      "ÙĦØ±Ø²ÛĮØ¯ÙĨØ¯": 6639,
      "ĠÚ¯Ø°Ø±Ø§ÙĨØ¯ÙĨ": 6640,
      "ĠØ¨ÙĨØ´ÛĮÙĨÙħ": 6641,
      "ĠØªØ®ØªØ®ÙĪØ§Ø¨Ø´": 6642,
      "ĠÙĨØ§Ø´ÙĨÙĪØ§": 6643,
      "ĠÚĺÙĪÙĦÛĮÙĨ": 6644,
      "ĠØªØ±Ø³Ø§ÙĨØ¯ÙĨ": 6645,
      "Ø¬ÙĨÚ¯ÛĮØ¯ÙĨØ¯": 6646,
      "ĠØ¨ÙĦÙĨØ¯ÙĤØ§ÙħØª": 6647,
      "ĠØ³Ø±Ø¯Ø±Ú¯ÙħÛĮ": 6648,
      "ĠÚ©Ø§Ø´ØªÙĨØ¯": 6649,
      "ĠØ±ÙĤØ§Ø¨Øª": 6650,
      "ĠØ¨Ø§ØªØ¬Ø±Ø¨Ùĩ": 6651,
      "ĠÙĨÙħÛĮØ¯Ø§ÙĨ": 6652,
      "ÙĤÛĮÙħØª": 6653,
      "Ù¾Ø§Ø´ÛĮØ¯": 6654,
      "Ù¾Ø§Ø´ÛĮØ¯ÙĨØ¯": 6655,
      "ĠØ®Ø§Ø·Ø±Ùĩ": 6656,
      "ĠØ§ÙģØ³Ø±": 6657,
      "naughty": 6658,
      "ĠØ§Ø±ØªØ´": 6659,
      "ĠÚ©Ø±ÛĮØ³ÙħØ³": 6660,
      "ĠÙĨØ®ÙĪØ±ÛĮØ¯": 6661,
      "ĠÙĪÙĤØªØ´Ùĩ": 6662,
      "ĠÙģØ±Ø²ÙĨØ¯Ø´": 6663,
      "ĠÙģØ±Ø²ÙĨØ¯Ø§ÙĨØ´": 6664,
      "ĠØ§Ø¶Ø·Ø±Ø§Ø±ÛĮ": 6665,
      "ĠØ³Ø¤Ø§ÙĦØ§Øª": 6666,
      "ĠØ®ÙĪØ´Ú¯Ø°Ø±Ø§ÙĨ": 6667,
      "ĠÙĨØ§Ø¢Ø´ÙĨØ§": 6668,
      "ĠØ¨Ø°Ø§Ø±Ùĩ": 6669,
      "ĠØ¨Ø°Ø±ÙĩØ§": 6670,
      "ĠÙħØªØ±ÙĪ": 6671,
      "ĠÙĩÙħÙĪÙĨØ·ÙĪØ±": 6672,
      "ĠÙĨÙĪØ´ÛĮØ¯ÙĨÛĮ": 6673,
      "ĠØ±ÙĪØ²Ú¯Ø§Ø±Ø§ÙĨ": 6674,
      "ĠÙģØ§ØµÙĦÙĩ": 6675,
      "ĠÚ©ÙĪØ±ÙĨ": 6676,
      "ĠÙħØ®Ø§ÙĦÙģ": 6677,
      "ĠÙ¾Ø§Ø¯Ø§Ø´Ø´": 6678,
      "Ø¢ÙħÙĪØ²ÙĨØ¯": 6679,
      "ĠÚ¯ÙħØ´ÙĪ": 6680,
      "ĠÙĨØ§ÙĩØ§Ø±Ø´Ø§ÙĨ": 6681,
      "ĠÙ¾Ø§ÙĨØ¯Ø§": 6682,
      "ØºÙĦØªÛĮØ¯": 6683,
      "ĠØ´Ú©Ø§Ø±ÚĨÛĮ": 6684,
      "ĠØªÙĦÙģÙĨØ´": 6685,
      "ĠØ¢ÙĪÛĮØ®ØªÙĨØ¯": 6686,
      "ĠØ³Ø§Ø¹ØªÛĮ": 6687,
      "ĠÙĦØ·ÛĮÙģ": 6688,
      "ĠØ¢ÙĩÙĨØ±Ø¨Ø§ÛĮ": 6689,
      "ĠØ§Ú©ØªØ´": 6690,
      "ĠØ³Ø®ÙĨ": 6691,
      "ĠØ±ÙĪØ¨ÙĨØ¯Ùĩ": 6692,
      "ĠÛĮÙĪÙĨÛĮÙģØ±Ùħ": 6693,
      "ĠØªØµØ§Ø¯Ùģ": 6694,
      "Ø±ÙĪØµØ¯Ø§ÛĮÛĮ": 6695,
      "ĠÙħØ±ÛĮØ¶": 6696,
      "ĠØ¯ÙħØ§Ø³ÙĨØ¬": 6697,
      "ĠØ®ØµÙĪØµÛĮ": 6698,
      "ĠØ¹Ø§ÙĤÙĦ": 6699,
      "ĠÙģØ±Ø³ØªØ§Ø¯Ùĩ": 6700,
      "ĠØªØ§Ø±Ø¹ÙĨÚ©Ø¨ÙĪØª": 6701,
      "ĠÚ©Ø§Ú©Ø§Ø¦ÙĪÛĮ": 6702,
      "ĠÙħØ§ÙħÙĪØ±": 6703,
      "ĠÙħØ²Ø§Ø¬": 6704,
      "ĠØ±Ø¹Ø§ÛĮØª": 6705,
      "ĠÙĪØ±Ø§Ø¬": 6706,
      "ĠØªØ¦Ø§ØªØ±": 6707,
      "ĠØ¨Ø§Ø±Ú¯ÛĮØ±ÛĮ": 6708,
      "ĠØ¢ÙĪØ§Ø²ÛĮ": 6709,
      "ĠØ¢ÙĪÙĨÚ¯": 6710,
      "ĠØ³Ø§ÙĤÙĩ": 6711,
      "ĠÙħØ§ÚĺÛĮÚ©": 6712,
      "Ø¢Ø±Ø²ÙĪ": 6713,
      "ĠØªØ´Ø®ÛĮØµ": 6714,
      "ĠÚ©Ø§Ù¾ÛĮØªØ§ÙĨ": 6715,
      "ĠØ¨Ø§ÙĪØ±ÙĨÚ©Ø±Ø¯ÙĨÛĮ": 6716,
      "Su": 6717,
      "To": 6718,
      "ĠX": 6719,
      "Ø§Ú¯Ùĩ": 6720,
      "ÛĮØ§Ø¯Øª": 6721,
      "ÙĪØ§Ø¯": 6722,
      "ÙĪÚ¯Ø§Ùĩ": 6723,
      "ÙĪÚĺÙĩ": 6724,
      "ÙĪÚ¯Ø§ÙĨ": 6725,
      "Ø¯ÙĦ": 6726,
      "Ø¯Ø§ÛĮ": 6727,
      "Ø¯ÙĪØ±": 6728,
      "Ø¯ÙħÙĩ": 6729,
      "Ø¯ÙĨØ¨Ø§ÙĦ": 6730,
      "Ø¯ÙĪÙĨÙĩ": 6731,
      "ÙĨØ§ÙĩÛĮ": 6732,
      "ÙĨØ§ÛĮÛĮ": 6733,
      "ÙĨØ¨Ø§ÛĮØ¯": 6734,
      "Ø±ÙĨÚ¯ÛĮ": 6735,
      "ÙħØ·": 6736,
      "ÙħÙĪØ´": 6737,
      "ÙħØ«": 6738,
      "ÙĩÙĨØ¯": 6739,
      "ĠØ¨Ú©ÙĨÙħ": 6740,
      "Ú©Ø²": 6741,
      "Ú©Ø§Ùħ": 6742,
      "Ú©ÛĮÙħ": 6743,
      "Ú©Ø§Ø´Øª": 6744,
      "ØªÙĨÛĮ": 6745,
      "Ø³ÙĨÚ¯": 6746,
      "Ø³ÙĨØ¬": 6747,
      "Ø³Ø¹ÛĮ": 6748,
      "ĠØ§ÙĨØ¨": 6749,
      "ĠØ§Ø®ÙĦØ§ÙĤ": 6750,
      "Ø´Ø±": 6751,
      "Ø´ÛĮÙħ": 6752,
      "Ø´ÛĮÙĨ": 6753,
      "Ø´Ú©ÙĨØ¯": 6754,
      "ĠÚ©Ø¨Ø±ÛĮ": 6755,
      "ĠØ¯ÙħØ§": 6756,
      "ĠØ¯Ø§ÙĤ": 6757,
      "ÙĦØ±Ø²Ø¯": 6758,
      "Ø²ÙĪØ¯": 6759,
      "ĠØ±ÙĤ": 6760,
      "ĠØ±ÛĮØ§": 6761,
      "ĠØ±ÛĮØ´": 6762,
      "ĠØ±ÙģÙĤ": 6763,
      "âĢı": 6764,
      "Ø¨ÙĪÛĮÛĮ": 6765,
      "Ø¨ÙĪØ³ÙĨØ¯": 6766,
      "Ø¨ÙģØ±ÙħØ§ÛĮÛĮØ¯": 6767,
      "Ø¨ÙģØ±ÙħØ§": 6768,
      "Ø±Ø¯Ø¯": 6769,
      "ĠØªØ§Ø±Ø§": 6770,
      "ĠØªÙĤØµ": 6771,
      "ĠØªØºØ°": 6772,
      "ĠØªØ¹Ø¯Ø§Ø¯ÛĮ": 6773,
      "ĠØ¨Ø§Ø±ÙĪ": 6774,
      "Ø§ÙĨÚĨÙĩ": 6775,
      "Ø³ØªØ±": 6776,
      "ĠÙħÛĮÙĨØ¯": 6777,
      "ĠÙħÛĮØ§ÛĮ": 6778,
      "ĠÙħÛĮØ§ÙĨÙĩ": 6779,
      "ĠÙħÛĮØ¯Ø§ÙĨØ³Øª": 6780,
      "ĠÙħÛĮÚ©ÛĮ": 6781,
      "ĠÙħÛĮÚ¯ÛĮØ±Ø¯": 6782,
      "ĠÙħÛĮØ±Ø³ÛĮØ¯": 6783,
      "ĠÙħÛĮØ¯ÙĪÛĮØ¯": 6784,
      "ĠÙħÛĮØ±ÙĪØ¯": 6785,
      "ĠÙħÛĮÚ©ÙĨÙĨ": 6786,
      "ĠÙħÛĮØ¨ÛĮÙĨÙĩ": 6787,
      "ĠÙħÛĮØ°Ø§Ø´Øª": 6788,
      "ĠØ®Ø²": 6789,
      "ĠØ®Ø¨": 6790,
      "ĠØ®ÛĮÙħ": 6791,
      "ĠØ®Ø§Ø±Ø§": 6792,
      "ĠØ®Ø²ÛĮØ¯": 6793,
      "ÙģØ§ÙĨ": 6794,
      "ÙģØ¬Ø±": 6795,
      "ĠÙ¾Ø§ÙĦ": 6796,
      "ĠÙ¾ÛĮØ§": 6797,
      "ĠÙĨØ±": 6798,
      "ĠÙĨÙģØª": 6799,
      "ĠÙĨØ¨ÛĮÙĨØ¯": 6800,
      "ĠÙĨØ®ÙĪØ±ÙĨØ¯": 6801,
      "Ø®ÙĨØ¯Ùĩ": 6802,
      "Ø®Ø§Ø±Ø§": 6803,
      "Ø®Ø±Ùģ": 6804,
      "Ø®Ø¨Ø±": 6805,
      "ĠÚ¯Ø³Øª": 6806,
      "ĠØ³ØªÙĪÙĨ": 6807,
      "ĠØ³Ø§Ø²ÙĨØ¯": 6808,
      "ĠØ³ÛĮØ¯ÛĮ": 6809,
      "ĠØ³Ø¨ÛĮÙĦ": 6810,
      "ĠØ´ÛĮÙħ": 6811,
      "ĠØ´ÙĦØ§ÙĤ": 6812,
      "ĠØ´ÙĪÙĨÙĩ": 6813,
      "ĠØ¢ÙĨØ·Ø±Ùģ": 6814,
      "Ø§Ø±ÙĨ": 6815,
      "Ø§Ø±Ú¯Ø§ÙĨ": 6816,
      "ÚĨØ§Ø±": 6817,
      "ĠÙĩØ±ÙĪ": 6818,
      "Ø§Ø¯Ø¨ÛĮ": 6819,
      "ĠØ¯Ø±ÙĨ": 6820,
      "ĠØ¯Ø±ÙħØ§ÙĨ": 6821,
      "ĠØ¯Ø±ÙĨØ§": 6822,
      "ĠØ¯Ø±Ø§Ø¬": 6823,
      "ĠØ¯Ø±ÙĨØ§ÛĮ": 6824,
      "ĠØ¯ÙĪÚ©": 6825,
      "ĠØ¯ÙĪÙħÙĪÙĨ": 6826,
      "Ø²ÛĮØ±": 6827,
      "Ø²ÛĮØª": 6828,
      "Ø²ÛĮÙĨØ´": 6829,
      "ÙĤØ§": 6830,
      "Ø§ÛĮÙĦÛĮ": 6831,
      "Ø§ÛĮÛĮÙħ": 6832,
      "Ø§ÛĮØ¹Ø§Øª": 6833,
      "Ø¹Ø§Ø¯Ùĩ": 6834,
      "Ø¹Ø§Ø¯ÛĮ": 6835,
      "Ø¹Ø±ÙĪØ³": 6836,
      "ØŃØ¸Ùĩ": 6837,
      "ØŃÚ©Ø§Ùħ": 6838,
      "ĠØ²Ø§Ø±ÛĮ": 6839,
      "ĠØ²ÙĨÚ¯ÛĮ": 6840,
      "ĠÙĩÙħÛĮØ´": 6841,
      "ĠÙĩÙħØ´ÙĪÙĨ": 6842,
      "Ø¬ÛĮÙĨ": 6843,
      "Ø§ÙĦØ§ÙĨ": 6844,
      "Ø§ÙĦØ¹ÙħÙĦ": 6845,
      "Ø§ÙĦØ¹Ø§Ø¯Ùĩ": 6846,
      "ĠØ¬Ø§Ùĩ": 6847,
      "ĠØ¬ÙĪØ´": 6848,
      "ĠØ¬ÛĮÙĨÛĮ": 6849,
      "ĠØ±ÙĪØ²Ø´": 6850,
      "ĠÚĨØªØ±ÛĮ": 6851,
      "ĠÚĨØ¬ÙĪØ±ÛĮ": 6852,
      "ĠÚ¯ÙģØªÛĮ": 6853,
      "ĠØ¨Ø±Ø³ÛĮ": 6854,
      "ĠØ¨Ø±Ø§ÙĨØ¯": 6855,
      "ĠØ¨Ø±Ø³Ùĩ": 6856,
      "ĠÙ¾Ø±Ø²": 6857,
      "ĠÙ¾Ø±ÙĪÚĺÙĩ": 6858,
      "Ù¾ÛĮÚ©": 6859,
      "Ø®ØªÙĩ": 6860,
      "ĠØ®ÛĮØ±": 6861,
      "ÛĮØ±Øª": 6862,
      "ĠØªÙĪÙģØ§ÙĨ": 6863,
      "ÙĪÙĨÙĨØ¯": 6864,
      "ĠØ¨Ø²Ø±Ú¯Ø³Ø§ÙĦ": 6865,
      "ĠØŃØ³ÛĮ": 6866,
      "ĠØŃÚ©ÙħØª": 6867,
      "ĠØŃÚ©ÛĮÙħ": 6868,
      "ĠØŃÛĮØ±Øª": 6869,
      "ĠÚ©ÙĨØ¯ÙĪ": 6870,
      "ĠÚ©ÙĨØ¯ØªØ±": 6871,
      "ĠÚ©ÙĨØ¯ÙĪÛĮ": 6872,
      "ĠÙĦÙĪØ±ÛĮ": 6873,
      "ÙħØ§ÙĨØ¯ÙĨØ¯": 6874,
      "ĠÙĤØ§ÙĦ": 6875,
      "ĠÙĤØ§Ø¯Ø±": 6876,
      "ĠØ§Ø³ØªØŃÚ©Ø§Ùħ": 6877,
      "ĠØ§Ø³Ø§ÙħÛĮ": 6878,
      "ĠØ§ÛĮÙĨØ·Ø±Ùģ": 6879,
      "ÙĪØ±ÛĮÙħ": 6880,
      "Ø·Ø¹Ùħ": 6881,
      "ĠØ®ÙĪØ´ØŃØ§ÙĦÙĨ": 6882,
      "ØªØ±ÙĪ": 6883,
      "ØªØ±Ø´": 6884,
      "ĠÛĮØ®Øª": 6885,
      "ĠÛĮØ§Ø¨ÛĮ": 6886,
      "Ø¨ÙĩØª": 6887,
      "Ø¨Ø§ØªÛĮ": 6888,
      "ØªÛĮÙ¾": 6889,
      "ØªÛĮØ§Ø·": 6890,
      "ĠØ¹ÙĦØ§": 6891,
      "ĠØ¹Ø¨Ø±": 6892,
      "ĠØ¹ÙĦØ§ÙĤ": 6893,
      "ĠØ¹ÙĪØ¹": 6894,
      "ĠØºØ§Ø±ÛĮ": 6895,
      "ĠØºÙĪÙĦÛĮ": 6896,
      "ØºØ§ØªÛĮ": 6897,
      "ĠÙħÙĨÙģØ¬Ø±": 6898,
      "ÙĪÛĮÛĮÙħ": 6899,
      "ĠØ²Ø¯ÛĮ": 6900,
      "ØµÛĮÙĩ": 6901,
      "ØµÙĪØª": 6902,
      "ĠÚ©ÙħØ§ÙĨÛĮ": 6903,
      "Ø®ÙĪØ§Ø³ØªØ´": 6904,
      "ĠÚ©ÙĪÚĨÚ©ØªØ±": 6905,
      "ĠÚ©ÙħÚ©ØªÙĪÙĨ": 6906,
      "ĠØ¯ÛĮÙĪÛĮØ¯": 6907,
      "Ø§Ø³ÙħØª": 6908,
      "ĠÚ¯Ø±ÙģØªÛĮØ¯": 6909,
      "ĠÚ¯Ø±ÙģØªÙĨØ´": 6910,
      "ĠØ¯Ø§ÙĨØ¯": 6911,
      "ĠØ¯Ø§ØºÙĩ": 6912,
      "ØŁ!\"": 6913,
      "ĠØ¨Ø§Ø´Ú©": 6914,
      "ĠØ¯Ø±Ø®ØªÙĩ": 6915,
      "ĠØ¯Ø±Ø®ØªØ´Ø§ÙĨ": 6916,
      "ĠÙħØ§Ú©Ø§Ø±": 6917,
      "Ø¸Ø¨Øª": 6918,
      "ĠÙ¾Ø§Ø±Ú¯ÛĮ": 6919,
      "ĠØ¯Ø§Ø±ÙĨØ¯Ùĩ": 6920,
      "ĠØ¯Ø§Ø±ÙĪÛĮÛĮ": 6921,
      "ĠØ¯Ø§Ø±ÙĪÛĮØ´": 6922,
      "ĠØ¯Ø§Ø±Ø¨Ø³Øª": 6923,
      "ĠØ¨Ø¯ÙħØ²Ùĩ": 6924,
      "ĠØ¨Ø¯ÙĪÛĮÙħ": 6925,
      "ĠØ¨Ø¯Ø¨ÙĪÛĮÛĮ": 6926,
      "ĠÛĮÙĩÙĪ": 6927,
      "ÙħØªØ´Ú©Ø±": 6928,
      "ĠØ¨Ø±Ø¯Ø§Ø±": 6929,
      "ĠØªØ±Ø³ÛĮ": 6930,
      "ĠØªØ±Ø³Ø¯": 6931,
      "ĠØªØ±Ø¬ÛĮ": 6932,
      "ĠØªØ±Ø§Ø´Ùĩ": 6933,
      "ĠÚ©Ø§Ø±Ø§ÛĮ": 6934,
      "ĠØ³Ø±ÙĩØ§ÛĮØ´Ø§ÙĨ": 6935,
      "ĠØ³Ø±ÙģÙĩ": 6936,
      "Ø§ÙĨÛĮÙĩ": 6937,
      "ĠØ¨ÙĦÙĨØ¯Ùĩ": 6938,
      "ĠØ¨Ø±Ú¯Ø§": 6939,
      "ĠØ¯Ø³ØªØ§ÙĨ": 6940,
      "ĠØ¯Ø³ØªØ§Ø´ÙĪÙĨ": 6941,
      "ĠØ¯Ø³ØªÙħØ§ÙĦÛĮ": 6942,
      "Ø¢ÙĦ": 6943,
      "Ø¢ÙģØªØ§Ø¨": 6944,
      "Ø¢ÙĦÙĪ": 6945,
      "Ø¢ÙĨÙĩØ§": 6946,
      "Ø¢Ø¯Ùħ": 6947,
      "Ø¢ÙħÛĮØ²ÛĮ": 6948,
      "Ø¢ÛĮÛĮ": 6949,
      "Ø¯Ø±Ø³Øª": 6950,
      "Ø¯ÛĮØ¯Ùĩ": 6951,
      "ĠÛĮØ§Ø¯Ùħ": 6952,
      "ĠØŃØ§ÙĦÙħ": 6953,
      "ĠØŃØ§ÙĦÙħØ§ÙĨ": 6954,
      "ĠØŃØ§ÙĦØªØ§ÙĨ": 6955,
      "ĠÙħÙĪØ¨ÛĮ": 6956,
      "ĠÙħÙĪØ°ÛĮ": 6957,
      "ĠÙħØ§Ø¯Ø±ÙĩØ§": 6958,
      "Ø«Ùĩ": 6959,
      "ĠØ·Ø±Ø²": 6960,
      "ĠØ§Ø´Ø¹Ùĩ": 6961,
      "ĠÙĨØ§Ø®ÙĪØ´": 6962,
      "ĠÙĨØ§ÙĪÚ¯Ø§ÙĨ": 6963,
      "ĠØ¬Ø¯ÛĮØ¯Øª": 6964,
      "ĠØºÙħÚ¯ÛĮÙĨÙĩ": 6965,
      "ĠØ¨Ú¯Ø´": 6966,
      "ĠØ±ÙĨÚ¯Ùĩ": 6967,
      "ĠØ¨Ø®Ø´Ø¯": 6968,
      "Ø¶ÙĦ": 6969,
      "ĠÙ¾Ø±Ø³ÛĮØ¯ÙĨ": 6970,
      "ĠØ¨ÛĮØ¨": 6971,
      "ĠØ¨ÛĮØ§Ø¨Ø¯": 6972,
      "ĠØ¨ÛĮÚĨØ§Ø±Ùĩ": 6973,
      "ÙĪØ¨Ø®Ø§Ø±Ø§": 6974,
      "ĠØ®Ø±Ø¬": 6975,
      "ĠØ®ÙĪØ§Ø³ØªÛĮÙħ": 6976,
      "Ø´Ø¯ÙĨ": 6977,
      "ĠØ³ÙĨÚ¯Ø´": 6978,
      "ĠØ³ÙĨÚ¯ÙĩØ§": 6979,
      "ĠØ´ÙĨÙĪÙĨØ¯": 6980,
      "ĠØ¨Ø¨Ø®Ø´Ø¯": 6981,
      "ĠÚ©Ø´Ùħ": 6982,
      "ĠÚ¯Ø°Ø§Ø´ØªÙħ": 6983,
      "ĠÙĨØ¯Ø§Ø±ÛĮØ¯": 6984,
      "ĠÙĨØ§Ø±Ø§ØŃØªÙħ": 6985,
      "ĠÙĨØ§Ú¯ÙĩØ§ÙĨÛĮ": 6986,
      "Ø§ÙĨØ¯Ø§Ø²ÙĨØ¯": 6987,
      "ĠØ§ØªØ§ÙĤØªØ§ÙĨ": 6988,
      "ĠÙĤØ±ÙħØ²Ùħ": 6989,
      "ĠÙĤØ±ÙħØ²Øª": 6990,
      "ĠÙĤØ±ÙħØ²Ø´Ø§ÙĨ": 6991,
      "ĠØ¨Ø±Ú¯Ø´ØªÙĩ": 6992,
      "ØªØ§Ø¨Ø¯": 6993,
      "ĠØ¨Ø§Ø±ÛĮØ¯": 6994,
      "ĠØ¨Ø§ÙĦÙħ": 6995,
      "ĠØ®ÙĨØ¯Ø§ÙĨØ¯": 6996,
      "ĠØ®ÙĪØ§ÙĩØ±ÛĮ": 6997,
      "ĠÚ©ÛĮÙģÛĮ": 6998,
      "ĠÙħØ§ÙĩÛĮÛĮ": 6999,
      "Ø´Ú©Ø§Ø±": 7000,
      "ĠÙĨÛĮØ³ØªÙĨ": 7001,
      "ĠØ®Ø±Ú¯ÙĪØ´Ø´": 7002,
      "ĠÙĨØ´ØªÛĮ": 7003,
      "ĠÙħØ¯Ø§ÙĪ": 7004,
      "ĠØªÙĦØ®ÛĮ": 7005,
      "ĠØ¹Ø±ÙĪØ³Ú©Øª": 7006,
      "Ø§ØŃØªÛĮØ§Ø·": 7007,
      "ĠØ´Ø§Ø¯Ø´": 7008,
      "ĠØ´Ø§Ø¯Ø´Ø§ÙĨ": 7009,
      "ĠØ´Ø§Ø¯ØªØ±ÛĮÙĨ": 7010,
      "ĠØ³Ø¨Ú©ÛĮ": 7011,
      "ĠØ¬Ø§Ø¯ÙĪÛĮØ´": 7012,
      "ĠØ¨Ù¾Ø°ÛĮ": 7013,
      "ĠØ¢Ø¨ÛĮØ§Ø±ÛĮ": 7014,
      "Ø¦ÙĦ": 7015,
      "ĠØ´Ø§Ú¯Ø±Ø¯Ø§ÙĨ": 7016,
      "ĠØªØ§Ø¨ØŃØ§ÙĦ": 7017,
      "ĠØºØ°Ø§Ø³Øª": 7018,
      "ĠØ¨Ø§ØºØ´Ø§ÙĨ": 7019,
      "ĠØºÛĮØ±Ø¹Ø§Ø¯ÛĮ": 7020,
      "ĠØ§ÙĨØ¯Ú©ÛĮ": 7021,
      "ĠØ§ÙĨØ¯ÛĮØ´ÛĮØ¯": 7022,
      "Ú¯Ø°Ø±Ùĩ": 7023,
      "ĠØŃØ§ÙĦÛĮÚ©Ùĩ": 7024,
      "Ø¯Ø§Ø¯Ùħ": 7025,
      "ĠØŃÛĮØ§Ø·Ø´": 7026,
      "ĠØªÙĦØ§Ø´Ø´": 7027,
      "ĠØ¬Ø§ÛĮÚ¯": 7028,
      "ĠØ¬Ø§ÛĮØ´Ø§ÙĨ": 7029,
      "ĠØ¨Ø±Ú¯Ø±Ø¯Ùħ": 7030,
      "ĠØ¨Ø±Ú¯Ø±Ø¯Ø§ÙĨ": 7031,
      "ĠØ¨Ø±Ú¯Ø±Ø¯ÙĪÙĨÙĩ": 7032,
      "Ø¨Ø¯Ùĩ": 7033,
      "ĠÚ©Ø§Ø¬": 7034,
      "Ù¾Ø±ÙĨØ¯": 7035,
      "ĠÙĤÙĪÛĮÙĩ": 7036,
      "ĠÙĤÙĦØ§Ø¯Ùĩ": 7037,
      "ĠÙħÙĪØ§Ø¸Ø¨Øª": 7038,
      "ĠØ³ÛĮØ¨Ø´": 7039,
      "Ø®ÙĪØ±Ø¯Ùĩ": 7040,
      "ĠØ§Ø±Ø¯ÙĪÚ¯Ø§Ùĩ": 7041,
      "ĠØ§ÙĦÙħØ§": 7042,
      "ĠØ§ÙĦØ³ÙĦØ³ÙĦÙĩ": 7043,
      "ĠØ§Ø·ÙĦØ§": 7044,
      "ĠØ§Ø·ÙħÛĮÙĨ": 7045,
      "ĠØ¢ÙħØ§Ø¯": 7046,
      "ĠÙģØ±ÛĮØ²Ø±": 7047,
      "ĠØªÙ¾Ø§ÙĨÚĨÙĩ": 7048,
      "ĠØªØ®ØªÛĮ": 7049,
      "ĠØ´Ø¬Ø§Ø¹ÛĮ": 7050,
      "ĠØªÙĨØ¯Ø±": 7051,
      "ĠØªØ±Ø³Ùħ": 7052,
      "ĠÙĨØ¨Ø§Ø´Ùĩ": 7053,
      "ĠÙ¾ÙĪØ´Ø§ÙĨØ¯ÙĨØ¯": 7054,
      "ĠØ±ÛĮØ²ÛĮ": 7055,
      "ĠØ±ÛĮØªÙħ": 7056,
      "ĠØ¯Ø§ÙĨØ§ÛĮÛĮ": 7057,
      "ÙħØ¹Ø°Ø±Øª": 7058,
      "ĠÙħØ§Ø±ØªØ§": 7059,
      "Ú¯Ø±Ø¯Ø§ÙĨÙħ": 7060,
      "ĠØ¸Ø§Ùĩ": 7061,
      "ĠØ¸Ø±ÛĮ": 7062,
      "ĠØ´Ø¬Ø§Ø¹ØªØ´": 7063,
      "ĠÙĨÙħÛĮÚ©": 7064,
      "ĠÙĨÙħØ§ÛĮÙĨØ¯": 7065,
      "ĠØ³ÙĩÙħ": 7066,
      "ĠØ²Ø±Ø¯Ø´": 7067,
      "ÚĨÛĮØ²ÛĮ": 7068,
      "ĠØ³Ø±Ø¯Ùħ": 7069,
      "ĠØ³Ø±Ø¯Ø´Ø§ÙĨ": 7070,
      "ĠÙħØ´ØªØ±Ú©": 7071,
      "ĠØ³ØªÙĨØ¯": 7072,
      "ĠØ³ØªØ§Ø±Ú¯Ø§ÙĨ": 7073,
      "ĠÙĨÚ¯Ø±ÙģØªÙĩ": 7074,
      "ĠØ¨Ø´ÙĪÙĨØ¯": 7075,
      "ĠØ¨Ø´ÛĮÙĨÙĩ": 7076,
      "ĠØ¨Ø´ÙĪØ±ÛĮÙħ": 7077,
      "ĠÙĩØ¯ÙģØ´": 7078,
      "ĠØ±ÙĪØ´ÙĨØ´": 7079,
      "ĠÙĤØ·Ø§Ø±ÙĩØ§ÛĮ": 7080,
      "ĠÚ¯ÛĮØ§ÙĩÛĮ": 7081,
      "ĠØ¬Ø³ØªØ¬ÙĪÛĮØ´": 7082,
      "ĠØ¨Ø§ÙĩÙĪØ´Ø§ÙĨÙĩ": 7083,
      "ĠØ§ÙħÚ©Ø§ÙĨ": 7084,
      "ĠÙħØ§Ø¯Ø±Ø¨Ø²Ø±Ú¯Øª": 7085,
      "ĠÙ¾ÙĪÚ¯ÙĦ": 7086,
      "ĠØªØ¨Ø±ÛĮ": 7087,
      "ĠØ¶Ø§ÛĮØ¹Ø§Øª": 7088,
      "ÙĪØ±ÛĮØª": 7089,
      "ĠØ´ÛĮØ±ÛĮÙĨØ´": 7090,
      "ĠÙħØ®Ø²ÙĨ": 7091,
      "ĠØ¯Ø±Ø¯Ø´": 7092,
      "ĠØ¯ÛĮÙĪØ§Ø±ÙĩØ§ÛĮ": 7093,
      "ĠØ¢Ø²Ø±Ø¯": 7094,
      "ĠØªÙĪØ§ÙĨØ³ØªÙħ": 7095,
      "ĠØ®Ø±Ø§Ø¨Ú©ÛĮ": 7096,
      "ĠØ§ÙĨØ¯Ø§Ø®ØªÙħ": 7097,
      "ĠØ®Ø´Ú©Ø´": 7098,
      "Ø³Ø±Øª": 7099,
      "ĠØ´Ø§ÙħØª": 7100,
      "ĠØ´Ø§ÙħØ´": 7101,
      "ØŃØ§ÙĦØª": 7102,
      "ĠÙ¾Ø±ÛĮØ´Ø§ÙĨ": 7103,
      "Ø¨ÙĪØ³Ø¯": 7104,
      "ĠØ¹Ø¬ÛĮØ¨Ùĩ": 7105,
      "ĠÙħÙĤØ¯ÙħÙĩ": 7106,
      "ĠÚ©ÙĦÛĮØ¯ÛĮ": 7107,
      "ĠÚ©ÙĦÛĮØ¯ÙĩØ§": 7108,
      "ĠØ§ØµØ§Ø¨Øª": 7109,
      "ĠØ´Ú©Ø³ØªÙħ": 7110,
      "ĠÙħÛĮÙħÙĪÙĨÛĮ": 7111,
      "ĠØ¹ÙħØ±Ø´": 7112,
      "ĠØ±ÙģØªØ§Ø±Ø´": 7113,
      "ĠØ¯ÙģØªØ±Ø´": 7114,
      "Ø¬Ø§ÙĦØ¨": 7115,
      "ĠÙĤØ§Ù¾ÛĮØ¯": 7116,
      "ĠÙĤØ§Ø¦ÙĦ": 7117,
      "ĠÙĩÙĪÛĮØ¬ÛĮ": 7118,
      "ĠÙĩÙĪÛĮØ¬Ø´": 7119,
      "Ø®ÙĪØ±Ùħ": 7120,
      "Ø¨Ø§Ø¯Ø¨Ø§Ø¯": 7121,
      "ĠØ¹Ø³ÙĦØ´": 7122,
      "ĠØ§Ø±Ø²Ø´ÛĮ": 7123,
      "ĠØ¯Ø±Ø¢ÙĪØ±Ø¯ÙĨ": 7124,
      "ĠØŃØ³Ø§Ø¨": 7125,
      "ĠØ«Ø§ÙĨÛĮÙĩ": 7126,
      "Ø¯ÙĪÙĨØ³ØªÙħ": 7127,
      "ĠØ³Ø±Ø§Ø²ÛĮØ±": 7128,
      "ØªØ±Ø³ÙĨØ¯": 7129,
      "ĠØ¨Ø´ÙĨÙĪÙħ": 7130,
      "Ø§ÙĨÚ¯ÛĮØ²Ø´Ø§ÙĨ": 7131,
      "Ø®ÙĪØ§Ø¨ÛĮØ¯ÙĨØ¯": 7132,
      "ĠØªÛĮØ±Ø§ÙĨØ¯Ø§Ø²ÛĮ": 7133,
      "ĠØ¬ÙĨØª": 7134,
      "ĠØ¢Ø±Ø§ÛĮØ´Ú¯Ø§Ùĩ": 7135,
      "ĠÚ¯Ø°Ø´ØªÙĨØ¯": 7136,
      "ĠØ®Ø±Ø¯ÙħÙĨØ¯Ø§ÙĨÙĩ": 7137,
      "ĠØ¬Ø±Ø¬": 7138,
      "ĠØ®ÛĮØ§Ø¨ÙĪÙĨ": 7139,
      "ĠØ®ÙĦØ§ÙĤÛĮØª": 7140,
      "ĠØ§ÙĨÚ¯ÙĪØ±ÙĩØ§ÛĮ": 7141,
      "ĠØ¨Ù¾ÙĪØ´Ø§ÙĨØ¯": 7142,
      "ĠÙĨØ±Ø¯Ø¨Ø§ÙĨÛĮ": 7143,
      "ĠØ¨Ø±ÙĤØµÙħ": 7144,
      "ĠØ´Ø¹Ø±ÛĮ": 7145,
      "ĠÙħØ¶ÙħÙĪÙĨ": 7146,
      "ĠØ®Ø·ÛĮ": 7147,
      "ĠÙ¾Ø§Ø´ÛĮØ¯ÙĨØ¯": 7148,
      "ĠÙ¾Ø§Ø´ÙĨÙĩ": 7149,
      "ĠÙ¾Ø§Ø´Ø´ÙĪÛĮÛĮ": 7150,
      "ĠÙģØ±Ø§ÙĪØ§ÙĨÛĮ": 7151,
      "ĠÙĦÛĮÙĪØ§ÙĨÛĮ": 7152,
      "ĠØ¨ÙĨØ¯Ø§Ø²Ùĩ": 7153,
      "ĠÙĨÙĪØ²Ø§Ø¯ÛĮ": 7154,
      "ĠØºØ±ÛĮØ¨ÛĮ": 7155,
      "ĠØ¨ÙħØ§ÙĨÙħ": 7156,
      "ĠØ¨ÙħØ§ÙĨÛĮØ¯": 7157,
      "ĠÙĤØ·Ø¹Ø§ØªÛĮ": 7158,
      "ĠØ¨ÙĨÙĪÛĮØ³Ùĩ": 7159,
      "ĠØ¨Ø®ÙĪØ±ÛĮÙħØ´": 7160,
      "ĠÙħÙĪØ¬ÙĪØ¯ÛĮ": 7161,
      "ĠØ±Ø§Ø²Ø´": 7162,
      "ĠÙģÙĩÙħÛĮØ¯Ùĩ": 7163,
      "ĠÙĦØ±Ø²ÛĮØ¯": 7164,
      "ĠÙģÙĦÙĪØ±Ø§": 7165,
      "ĠØ¨ÚĨØ³": 7166,
      "ĠØ¨ÚĨÛĮÙĨÙĨØ¯": 7167,
      "ĠØ§Ø³ØªØ®ÙĪØ§ÙĨØ´": 7168,
      "ĠÙĨØ®ÙĪØ±Ø¯ÙĨØ¯": 7169,
      "ĠØ®ÙĪØ¯Ú©Ø§Ø±ÙĩØ§ÛĮØ´": 7170,
      "ĠØ¨Ø¨ÙĨØ¯Ùħ": 7171,
      "ĠØ¨Ø¨ÙĨØ¯ÛĮÙħ": 7172,
      "ĠØ®Ø§Ú©Ø³ØªØ±": 7173,
      "ĠÙ¾ØªÙĪÙĩØ§": 7174,
      "ĠØ¬ÙĪØ±Ø¬": 7175,
      "ĠØ¨Ø®ÙĪØ§ÙĨÛĮ": 7176,
      "ĠØ¨ÚĨØ±Ø®Ø§ÙĨØ¯": 7177,
      "ĠØ¨ÚĨØ±Ø®Ø§ÙĨÙĨØ¯": 7178,
      "ĠÙ¾Ø®ØªÙĩ": 7179,
      "ĠØ¯Ø³ØªÚ©Ø´Ø´": 7180,
      "ĠÙħØµØ±Ùģ": 7181,
      "ĠØ§ÙĪÙĦÛĮÙĩ": 7182,
      "ĠÚĨØ±ØªÛĮ": 7183,
      "ĠØªØ´ÙĪÛĮÙĤØ´": 7184,
      "Ø¨Ø§ÙĦØ§": 7185,
      "ĠÙĨØ´ÙĨÛĮØ¯Ùĩ": 7186,
      "ĠÙħØºØ²Ø´": 7187,
      "ĠÙĩØ±Ø¯ÙĪÛĮ": 7188,
      "Ù¾Ø°ÛĮØ±ÙģØª": 7189,
      "ĠÙĤÙĦØ¨Ø´": 7190,
      "ĠÛĮÙĪÚ¯Ø§ÛĮ": 7191,
      "ĠÚ©ÙĦÛĮØ³Ø§ÛĮ": 7192,
      "ĠÙģÚ©Ø±Ø´": 7193,
      "ĠØ´ÙĨÛĮØ´Ø§ÙĨ": 7194,
      "ĠÙĪÛĮÙĪÙĦÙĨØ´": 7195,
      "ĠÚ©ÙĪØ¯Ú©Ø§ÙĨ": 7196,
      "ĠØ®Ø´ÙĨÛĮ": 7197,
      "ĠØªÙĪØ¬ÙĩÛĮ": 7198,
      "ĠØ¢Ø±Ø²ÙĪÛĮØ´Ø§ÙĨ": 7199,
      "ĠØ¹Ø²ÛĮØ²ØªØ±ÛĮÙĨ": 7200,
      "ĠØªØ´Ú©ÛĮÙĦ": 7201,
      "ĠÙħØ¶ØŃÚ©Ùĩ": 7202,
      "ĠÚ©Ø¯ÙĪÙĩØ§": 7203,
      "ÙģØ±ÙĪØ´ÛĮ": 7204,
      "ĠØ´ÙĦÙĪØº": 7205,
      "ĠÚĨØ±Ø®Ø§ÙĨØ¯ÙĨØ¯": 7206,
      "ĠØ¶Ø¹ÛĮÙģÛĮ": 7207,
      "ĠØ¢ÙĪÛĮØ²ÙĪÙĨ": 7208,
      "ĠØ¬ÙĦØ³Ùĩ": 7209,
      "ĠÙ¾Ø±Ø§Ú©ÙĨØ¯": 7210,
      "ĠÙ¾Ø±Ø§Ú©ÙĨØ¯ÙĨ": 7211,
      "ĠØ·Ø¨ÙĦØ´": 7212,
      "ĠØ¨ÙģÙĩÙħÙĨØ¯": 7213,
      "ĠÙ¾ÛĮÚ©Ø§ÙĨ": 7214,
      "ĠØ±ÙĪØ³Ø±ÛĮØ´": 7215,
      "ĠÙħÙĪØªÙĪØ±Ø³ÛĮÚ©ÙĦØªØ´": 7216,
      "ĠØ¨Ø§ØŃØ§ÙĦÙĩ": 7217,
      "ĠÙħÙĪÙģÙĤÛĮØªØ´": 7218,
      "ĠØ±Ø®Ø¯Ø§Ø¯": 7219,
      "ĠØ¨Ø±ÙĨÚ¯Ø±Ø¯Ø¯": 7220,
      "ĠÙ¾ÛĮÙĪØ³ØªÙĩ": 7221,
      "Ø¦ÛĮØ³": 7222,
      "ĠØ±Ø§Ø³ØªØ´": 7223,
      "ĠØ±Ø§Ø³ØªÚ¯ÙĪ": 7224,
      "ĠØ¨Ø§Ø²ÛĮÚ¯Ø±ÛĮ": 7225,
      "ĠÙĦÙĨÚ¯Ø§ÙĨ": 7226,
      "ĠØ®Ø±Ø§Ø´ÛĮØ¯": 7227,
      "Ù¾ÛĮÚĨÛĮØ¯": 7228,
      "ĠØ¨ÙħÙĪÙĨÛĮÙħ": 7229,
      "ĠØªØ®ÙħØ´": 7230,
      "ĠÙħÛĮÚ¯ÙĪÙĩØ§": 7231,
      "ĠÙĨÚ¯ÙģØªÙĨØ¯": 7232,
      "ĠÙĨÛĮÙģØªØ¯": 7233,
      "ĠØ¨ÙħØ§ÙĦØ¯": 7234,
      "ĠÙħØ´ÙĩÙĪØ±ÛĮ": 7235,
      "ĠØ²Ø§ÙĨÙĪÙĩØ§ÛĮ": 7236,
      "ĠÛµ": 7237,
      "ÙĨÙĪØ´ØªÙĩ": 7238,
      "ĠØ¨ÙĨØ´ÛĮÙĨÛĮ": 7239,
      "ĠØ¨ÙĨÙĪØ§Ø²ÛĮ": 7240,
      "ĠØ´ÙĦÙĪØ§Ø±ÙĩØ§ÛĮ": 7241,
      "ĠÚ©Ø§Ø¨ÙĪØ³": 7242,
      "ĠØ³Ø§Ø²ÙħØ§ÙĨØ¯Ùĩ": 7243,
      "ĠØ¬Ø§Ø±Ø¬": 7244,
      "ĠØ²Ø§ÙĨÙĪÛĮØª": 7245,
      "ĠÙĨØ¸Ø§Ø±Ùĩ": 7246,
      "ĠØ¯Ø±Ø¨ÛĮØ§ÙĪØ±ÙĨØ¯": 7247,
      "ĠØ¨Ø¨Ø®Ø´ÙĨØ¯": 7248,
      "ĠâĢİØĮ": 7249,
      "ÙģØ±Ø¯Ø§": 7250,
      "ĠÙĨÚ¯Ø°Ø§Ø±Ø¯": 7251,
      "ĠØªÙĤÙĦØ¨ÛĮ": 7252,
      "ĠØ¨Ø®ÙĪØ§Ø¨ÛĮÙħ": 7253,
      "ĠÙħØ·ÛĮØ¹ÛĮ": 7254,
      "ĠÙħÙĪØ¯Ø¨Ø§ÙĨÙĩ": 7255,
      "Ú©ÙĪØ¨ÛĮØ¯": 7256,
      "Ú©ÙĪØ¨ÛĮØ¯ÙĨØ¯": 7257,
      "ĠØ¯Ø³ØªÙĪØ±Ø§Øª": 7258,
      "ĠØ¯Ø³ØªÙĪØ±Ø§ÙĦØ¹ÙħÙĦ": 7259,
      "Ú¯Ø°Ø±ÙĪÙĨØ¯ÙĨØ¯": 7260,
      "ĠÙĦØºØ²ÛĮØ¯ÙĨØ¯": 7261,
      "ĠÙĦØ§Ø³ØªÛĮÚ©Ø´": 7262,
      "ĠØ±Ø¤ÛĮØ§ÛĮØ´": 7263,
      "ĠØ¯Ø´ÙħÙĨ": 7264,
      "ĠØ®Ø±ÙĪØ¬": 7265,
      "ĠÙĨØ±ÙĪÛĮØ¯": 7266,
      "ĠØ´ÙħØ§Ø±Ø´": 7267,
      "ĠØŃÛĮÙĪÙĪÙĨØ§ÛĮ": 7268,
      "ĠØ¨Ú¯Ø°Ø±ÙĪÙĨÙĨ": 7269,
      "ĠØ§ÙĦÚ¯ÙĪÙĩØ§ÛĮÛĮ": 7270,
      "ĠØ¢ÙĦÙĪØ¨Ø®Ø§Ø±Ø§": 7271,
      "ĠÙĨØ²ÙĨÛĮØ¯": 7272,
      "ĠØŃØ¬Ø§Ø¨Ø´": 7273,
      "ĠÙħØ³Ø¦ÙĦÙĩ": 7274,
      "ĠÙ¾ÛĮÙĪØ³ØªÙĨ": 7275,
      "âĢĮØĮâĢĮ": 7276,
      "ĠÙĪÙĦØ´": 7277,
      "ĠØ³Ø±ÙħØ§ÛĮ": 7278,
      "Ø¢ÙħÙĪØ²Ø§ÙĨØ´": 7279,
      "ĠØªØ§Ø±ÛĮØ®ÚĨÙĩ": 7280,
      "ĠÚ©Ø«ÛĮÙģØ´": 7281,
      "ĠÙħØ²Ø§ØŃÙħØª": 7282,
      "ÙĩÙĨÙĪØ²": 7283,
      "ĠÚ©Ø±ÛĮÙħØ´": 7284,
      "ĠÙ¾ÙĦØ§Ø³ØªÛĮÚ©ÛĮ": 7285,
      "Ø§Ø´Ú©Ø§ÙĦ": 7286,
      "Ø§Ø´Ú©Ø§ÙĦÛĮ": 7287,
      "ĠÙĩØ§ÛĮÙħØ§ÙĨ": 7288,
      "ĠØªÙĦÙģÙĨÛĮ": 7289,
      "ĠØŃÛĮÙĪÙĪÙĨØ§ØªØ´": 7290,
      "ĠÙ¾Ø±Ø®Ø§Ø´Ú¯Ø±Ø§ÙĨÙĩ": 7291,
      "ĠØ¨Ø¬ÙĨÚ¯Ø¯": 7292,
      "ĠØ§ÙģØ³Ø±Ø§ÙĨ": 7293,
      "ĠØ§ÙģØ³Ø±Ø¯Ùĩ": 7294,
      "ĠÚ©Ø±Ø§ÙĪØ§": 7295,
      "ĠÚ©Ø±Ø§Ú©Ø±": 7296,
      "ĠØ¨Ø§ØŃÚ©ÙħØª": 7297,
      "ÚĨØ±Ø®ÙĨØ¯": 7298,
      "ĠÙĩØ±ÚĨÛĮØ²ÛĮ": 7299,
      "ĠÙĩØ¯Ø§ÛĮØ§ÛĮ": 7300,
      "ĠÙĨÚ¯Ø°Ø§Ø´ØªÙĩ": 7301,
      "ĠÚ©Ø§Ø¯ÙĪÛĮ": 7302,
      "ĠÙĪØ§Ø±ÙĪÙĨÙĩ": 7303,
      "ĠÙħÙĪØ¨Ø§ÛĮÙĦØ´": 7304,
      "ĠÙħÙĤØ§Ø¨ÙĦ": 7305,
      "ĠØ§Ø¹ÙĦØ§Ùħ": 7306,
      "ĠØ§Ø´ÛĮØ§ÛĮ": 7307,
      "ĠØ§Ø´ØªØ¨Ø§ÙĩØ§Øª": 7308,
      "ĠÚ©Ù¾Ú©": 7309,
      "ĠÙħÛĮØ±Ø³Ùĩ": 7310,
      "ĠÙĦØ²Ø¬": 7311,
      "ĠØ®ÙĪØ¯Ø±Ø£ÛĮ": 7312,
      "ĠÙħØªÙĪØ³Ø·": 7313,
      "Ø¯Ø±Ø®Ø´ÛĮØ¯ÙĨØ¯": 7314,
      "ĠÙĪØ§Ø¶ØŃ": 7315,
      "Ø®ÙĪØ´Ø¨Ø®ØªÙħ": 7316,
      "ĠÙĪÙģØ§Ø¯Ø§Ø±ÛĮ": 7317,
      "ĠÙĨÙħÛĮØ¯Ø§ÙĨØ³Øª": 7318,
      "ĠØ§Ú©ØªØ´Ø§Ùģ": 7319,
      "Sue": 7320,
      "Tom": 7321,
      "ÙħØ«ÙĦ": 7322,
      "ĠØ±ÛĮØ§Ø¶ÛĮ": 7323,
      "ĠØªÙĤØµÛĮØ±": 7324,
      "ĠØªØºØ°ÛĮÙĩ": 7325,
      "ĠØ¨Ø§Ø±ÙĪØª": 7326,
      "ĠØ®ÛĮÙħÙĩ": 7327,
      "ĠÙ¾Ø§ÙĦØªÙĪ": 7328,
      "ĠÙĩØ±ÙĪÙĤØª": 7329,
      "ĠÙĩÙħÛĮØ´Ú¯ÛĮ": 7330,
      "ĠØ¹Ø¨Ø±ØªÛĮ": 7331,
      "ĠÙħØ§Ú©Ø§Ø±ÙĪÙĨÛĮ": 7332,
      "ÙħØªØ´Ú©Ø±ÛĮÙħ": 7333,
      "ĠØªØ±Ø¬ÛĮØŃ": 7334,
      "ĠØ¨Ù¾Ø°ÛĮØ±Ø¯": 7335,
      "ĠØ§Ø·ÙħÛĮÙĨØ§ÙĨ": 7336,
      "ĠØ³Ø§Ø²ÙħØ§ÙĨØ¯ÙĩÛĮ": 7337,
      "!'": 7338,
      ".Â«": 7339,
      ".âĢı": 7340,
      "Ġ3": 7341,
      "Ġnaughty": 7342,
      "Ø§ÙĪØ§": 7343,
      "Ø§Ø³ÛĮ": 7344,
      "Ø§ÛĮÙħÛĮ": 7345,
      "Ø§ØºÛĮ": 7346,
      "ÛĮØ°": 7347,
      "ÙĪØ§ÙĦ": 7348,
      "ÙĪØ²Ø¯": 7349,
      "ÙĪØ¹ÛĮ": 7350,
      "Ø¯ÙħÛĮØ¯": 7351,
      "Ø¯ÙĪÙħ": 7352,
      "ÙĨÙĪØ±": 7353,
      "ÙĨØ§Ø³": 7354,
      "ÙĨØ²Ø¯": 7355,
      "ÙĨØªØ±Ø³ÛĮØ¯": 7356,
      "Ø±Ú©": 7357,
      "Ø±Ø³Ø§ÙĨ": 7358,
      "ÙħØ§Ùħ": 7359,
      "ÙħØ§Ø´": 7360,
      "ÙħØŃ": 7361,
      "ÙħÙ¾": 7362,
      "ÙħØ§ÙĩÛĮ": 7363,
      "ÙħØ¦": 7364,
      "ÙħØ§Ø¯Ø±": 7365,
      "ÙĩÙħ": 7366,
      "ĠØ¨ÙĦÛĮ": 7367,
      "ĠØ¨Ø¬": 7368,
      "ĠØ¨Ø®Øª": 7369,
      "ĠØ¨ÙĨÚ¯": 7370,
      "ĠØ¨Ú©ÛĮ": 7371,
      "ĠØ¨Ø®ÙĪØ§ÙĩÛĮ": 7372,
      "ĠØ¨Ú©Ø§Ø±": 7373,
      "ĠØ¨ÚĨÙĨÚ¯": 7374,
      "ĠØ¨Ø®ÙĪØ§ÙĩÛĮØ¯": 7375,
      "ĠØ¨ÙĪØ³ÙĨØ¯": 7376,
      "Ú©Ø¨": 7377,
      "Ú©Ø§Ø³": 7378,
      "Ú©Ø´ÙĨ": 7379,
      "Ú©Ø³ØªØ±": 7380,
      "ØªÙĪÙĦ": 7381,
      "ØªÛĮÙħÛĮ": 7382,
      "Ø³ÙĦÛĮ": 7383,
      "Ø³Ø±Ø¨": 7384,
      "Ø³Ø±Ø®": 7385,
      "ĠØ§Ø¬ÙĨ": 7386,
      "Ø´Ø´": 7387,
      "Ø´ÙĪÛĮØ¯": 7388,
      "Ø´ÙĪÛĮÙħ": 7389,
      "ĠÙħØ§Ø¨": 7390,
      "ĠÙħØ±ÙĪ": 7391,
      "ĠÙħÙħÙĨ": 7392,
      "ĠÙħÚ¯Ùĩ": 7393,
      "ĠÙħÙĪØ§Ø²": 7394,
      "ĠÙħÙĪÛĮÛĮ": 7395,
      "ĠÚ©Ø¨": 7396,
      "ĠØ¯Ø®": 7397,
      "ĠØ¯ÙģØ§Ø¹": 7398,
      "ÙĦØ¨": 7399,
      "ÙĦØ±Ø²Ùĩ": 7400,
      "Ú¯ÙĪØ´": 7401,
      "Ú¯Ø§ÙĨÛĮ": 7402,
      "Ú¯Ø§ÙĪ": 7403,
      "ĠØ±Ø³ÛĮ": 7404,
      "ĠØ±Ø¯ÛĮ": 7405,
      "Ø¨Ø³ÛĮ": 7406,
      "Ø¨ÙĨØ¯ÙĨØ¯": 7407,
      "âĢĮ:âĢĮ": 7408,
      "ĠÙĪÛĮØ¯": 7409,
      "ĠÙĪØ¬Ùĩ": 7410,
      "ĠÙĪØ§Ø³Ùĩ": 7411,
      "ĠØªÙħÛĮØ²ÛĮ": 7412,
      "ĠÙħÛĮÙĪÙĨ": 7413,
      "ĠÙħÛĮØ¯Ø§ÙĨ": 7414,
      "ĠÙħÛĮØªÙĪØ§ÙĨÙħ": 7415,
      "ĠÙħÛĮØªÙĪØ§ÙĨÛĮÙħ": 7416,
      "ĠÙħÛĮØªÙĪØ§ÙĨÙĨØ¯": 7417,
      "ĠÙħÛĮØ´ÛĮ": 7418,
      "ĠÙħÛĮØªÙĪÙĨØ³Øª": 7419,
      "ĠÙħÛĮÚ©ÙĨÛĮØ¯": 7420,
      "ĠÙħÛĮØ®ÙĨØ¯ÛĮØ¯": 7421,
      "ĠÙħÛĮÚ¯ÙĨ": 7422,
      "ĠÙħÛĮØ¯Ø§Ø±Ùĩ": 7423,
      "ĠÙħÛĮØªÙĪÙĨÛĮØ¯": 7424,
      "ĠÙħÛĮØ¨ÛĮÙĨÙħØª": 7425,
      "ĠØ®Ø§ÙĦ": 7426,
      "ĠØ®ÙĦÙĪØª": 7427,
      "ĠØ®Ø²ÛĮØ¯ÙĨ": 7428,
      "ĠØ¢Ø°": 7429,
      "ĠØ¢Ú¯Ø§Ùĩ": 7430,
      "ĠØ¢Ø´Ú©Ø§Ø±": 7431,
      "ÙģÙĦ": 7432,
      "ÙģØ§ÙĨÙĩ": 7433,
      "ØĮâĢĮ": 7434,
      "ĠØ¨ÙĩØ§Ø±ÛĮ": 7435,
      "ĠØ¨ÙĩØ¯Ø§Ø´Øª": 7436,
      "ĠÙ¾Ø§Ø¨Ø±": 7437,
      "ĠÙ¾ÙħÙ¾": 7438,
      "ÙĩØ§Ùħ": 7439,
      "ĠØ±Ø§ÙĪØ±": 7440,
      "ĠØ±Ø§ÙĨØ¯ÙĨØ¯": 7441,
      "ĠØ±Ø§ÙĨØ¯ÙĨ": 7442,
      "ĠØ±Ø§Ø³ÙĪ": 7443,
      "ÙĪØ¯ÙĪÙĨ": 7444,
      "ĠÙĨØ§Ùĩ": 7445,
      "ĠÙĨÚ©Øª": 7446,
      "ĠÙĨÚ©Ø´": 7447,
      "ĠÙĨØ®ÙĪØ§ÙĩÙħ": 7448,
      "ĠÙĨÚ©ÙĨÙĩ": 7449,
      "ĠÙĨÙĪØ³": 7450,
      "ĠÙĨÙĩØ§Ø±": 7451,
      "ĠÙĨØ±ÙĪÙĨØ¯": 7452,
      "ĠÙĨØ±Ø³ÛĮØ¯ÙĨØ¯": 7453,
      "ĠÙĨØ´Ú©Ø³Øª": 7454,
      "ĠÙĨÙ¾Ø°ÛĮØ±ÙģØª": 7455,
      "Ø®Ø±Ø¯": 7456,
      "Ø®Ø§Ú©": 7457,
      "Ø®Ø·Ø±": 7458,
      "Ø®Ø§Øµ": 7459,
      "ĠÚ¯Ø§Ø±": 7460,
      "ĠÚ¯ÙħØ§ÙĨ": 7461,
      "ĠÚ¯Ø§Ø±Ø¯": 7462,
      "ĠÚ¯Ø²Ø´": 7463,
      "ÙĦÛĮØ§Øª": 7464,
      "ÙĦÛĮÙħÙĪ": 7465,
      "ÙĦÛĮØºØ§ØªÛĮ": 7466,
      "ĠØ§ÙĪØ±": 7467,
      "ĠØ§ÙĪÙĩ": 7468,
      "ĠØ³ÛĮÙĨ": 7469,
      "ĠØ³ÙĪÛĮÛĮ": 7470,
      "ĠØ³ÛĮÙħÛĮ": 7471,
      "ĠØ³Ø§Ø²Ø¯": 7472,
      "ĠØ³Ú©ÙĪ": 7473,
      "ĠØ³Ø§Ø²ÛĮ": 7474,
      "ĠØ´Ø³ØªÙĨØ¯": 7475,
      "ĠØ´ÛĮÙĩ": 7476,
      "ĠØ´Ú©ÙĨØ¯": 7477,
      "Ø§Ø±Ú©Øª": 7478,
      "ÚĨÚ©": 7479,
      "ÚĨÛĮØ¯": 7480,
      "ÚĨØ´Ùħ": 7481,
      "ÚĨÛĮÙĨÙĨØ¯": 7482,
      "ÚĨØ³Ø¨": 7483,
      "ÚĨÙĨÚ¯ÛĮ": 7484,
      "ÙģØªØ¯": 7485,
      "ĠØ±ÙĪÙħ": 7486,
      "Ø§ÙħÙ¾": 7487,
      "Ø§Ø¯Ø±ÛĮ": 7488,
      "ĠØ¨ÙĪØ¯ÛĮØ¯": 7489,
      "ĠØ¨ÙĪØ¯ÙĨØ´": 7490,
      "Ø§Ø´ÙĤÛĮ": 7491,
      "ÛĮÙħØ§ÙĨ": 7492,
      "ĠØ¯ÙĪØ´": 7493,
      "ĠØ¯ÙĪÙĨØ¯Ùĩ": 7494,
      "ĠØ¯ÙĪØ±Ø´": 7495,
      "ĠØ¯ÙĪØ¨Ø§Ø±": 7496,
      "ĠØ¯ÙĪÛĮØ¯Ùĩ": 7497,
      "ĠØ¯ÙĪØ±Ø´Ø§ÙĨ": 7498,
      "ĠØ¯ÙĪØªØ§ÛĮ": 7499,
      "ÙĤØ¯": 7500,
      "ÙĤÙĪÙĩ": 7501,
      "ÙĤØ¯Ùħ": 7502,
      "ÙĤØ§Ù¾": 7503,
      "ÙĤØ¹ÛĮØª": 7504,
      "ĠØ®ÙĪÚ©ÛĮ": 7505,
      "Ø¹Ùģ": 7506,
      "Ø¹ÙĪØ¯": 7507,
      "Ø¹ÙĪØ§": 7508,
      "Ø¹ÙĨÙĪØ§ÙĨ": 7509,
      "ØŃÙħ": 7510,
      "ĠØ²Ø§Ø±": 7511,
      "ĠØ²Ø§Øº": 7512,
      "ĠØ²Ø±ÙĨÚ¯ÛĮ": 7513,
      "ĠØ²Ø§ØºÛĮ": 7514,
      "ĠÙĩÙħØ§Ùĩ": 7515,
      "ĠØ¯ÙĪØ³ØªØ§Øª": 7516,
      "ĠØ¯ÙĪØ³ØªØªÙĪÙĨ": 7517,
      "ĠØ¨Ø§Ø²ÛĮÙĩ": 7518,
      "ĠØ¨Ø§Ø²ÛĮØ´Ø§ÙĨ": 7519,
      "Ø¬ÙĪØ±": 7520,
      "ĠØ¬Ø§Ø±ÛĮ": 7521,
      "ĠØ¬Ø±ÙĪØ¨": 7522,
      "ĠØ¬ØªØ±ÙĪ": 7523,
      "ĠØ±ÙĪØ²Ø¨Ùĩ": 7524,
      "Ġ\"ØĮ": 7525,
      "ĠÚ©ÙĨÛĮÙĨ": 7526,
      "ĠÚ©ÙĨØ³Ø±Øª": 7527,
      "ĠÚĨØ§Ú©": 7528,
      "ĠÚĨÛĮØ¯Ùĩ": 7529,
      "ĠØ¨Ø±Ø®": 7530,
      "ĠØ¨Ø±Ø³ÛĮØ¯": 7531,
      "ĠØ¨Ø±Ø§ÙĨÙĨØ¯": 7532,
      "ĠØ¨Ø±Ø§ÙĪÙĨ": 7533,
      "ĠØ¯Ø§Ø´ØªÛĮØ¯": 7534,
      "ĠÙ¾Ø±Ø³Ùĩ": 7535,
      "ĠÙ¾Ø±ÙħØ´": 7536,
      "ĠÙ¾Ø±ÙĤØ¯Ø±Øª": 7537,
      "ĠØªÛĮÙħØ´": 7538,
      "ĠØ®ÙĪØ´Ø¨ÙĪ": 7539,
      "ĠØ®ÙĪØ´Ø§ÛĮÙĨØ¯ÛĮ": 7540,
      "Ù¾Ø±ÛĮ": 7541,
      "Ù¾ÛĮØ´": 7542,
      "Ù¾Ø¯Ø±": 7543,
      "ĠØ®ÛĮØ³ÛĮ": 7544,
      "ĠØªÙĪÙĨÙĩ": 7545,
      "ĠØªÙĪÙħØ§Ø³": 7546,
      "ĠØªÙĪÙħØ§ÙĨÛĮ": 7547,
      "ÙĪÙĨÛĮÙħ": 7548,
      "ÙħÛĮØ´Ùĩ": 7549,
      "ĠØŃÙĦÛĮ": 7550,
      "ĠØŃØ¶": 7551,
      "ĠØŃÙħÙĪ": 7552,
      "ĠØŃÙĦÛĮÙħ": 7553,
      "ĠÙĤØµØ±": 7554,
      "ĠÙĤØµÙĩ": 7555,
      "ĠÙĤØ§Ø´ÙĤÛĮ": 7556,
      "ĠØ§Ø³ØªØ®": 7557,
      "ĠØ§Ø³ØªÙĪØ¯ÛĮ": 7558,
      "ĠØ§Ø³ØªØ¹Ø¯Ø§Ø¯": 7559,
      "ĠÙĦÛĮØ³Ø¯": 7560,
      "ĠÙĦÛĮÙĨØ¯Ø§": 7561,
      "ĠØ§Ø³ÙĦØ§": 7562,
      "ĠØ§Ø³Ø±Ø§Ø±": 7563,
      "Ú©Ø±Ø¯ÛĮØ¯": 7564,
      "Ø°Ø§Ø´": 7565,
      "Ø®ÙĪØ§ÛĮØ¯": 7566,
      "Ø®ÙĪØ§Ø¨Ø¯": 7567,
      "ĠØ§ÛĮÙĨÙĪØ±": 7568,
      "ĠØ§ÛĮÙĨØªØ±": 7569,
      "ĠØ§ÛĮÙĨØ¬ÙĪØ±ÛĮ": 7570,
      "ĠÚ©ÙĪÚĨÙĩ": 7571,
      "ØªØ±ÙĨØ¯": 7572,
      "ØªØ±Ø³ÛĮ": 7573,
      "ĠÛĮØ§ÙĤ": 7574,
      "ĠØ¨Ø±Ø§ÛĮØ§ÙĨ": 7575,
      "Ø¨Ø§Ø²Ùħ": 7576,
      "ĠÙħØ§Ø¯Ùĩ": 7577,
      "ĠØ¹Ø¶": 7578,
      "ĠØºØ±Ùģ": 7579,
      "ĠØºÚĺ": 7580,
      "ĠØºÙĨÛĮ": 7581,
      "ĠØºÙĪØ·Ùĩ": 7582,
      "ØºÙĦÛĮ": 7583,
      "ØºØ±ÙĪ": 7584,
      "ØºÙĪØ´": 7585,
      "ØºÙĦÙĩ": 7586,
      "ØºØµÙĩ": 7587,
      ".\"âĢĮ": 7588,
      "Ø±ÛĮØ¨ÛĮØª": 7589,
      "ĠØµØ¹ÙĪØ¯": 7590,
      "ĠØ±ÙģØªÛĮÙħ": 7591,
      "ĠØ±ÙģØªØ§Ø±ÛĮ": 7592,
      "ĠÙ¾Ø³ÙĨØ¯": 7593,
      "ĠØ²Ø¯Ùħ": 7594,
      "ĠØ²Ø¯ÙĨØ´": 7595,
      "ØµÙĪÙĦ": 7596,
      "ĠÚ©ÙħØ±Ùħ": 7597,
      "ĠØ¯Ø§Ø¯ÛĮÙħ": 7598,
      "ĠØ¯Ø§Ø¯Ú¯Ø§Ùĩ": 7599,
      "ĠÙĨØ§ÙħÛĮØ¯ÙĨØ¯": 7600,
      "ĠÙĨØ§ÙħÛĮØ¯Ùĩ": 7601,
      "ĠÙĨØ§ÙħØ±Øª": 7602,
      "ĠÙĨØ§ÙħØªØ¹Ø§Ø¯ÙĦ": 7603,
      "ĠÙĨØ§ÙħÙĨØ§Ø³": 7604,
      "Ø®ÙĪØ§Ø³ØªÛĮ": 7605,
      "ĠÙĨÙħÛĮØ´Ùĩ": 7606,
      "ĠÙĨÙħÛĮØªØ±Ø³ÛĮØ¯": 7607,
      "ĠÙĨÙħÛĮØªÙĪÙĨÛĮ": 7608,
      "ĠØ±ÙĪÛĮÛĮØ¯": 7609,
      "ĠÚ©ÙħÚ©ÙħØ§ÙĨ": 7610,
      "ĠÚ©ÙħÚ©ØªØ§ÙĨ": 7611,
      "!\",": 7612,
      "!\"âĢĮ": 7613,
      "Ø¨Ø§Ø¨ÛĮ": 7614,
      "Ø¨Ø§Ø¨Ø§ÛĮÛĮ": 7615,
      "ĠØ³ÙĪØ¦ÛĮ": 7616,
      "ĠØ¯ÛĮÙĪØ§Ø±ÛĮ": 7617,
      "Ø±ÙħÙĨØ¯": 7618,
      "Ø¹Ø¯Ø´": 7619,
      "ĠØ³Ú¯ÙĩØ§ÛĮ": 7620,
      "ĠØ³Ú¯Ø´Ø§ÙĨ": 7621,
      "ĠØ²ÛĮÙ¾Ø±": 7622,
      "ĠÙĨÚ¯ÙĪÛĮØ¯": 7623,
      "ĠÙĪÙĤÙĪØ¹": 7624,
      "ĠØ¯Ø±Ø®ØªØ§": 7625,
      "ĠØ¯Ø±Ø®ØªØ´": 7626,
      "ĠØ¨Ø¯ÛĮØ¯": 7627,
      "ĠØ¨Ø¯ÙĪÙħ": 7628,
      "ĠØ¨Ø¯ÙħØ´": 7629,
      "ĠØ§ØŃÙĪØ§ÙĦ": 7630,
      "ĠÙĩØ±Ø²": 7631,
      "ĠÙĩØ±Ú©Ø³": 7632,
      "ĠÙĩØ±Ø±ÙĪØ²": 7633,
      "ĠÙĩØ±ÚĨÙĨØ¯": 7634,
      "ĠØ¨Ø±Ø¯ÙĨØ´": 7635,
      "ĠÙĨÚ¯Ø§ÙĩØ´Ø§ÙĨ": 7636,
      "ØŁ\".": 7637,
      "ÙħÙĨØ¸ÙĪØ±": 7638,
      "ĠØ§ØªÙħØ§Ùħ": 7639,
      "ĠÙĦØ¨Ø®ÙĨØ¯ÙĩØ§ÛĮ": 7640,
      "ĠØªØ±ÙģÙĨØ¯": 7641,
      "ĠÚ©Ø§Ø±Ú¯Ø±": 7642,
      "ĠØªÙħØ§ÛĮÙĦ": 7643,
      "ĠØ§ØŃØ³Ø§Ø³ÛĮ": 7644,
      "ĠØ³Ø±Ø®ÛĮ": 7645,
      "ĠØ³Ø±Ø®ÙĪØ±Ø¯ÙĨ": 7646,
      "ĠØ¨ÙĦØº": 7647,
      "ÙĨØ¬Ø¯": 7648,
      "ÙĨØ¬Ø§Øª": 7649,
      "ĠØ®ÙĪØ¯Ø¯Ø§Ø±ÛĮ": 7650,
      "ĠØ®ÙĪØ¯Ú©Ø§Ø±ÛĮ": 7651,
      "ĠØ¨Ø±Ú¯Ø´ØªÛĮ": 7652,
      "ĠÙħØ§ÙħØ§ÙĨØª": 7653,
      "ĠØ¯Ø³ØªØ§ÛĮ": 7654,
      "ĠØ¯Ø³ØªØ´Ø§ÙĨ": 7655,
      "ĠØ¯Ø³ØªØ§ÙĨØ´Ø§ÙĨ": 7656,
      "ĠØ¯Ø³ØªÙģØ±ÙĪØ´": 7657,
      "ĠØµØ¯ÙĩØ§": 7658,
      "Ø¢ÙĩØ§": 7659,
      "Ø¢Ø¨ÛĮ": 7660,
      "Ø¢ÙģØ±": 7661,
      "Ø¢ÙĩÙĨ": 7662,
      "Ø¢ØºÙĪØ´": 7663,
      "ĠÙħØªÙĪØ§Ø²": 7664,
      "ĠÙħØªÙĨÛĮ": 7665,
      "Ø¯Ø±Ø®Øª": 7666,
      "Ø¯Ø±Ø³ØªÙĩ": 7667,
      "ĠÛĮØ§Ø¯Ú¯Ø§Ø±ÛĮ": 7668,
      "ĠÙħÙĪÙĨØ¯ÙĨØ¯": 7669,
      "ĠÙħÙĪØ¬Ø¨": 7670,
      "ĠÙħÙĪÙĩØ§ÛĮØ´Ø§ÙĨ": 7671,
      "ĠÙħÙĪÙĩØ§ÛĮØª": 7672,
      "ĠÙħÙĪÙĩØ§Ø´ÙĪÙĨ": 7673,
      "ĠÙħÙĪØ«Ø±": 7674,
      "ĠÙħÙĪÙĤØ¹ÛĮØª": 7675,
      "ĠØªØµØŃÛĮ": 7676,
      "ĠÙħØ§Ø¯Ø±Øª": 7677,
      "ĠØ·ÙħØ¹": 7678,
      "ĠØ·Ø§ÙĤØª": 7679,
      "ĠÙĨØ¨Ø³ØªÙĩ": 7680,
      "ĠØ§Ø´Ø®Ø§Øµ": 7681,
      "ĠØªÙħØ§ÙħÛĮ": 7682,
      "ĠÙĨØ§ÚĨÛĮØ²": 7683,
      "ĠÙĨØ§ÙĪØ¯ÙĪÙĨ": 7684,
      "ĠØ¨Ø§Ø²ÛĮÙħ": 7685,
      "ĠØ¨Ø§Ø²Ú¯Ø±Ø¯Ø§ÙĨØ¯": 7686,
      "ĠØ¢Ø¨ÙĦÛĮÙħÙĪ": 7687,
      "ĠÙĦÙĪØ³": 7688,
      "ĠØºÙħÚ¯ÛĮÙĨÙħ": 7689,
      "ĠØ¨Ú¯ÛĮÙħ": 7690,
      "ĠØ¨Ú¯Ø±ÛĮØ²Ø¯": 7691,
      "ĠØ¨Ú¯ÙĪÛĮÛĮÙħ": 7692,
      "ĠØ¨Ú¯ÙĨØ¬Ø¯": 7693,
      "ĠØ±ÙĨÚ¯Ø´Ø§ÙĨ": 7694,
      "ĠØ¨Ø®ÙĨØ¯Ùĩ": 7695,
      "ĠØ¨Ø®ÙĪØ§Ø¯": 7696,
      "ĠØ¨ÙĦÙĨØ¯ØµØ¯Ø§": 7697,
      "ĠÙ¾Ø§ÛĮØ´Ø§ÙĨ": 7698,
      "ĠØ³Ø§ÙħÛĮ": 7699,
      "ĠØ¨ÛĮØ§Ø±Ùħ": 7700,
      "ĠØ§Ø³Ù¾Ø±ÛĮ": 7701,
      "Ø¯ÛĮØ²ÛĮ": 7702,
      "ĠØ®Ø±ÚĨÙĨÚ¯ÛĮ": 7703,
      "ĠØ³ÙĨÚ¯Ø§ÛĮ": 7704,
      "ĠØ³ÙĨÚ¯ÙĪØ§Ø±Ùĩ": 7705,
      "ĠØ´ÙĨØ§Ø®Øª": 7706,
      "ĠÚ©ÙĦÙģØª": 7707,
      "ĠÙĨØ§Ø±Ø§Ø¶ÛĮ": 7708,
      "ĠØ¨Ø¨Ø®Ø´Ùħ": 7709,
      "ĠÚ©Ø´Ø´": 7710,
      "ĠÚ©Ø´ÙģØ´": 7711,
      "ĠÚ¯Ø°Ø§Ø´ØªÛĮÙħ": 7712,
      "Ø®ÙĪØ§ÙĩÙħØ´": 7713,
      "ĠØ²ÙħÙĪÙĨÛĮ": 7714,
      "ĠÚ¯ÙĦÙĪÛĮØ´": 7715,
      "ØªÙĪØ§ÙĨØ³ØªÙħ": 7716,
      "ØªÙĪÙĨØ³ØªÙĨØ¯": 7717,
      "ĠØ§ØªØ§ÙĤÙħØ§ÙĨ": 7718,
      "Ø´ÙĨÛĮØ¯ÙĨØ¯": 7719,
      "Ø´ÙĨØ§Ø³Ø¯": 7720,
      "ĠØ®ÙĪØ±Ø¯ÛĮ": 7721,
      "ĠØ®ÙĪØ±Ø¯ÙĨÛĮ": 7722,
      "Ø¯Ø§ÙĨØ³ØªÛĮÙħ": 7723,
      "ÙĪÙĨØ¯ÙĨ": 7724,
      "ĠÙĩØ§Ø³Øª": 7725,
      "Ú©ÙĨÙĨØ¯Ú¯Ø§ÙĨ": 7726,
      "ĠØ®ÙĪØ¨Ø´": 7727,
      "ĠØ¨ÛĮØ§ÛĮÙĨ": 7728,
      "ĠØ¨ÛĮØ§ÙĪØ±ÛĮ": 7729,
      "ĠØ¨ÙĩØªØ±ÛĮÙĨØª": 7730,
      "ĠÙĨØ´Ø§ÙĨØª": 7731,
      "ÙĤØ¯Ø±ÙĩØ§": 7732,
      "ĠØ³Ø±ÛĮØ¹ÛĮ": 7733,
      "ĠÙĨÛĮØ³ØªÛĮØ¯": 7734,
      "ĠÙģØ±ÙĤ": 7735,
      "ĠØ³Ø±ÛĮØ¹ØªØ±": 7736,
      "ĠÙħØ«Ø¨Øª": 7737,
      "ĠÙħØ¯Ø§ÙĪØ§": 7738,
      "Ùĭ.": 7739,
      "Ùĭ.\"": 7740,
      "ĠÙ¾ÛĮØ§ÙħÛĮ": 7741,
      "ĠØªÙĨØ¸ÛĮÙħ": 7742,
      "ĠØ´Ú©Ø³ØªÙĨØ¯": 7743,
      "ĠØ´Ú©Ø§Ø±ÛĮ": 7744,
      "ĠØ´Ú©Ø§Ùģ": 7745,
      "Ø¨Ø±ÛĮØ¯": 7746,
      "Ø¨Ø±Ø§Ø¯Ø±Ø§ÙĨ": 7747,
      "ĠÙĦØ°ÛĮØ°": 7748,
      "ĠÙħØŃØ¯": 7749,
      "ĠÙħØŃÙĦÛĮ": 7750,
      "ĠÙħØŃØ¨ÙĪ": 7751,
      "ĠÙħØŃØªØ±Ùħ": 7752,
      "ĠÙħØŃØµÙĪÙĦ": 7753,
      "ĠØŃØ±ÙģÛĮ": 7754,
      "ĠØ®Ø±Ø³ÙĨØ¯": 7755,
      "ØªØ´Ùĩ": 7756,
      "ÙħÙĪØ§Ø±": 7757,
      "ĠØ¨Ù¾Ø±Ø³ÛĮØ¯": 7758,
      "ĠØ¨Ù¾Ø±Ø³ÙĨØ¯": 7759,
      "ĠÚ©ØªØ§Ø¨Ùħ": 7760,
      "ĠÚ©ØªØ§Ø¨Øª": 7761,
      "ĠØ¯Ø±Ø®Ø´Ø¯": 7762,
      "ĠØ¹Ø±ÙĪØ³Ú©Ø§Øª": 7763,
      "Ø¬ÙĩÛĮØ¯": 7764,
      "Ø§ÛĮÙĨÙĩØ§": 7765,
      "ÙĤÛĮÙĤ": 7766,
      "ÙĨØ´Ø³ØªÙĨØ¯": 7767,
      "ĠØ¯Ø±Ø®Ø´Ø§ÙĨØ´": 7768,
      "ÙģÙĤÙħ": 7769,
      "ĠØ§ÙĨØ¯Ø§Ø²ÙĨØ¯": 7770,
      "Ú¯Ø°Ø±": 7771,
      "Ú¯Ø°Ø±Ø¯": 7772,
      "Ú¯Ø°Ø±Ø§ÙĨ": 7773,
      "ĠØ®ÙĪØ§Ø¨Ùĩ": 7774,
      "ĠØ®ÙĪØ§Ø¨Ø§ÙĨØ¯": 7775,
      "ĠØ³Ø§Ø®ØªÛĮ": 7776,
      "ĠØ³Ø§Ø®ØªÛĮØ¯": 7777,
      "ĠØ³Ø±Ø´Ø§Ø±": 7778,
      "ĠØ³Ø±Ø´ÙĪÙĨ": 7779,
      "ĠÙĩÛĮÚĨÚ©Ø¯Ø§Ùħ": 7780,
      "ĠØ¢ÙĪØ±Ø¯Ùħ": 7781,
      "ĠØ¢ÙĪØ±Ø¯ÛĮØ¯": 7782,
      "ĠØ´ÙĨÛĮØ¯Ùħ": 7783,
      "ĠÙħØ¹Ùħ": 7784,
      "ĠÙħØ¹ÙĨØ§": 7785,
      "ĠØ¨Ø±Ú¯Ø±Ø¯ÛĮ": 7786,
      "ĠØ¨Ø±Ú¯Ø±Ø¯Ø§ÙĨÛĮ": 7787,
      "ĠØ¨Ø±Ú¯Ø±Ø¯Ø§ÙĨÛĮÙħ": 7788,
      "ĠØ¨Ø¨ÛĮÙĨØ¯Ø´": 7789,
      "Ù¾Ø±Ø³ÛĮ": 7790,
      "Ù¾Ø±ÛĮØ¯ÙĨ": 7791,
      "Ú©ÙħØ§ÙĨÛĮ": 7792,
      "ĠØ¬Ø§ÙĦØ¨Ø´": 7793,
      "ĠÙĤØ·Ø±Ø§Øª": 7794,
      "ĠÙ¾Ø´ØªÚ©Ø§Ø±": 7795,
      "ĠØ³Ø§ÙĦØ®ÙĪØ±Ø¯Ùĩ": 7796,
      "ĠÙģØ±ÙĪØ´ÛĮ": 7797,
      "ĠÙģØ±ÙĪØ´ÙĨØ¯Ú¯Ø§ÙĨ": 7798,
      "ĠØ§ÙĦØ²ÛĮØª": 7799,
      "ĠØ§ÙĦÙĩØ§Ùħ": 7800,
      "ĠØ§ÙħØªØ¯Ø§Ø¯": 7801,
      "ĠÙħØªÙĨÙĪØ¹ÛĮ": 7802,
      "ĠÙĨÚ©Ø±Ø¯ÛĮ": 7803,
      "Ø®Ø±ÙĨØ¯": 7804,
      "Ø®Ø±ÛĮÙħ": 7805,
      "ĠÙĤØ§ÛĮÙĤÛĮ": 7806,
      "ĠØ´Ø¬Ø§Ø¹Ùĩ": 7807,
      "ĠØªØ±Ø³ÙĨØ¯": 7808,
      "ĠØ·Ø±ÙģØ´Ø§ÙĨ": 7809,
      "ĠÙĨØ¨Ø§Ø´ÛĮÙħ": 7810,
      "ĠÙ¾ÙĪØ´ÙĨØ¯": 7811,
      "ĠÙ¾ÙĪØ´Ø§ÙĨØ¯Ùĩ": 7812,
      "ĠÚ¯Ø±Ø¯Ùħ": 7813,
      "ĠÚ¯Ø±Ø¯Ø¨Ø§Ø¯": 7814,
      "ĠØ±ÛĮØ¨ÛĮØª": 7815,
      "ĠÚ©ÙĨØ¬Ú©Ø§ÙĪÙĨØ¯": 7816,
      "ÙħØ¹Ú©ÙĪØ³": 7817,
      "Ú¯Ø±Ø¯Ø§ÙĨÙĨØ¯": 7818,
      "ĠÙħÛĮØ²ÙĨØ¯": 7819,
      "ĠØºØ±ÛĮØ¯ÙĨ": 7820,
      "ĠØºØ±ØºØ±ÙĪ": 7821,
      "ĠÙĤÙģØ³ÛĮ": 7822,
      "ĠØ§ØªØ§ÙĤØ´ÙĪÙĨ": 7823,
      "ĠØ¬Ø§ÙĩØ§ÛĮ": 7824,
      "ÙħØ§ÙħØ§ÙĨÛĮ": 7825,
      "ĠÙĩÙĨØ±": 7826,
      "ĠÙħØ±ØªÚ©Ø¨": 7827,
      "ĠØ´Ø¬Ø§Ø¹Ø§ÙĨÙĩ": 7828,
      "ĠÙĨÙħØ±Ùĩ": 7829,
      "ĠÙĨÙħÛĮØ¯Ùĩ": 7830,
      "ĠÚĨØ±Ø®ÛĮ": 7831,
      "ĠØ±ÙĤØµØ´": 7832,
      "ĠÙħØ§ÙĦØ¯": 7833,
      "ĠÙĤØ´ÙĨÚ¯ÛĮÙĩ": 7834,
      "ĠØ¯ÛĮØ¯ÙĨØ´Ø§ÙĨ": 7835,
      "ĠØ³Ø±Ø¯Ùĩ": 7836,
      "Ø¯Ø§Ø±ÙĩØ§": 7837,
      "ĠÙħØ´Ø§Ø¨Ùĩ": 7838,
      "ĠØ®ÙĪØ´Ø´ÙĪÙĨ": 7839,
      "ĠØªÙħØ§Ø´Ø§Ú¯Ø±Ø§ÙĨ": 7840,
      "ĠØ¨Ø´Ú©ÙĨÙħ": 7841,
      "ĠØ¨Ø´ÙĪÛĮÙħ": 7842,
      "ĠØ¨Ø´ÙĪØ±ÛĮ": 7843,
      "ĠØ¨Ø´ÙĪØ±Ùĩ": 7844,
      "ĠØ¨Ø´ÛĮÙĨÛĮÙħ": 7845,
      "Ø²ÙĨÙĨ": 7846,
      "ĠÙ¾Ø§ÙĩØ§": 7847,
      "ĠØŃÙĦØ´": 7848,
      "ØªØ±ÛĮÙĨØ´": 7849,
      "ĠØ§Ø·Ø±Ø§ÙģØ´Ø§ÙĨ": 7850,
      "ĠØ®ÙĪØ´Ø¨Ø®ØªÙħ": 7851,
      "ĠØ³ÙĪØ±Ø§Ø®Ø´": 7852,
      "ĠÙĤØ·Ø§Ø±ÙĩØ§ÛĮØ´": 7853,
      "ĠÙħØ·Ø¨": 7854,
      "ĠØ¯Ø±ÙĪÙĨØ´": 7855,
      "ĠØ§ÙĪÙħØ¯Ùħ": 7856,
      "ĠØ§ÙĪÙħØ¯ÙĨØ¯": 7857,
      "ĠØ§ÙĪÙħØ¯ÛĮÙħ": 7858,
      "ĠÙģØ±Ø¯Ø§ÛĮ": 7859,
      "ĠÚ¯ÛĮÙĦØ§Ø³ÛĮ": 7860,
      "ĠÚĨØ´ÙħÚ©ÛĮ": 7861,
      "ĠØ¬ÛĮÙĨØ§": 7862,
      "ĠØµØ¨ÙĪØ±ÛĮ": 7863,
      "ĠØ¨Ø§ÙĩÙĪØ´Ø´": 7864,
      "ĠÙħÙĪØ±Ø§ÙĦ": 7865,
      "ĠÙħØ§Ø¯Ø±Ø¨Ø²Ø±Ú¯Ùħ": 7866,
      "ĠØªØ§Ø±Øª": 7867,
      "ĠÙĩÙĦØ´ÛĮ": 7868,
      "Ø¯ÙĪØ¨Ø§Ø±Ùĩ": 7869,
      "ĠØªØ¨ÙĦÛĮØºØ§ØªÛĮ": 7870,
      "ĠØ¶Ø¯": 7871,
      "ĠØ¶Ø¹Ùģ": 7872,
      "ĠØ³ÙĦØ§ÙħØªÛĮ": 7873,
      "ĠÙ¾Ø±ØªÚ¯Ø§Ùĩ": 7874,
      "ĠÙ¾Ø±ØªØ§Ø¨Ø´": 7875,
      "ĠØ±ÛĮØ®ØªÙĨ": 7876,
      "ÙģØ±Ø³Øª": 7877,
      "Ù¾ÛĮÚĨÛĮ": 7878,
      "Ø¯Ø§Ø³ØªØ§ÙĨ": 7879,
      "ĠÚ©Ø§ÙħÙĪØ§ÛĮ": 7880,
      "ĠØ¯ÙĦØ´Ø§ÙĨ": 7881,
      "ĠØ¯ÙĦØ³ÙĪØ²": 7882,
      "ĠØ¨Ù¾Ø±Ø¯Ø§Ø²ÙĨØ¯": 7883,
      "Ø¯Ø§Ø´ØªÙĨØ¯": 7884,
      "ĠØ¢Ø²ÙħÙĪÙĨÛĮ": 7885,
      "ĠØ®Ø±Ø§Ø¨Ø´": 7886,
      "ĠÚ¯Ø§ÙĪÚĨØ±Ø®Ùĩ": 7887,
      "ĠØ³ÙĨÚ¯ÛĮÙĨÙĩ": 7888,
      "ĠØ¨ÙĪØ³Ø¯": 7889,
      "ĠÚ©Ø«ÛĮÙģÙĩ": 7890,
      "ÙħØ¦ÙĨÙħ": 7891,
      "ĠÙĪØ³Ø§ÛĮÙĦÛĮ": 7892,
      "ĠØ¨Ø²ÙĨÙĨ": 7893,
      "ĠØ¹ÙĦÙģÙĩØ§": 7894,
      "ĠØ¹ÙĦÙģØ²Ø§Ø±": 7895,
      "Ø¨ÙĪØªÛĮ": 7896,
      "ĠØ²ÙĨØ¨ÙĪØ±ÛĮ": 7897,
      "ĠÙĩÙĪØ§Ù¾ÛĮÙħØ§ÛĮØ´": 7898,
      "ĠØ¯ÙĨØ¯Ø§ÙĨÛĮ": 7899,
      "ÙĨÚ©Ø¨ÙĪØªÛĮ": 7900,
      "ĠÚ©ÙģØ´Ø´": 7901,
      "ĠØ®Ø§Ø±ÙĩØ§ÛĮØ´": 7902,
      "ĠØ¨Ø±Ø§Ø¯Ø±ÙĩØ§ÛĮÛĮ": 7903,
      "ĠØ¹ÙħÙĦÛĮØ§Øª": 7904,
      "ÙĨØ§Ø¨ÙĪØ¯": 7905,
      "ĠØªÛĮØº": 7906,
      "ĠØ±ÙĪØ¯Ø®ÙĪÙĨÙĩ": 7907,
      "ĠÙħØ¯Ø§Ø¯Ø´": 7908,
      "ĠÙħÙĦØ§ØŃØ¸Ùĩ": 7909,
      "ĠØŃÙģØ§Ø±ÛĮ": 7910,
      "ĠØ¯Ø§ÙĨØ³ØªÙħ": 7911,
      "ĠØ³ÛĮÙĦÛĮ": 7912,
      "ĠÙħÚ©Ø§ÙĨÛĮÚ©": 7913,
      "ĠØ¨ÙĪÛĮØ´Ø§ÙĨ": 7914,
      "ĠÙ¾Ø´ÛĮÙħÙĪÙĨ": 7915,
      "ĠØ¨ÛĮÙĨØ¯Ø§Ø²ÛĮ": 7916,
      "ĠØ¯ÙĨØ¯Ø§ÙĨÙĩØ§ÛĮ": 7917,
      "ĠØ¯ÙĨØ¯Ø§ÙĨÙ¾Ø²Ø´Ú©": 7918,
      "ĠÙ¾ÛĮÚĨØ´": 7919,
      "ĠÙĤØ§Ø·": 7920,
      "ĠÙĩÛĮÙĪÙĦØ§ÛĮÛĮ": 7921,
      "ĠÙ¾Ø§Ø¯Ø§Ø´ÛĮ": 7922,
      "ĠØªØ³ØªØ±": 7923,
      "ĠØ±ÙĪØ³ØªØ§ÛĮÛĮ": 7924,
      "ĠÙħØªÙģØ§ÙĪØªØ´": 7925,
      "ĠØ¨Ø¹Ø¶ÛĮØ§Ø´ÙĪÙĨ": 7926,
      "ĠÙħÙĪØªÙĪØ±Ø´": 7927,
      "ĠÚĨØ±Ø§ØºÛĮ": 7928,
      "ĠÚĨØ±Ø§ØºÙħ": 7929,
      "ĠÚĨØ±Ø§ØºÙĩØ§": 7930,
      "ĠÙĪØ³Ø§ÛĮÙĦØ´Ø§ÙĨ": 7931,
      "ĠØ§Ø¹ØªÙħØ§Ø¯Ø´": 7932,
      "Ø±ÙĤØµÙĨØ¯": 7933,
      "ĠØ§ÙĦÛĮØ§ÙĨ": 7934,
      "ĠÙ¾Ø°ÛĮØ±ÛĮ": 7935,
      "ĠØ¨Ø®Ø´Ø´": 7936,
      "ĠØ³Ø·ÙĦØ´": 7937,
      "ĠÙ¾ÛĮØ±Ø§ÙĩÙĨÛĮ": 7938,
      "ĠÙģØ´Ø§Ø±Ø´": 7939,
      "ĠØ¬Ø§Ø¯ÙĪÚ¯Ø±ÛĮ": 7940,
      "Ø§ÙĨÚ¯ÛĮØ²ØªØ±ÛĮÙĨ": 7941,
      "Ø®ÙĪØ§Ø¨ÙĨ": 7942,
      "ĠØ¯Ø²Ø¯ÛĮØ¯": 7943,
      "ĠØªÚ©Ø§ÙĨØ¯": 7944,
      "ĠØ¨Ø§Ø¯Ø¨Ø§Ø¯Ú©Øª": 7945,
      "ĠØªÙĪÙĨÙĨ": 7946,
      "ĠØ¨Ø¯Ø¬ÙĨØ³Ø§ÙĨÙĩ": 7947,
      "ĠØ®Ø§ØµÙĩ": 7948,
      "ĠØ¨Ø±ÙģÚ©": 7949,
      "ĠÙĨØ´ÙĪÙĨØª": 7950,
      "ĠÙĦØ§Ú©Ù¾Ø´Øª": 7951,
      "ĠØ«Ø±ÙĪØªÙħÙĨØ¯ÛĮ": 7952,
      "ÙĨÙĩØ§Ø¯": 7953,
      "ĠÙĦÛĮÙħÙĪÙĩØ§ÛĮ": 7954,
      "ĠÙĦÛĮÙħÙĪØªØ±Ø´": 7955,
      "ĠÚ©ÙħØ±Ø¨ÙĨØ¯ÛĮ": 7956,
      "ĠØ¨ÙĨÙģØ´Ø´": 7957,
      "ĠÙħØ±Ø¨Ø¹ÛĮ": 7958,
      "ĠÙĪØ§ÙĦØ¯ÛĮÙĨØªØ§ÙĨ": 7959,
      "ĠÚĨØ§ÙĤÙĪÛĮ": 7960,
      "ĠØ¨Ù¾ÙĪØ´ÛĮÙħ": 7961,
      "ĠØ²ÛĮØ¨Ø§ÛĮØ´Ø§ÙĨ": 7962,
      "ĠØ¨Ø±ÙĤØµÛĮ": 7963,
      "ĠØªØ±Ú©Ø§ÙĨØ¯": 7964,
      "ĠÙ¾Ø§Ø´Ø¯": 7965,
      "ĠÙ¾Ø§Ø´ÛĮØ¯Ùĩ": 7966,
      "ĠÙģØ±Ø§Ø²": 7967,
      "ÙħØªØ§Ø³ÙģØ§ÙĨÙĩ": 7968,
      "ĠÙĨØ§Ø§ÙħÛĮØ¯ÛĮ": 7969,
      "ĠØ¯Ø¹ÙĪØªÙĨØ§ÙħÙĩ": 7970,
      "ĠØ¨ÙĨØ¯Ø§Ø²Ø¯": 7971,
      "ĠÙĩÙĪØ§Ù¾ÛĮÙħØ§Ø³Øª": 7972,
      "ĠØªØŃÙħÙĦ": 7973,
      "ĠØ¨Ø±ÛĮØ²ÙĨØ¯": 7974,
      "ĠØ¨Ø±ÛĮØ²ÛĮÙħ": 7975,
      "ĠØ¯ÙĨÛĮØ§ÛĮÛĮ": 7976,
      "ĠÙ¾ÛĮØªØ²": 7977,
      "ĠÚĨÙĨÚ¯Ø§ÙĦÙĩØ§ÛĮ": 7978,
      "ĠØ¢ÙĦÙĪÚĨÚ©": 7979,
      "ĠÙĨÙĪØ²Ø§Ø¯Ø´": 7980,
      "ĠÚ©ÙĪÚĨÛĮÚ©Ùĩ": 7981,
      "ĠÙ¾ÛĮØ´ÙĨÙĩØ§Ø¯ÛĮ": 7982,
      "ĠØ±Ø§Ø²ÙĩØ§ÛĮ": 7983,
      "ĠØ±Ø§Ø²Ø¢ÙĦ": 7984,
      "ĠØ¬ÙĦÙĪØªØ±": 7985,
      "ĠØªÙħØ±Ú©Ø²": 7986,
      "ĠÙĨØ§ÙĩØ§Ø±ØªØ§ÙĨ": 7987,
      "ĠØ¹ÙĤØ¨Ø´": 7988,
[...]
